#version: 0.2 - Trained by `huggingface/tokenizers`
Ġ Ġ
ĠĠ ĠĠ
ĠĠ Ġ
o r
i n
e r
> <
o n
r e
s e
Ġ t
ĠĠĠĠ ĠĠĠ
m p
Ġ i
a t
s t
l e
or t
Ġ a
r o
mp ort
e n
: <
h e
d e
Ġ =
" "
t i
) <
Ġ f
a l
Ġ p
Ġ c
se l
sel f
a n
ro m
in g
a r
m e
g e
Ġi mport
Ġ s
Ġt he
Ġ re
f rom
Ġ o
u r
Ġ w
) :<
_ _
i t
. <
s s
Ġ b
Ġ d
> #
- -
c e
u t
Ġ in
c t
ĠĠĠĠ ĠĠĠĠĠĠĠ
e x
"" "
i on
l a
Ġ self
l o
de f
i mport
en t
l i
Ġ n
ti on
m a
e d
l s
a me
u n
Ġ (
i le
Ġt o
a d
c o
t h
er s
r i
a c
Ġ T
e s
Ġ '
""" <
Ġ #
i l
Ġ def
i st
Ġ m
i s
u ti
y p
p p
Ġa n
o t
r or
Ġ "
, <
ur n
u e
t urn
t er
i d
Ġf or
= =
Ġ C
i v
ex t
m ent
r a
uti ls
Ġre turn
o d
la ss
Ġi s
on e
Ġo f
. _
a ge
-- --
Ġ S
st r
f or
ge t
Ġ h
Ġ v
n ame
an d
Ġ I
o l
at e
Ġt h
Ġ k
r ror
E rror
e l
Ġan d
Ġi f
at ion
at h
o p
c lass
u p
Ġ P
Ġ N
o c
ac k
Ġ A
i p
' '
i c
Ġ -
u l
e t
e ct
i r
ers ion
ĠĠĠĠ ĠĠĠĠ
al l
a s
a se
Ġ L
3 2
e c
Ġ u
yp e
on t
Ġ 1
iv y
h t
ma ge
' <
Ġb e
for m
i z
a b
Ġf ile
i re
Ġ 2
en d
Ġc o
Ġ __
p tion
t o
il d
Ġ """<
c h
] <
y s
Ġ .
( )<
f i
Ġ D
Ġk ivy
Ġ lo
it h
R e
o w
y th
0 0
se t
Ġn ot
p ath
u re
yth on
~ ~
Ġa s
iz e
p ar
b u
s er
Ġ e
t e
Ġp ip
t r
Ġ F
at a
Ġf rom
Ġ ex
Ġ B
' ,
li b
Ġ `
in t
Ġ str
Ġo s
Ġ _
u le
s p
ĠN one
q u
j ect
Ġw in
== ==
__ (
od ule
Ġ de
an g
mp le
p t
Ġ on
g g
er t
Ġt ype
f ile
o ut
Ġ """
Ġ 0
---- ----
h is
v e
Ġ O
Ġ or
Ġw ith
g s
o ur
u b
Ġ st
q ue
Ġs ys
m m
Ġ *
( '
g ht
ist utils
al ue
Ġ g
Ġ r
li c
k e
p y
que st
c tion
e w
ter n
v ersion
b ject
ur l
co de
Ġ l
o de
ĠĠĠĠ ĠĠĠĠĠĠĠĠĠĠĠ
) )<
Ġt r
Ġw h
( "
Ġ <
oc utils
c on
Ġ [
Ġ M
or y
ro p
Ġn ame
l y
an s
Ġm odule
># <
i se
u m
i x
in d
Ġ +
Ġ ma
un d
th er
Ġth at
> """<
our ce
in it
Ġ- >
o s
ab le
Ġa re
Ġb y
Ġp ar
v i
c k
d ir
i f
p re
v er
Ġ :
Ġd o
ul t
a pp
u ild
" ,
e m
f o
Ġu se
ri ght
o u
Ġ H
Ġc ont
Ġc on
mm and
n t
er ror
tern al
Ġ y
in e
Ġc an
st all
I n
m l
ang u
( )
qu ire
angu age
Ġp ro
Ġs h
Ġ get
a g
' )<
Ġ me
t p
ack age
R E
ing s
it y
op y
e st
Ġ $
Ġ en
Ġth is
ĠT his
" <
ar gs
E R
'' '<
ĠT he
i ct
ce pt
in ternal
> >
Ġ W
re e
Ġi t
a m
Ġ U
E N
r it
ar y
Ġh as
E x
Ġ Re
p ut
Ġ se
lo w
ad er
ĠP ython
ire ct
opy right
a ss
m at
Ġa l
Ġd ocutils
li st
la b
a p
Ġ un
or e
er e
Ġt ext
ĠC opyright
/ /
o k
Ġ ra
Ġ set
o ol
at ed
` `
s ize
ert y
rop erty
ce ption
i me
end or
N one
Ġd istutils
~~ ~~
f er
u pp
ac he
ment s
Ġi mage
" )<
ar n
I N
Ġra ise
. """<
t ext
w in
s c
Ġ 3
ist ri
in fo
u s
u st
Ġ {
v al
Ġ G
O N
a y
Ġ R
bu tion
ce ss
istri bution
v endor
Ġ V
d er
: //
ut h
a in
d ata
Ġv alue
id get
re ad
o ls
Ġ= =
b ut
r int
ma in
uti l
ĠI n
form at
co mp
s ource
Ġu s
fi g
. __
Ġ` `
le n
un ction
i b
Ġo ther
st an
Ġtr ans
a ult
a re
ĠĠĠĠĠĠĠĠ ĠĠĠĠĠĠĠĠ
bu ild
" ,<
i g
i m
Ġ at
upp ort
p ro
r ue
ti me
Ġlo gg
F ile
Ġp ath
Ġc h
==== ====
ro ot
* -
t ri
le ase
Ġ- *-
Ġ he
Ġp ass
Ġw e
lo ad
I mage
P roperty
il l
I d
al se
t s
ul d
0 1
e e
Ġt yp
p ec
ption al
c ur
Ġs o
Ġv ersion
url lib
) ,
c ont
Ġ 4
E n
s h
u ix
ss age
b o
e y
j o
v ent
Ġ %
M E
Ġc ol
Ġstr ing
irect ory
Ġlogg ing
Ġ list
m o
ra p
d oc
o uld
he ck
ut f
( <
A pp
ar d
Ġfile s
Ġco de
S E
p ack
Ġa d
th od
el se
-------- --------
Ġb uild
a ce
l at
t on
de d
Ġre ad
ht tp
to ols
Ġp re
Ġs c
up le
I L
uth or
u ment
or d
Ġd ata
Ġco mp
a mple
and l
fi x
Ġa r
u ct
la ce
P E
re ate
at or
Ġa b
Ġf unction
ĠI mage
tr y
d ing
i fi
Ġp rint
Ġr un
val id
ac h
ĠO ptional
v ir
y st
} <
Ġl anguage
. .
Ġo bject
Ġw ill
T T
Ġtyp ing
yst em
C K
w args
in k
gg er
S I
mple ment
quest s
Ġs ize
Ġo p
um b
jo in
" :
) ,<
T his
Ġp ackage
O R
o bject
f f
g er
le d
ĠA pp
L ay
r y
s ol
Ġa pp
par se
C o
a ct
a ve
Ġc lass
ind ow
Lay out
S t
Ġy ou
9 9
p ython
Ġo ut
la y
Ġh t
vir on
en s
ĠT rue
all y
Ġtr y
u es
Ġtrans l
H E
S S
ub lic
stan ce
a i
ĠL ist
Ġbe en
Ġsh ould
b ack
l it
or g
Ġfor mat
rit e
l anguage
at es
Ġb ase
Ġin t
Ġn o
ic h
( ):<
> __
l u
se s
ro l
Ġs upport
rap h
TT P
; <
L o
o und
Ġ one
Ġlo g
ke y
Ġuse d
Ex ception
' :
' s
ht ml
Ġ2 00
k wargs
n ot
Ġ )<
lo ck
co m
Ġdef ault
ĠS ee
ĠI mport
op tion
Ġdo main
o od
Ġt ime
Ġ( )
Ġk ey
ĠF alse
o m
t ype
Ġn ew
tri but
E X
S T
in stall
ĠA n
Ġset up
n et
p o
en se
Ġp ublic
ex cept
ri pt
par am
cur ity
> '''<
u ch
Ġp y
ut ure
lab le
) .
i code
Ġ error
sp ec
' ,<
b in
o le
p os
Ġ x
an ge
Ġcont ain
ap i
lat form
w o
Ġ else
re d
Ġp lace
form ation
ĠImport Error
T he
p ackage
iv e
el d
Ġht tp
language s
V ersion
b ase
Ġ* *
m s
Ġ urllib
se curity
le ment
en ce
lo at
quire ment
pec ifi
A T
e mp
al ize
co ding
andl er
Ġ ext
Ġal l
D E
a le
Ġ root
ut e
co mmand
Ġm ust
and id
ĠL ab
A D
t es
Ġt est
Ġs ub
od ing
Ġ1 99
ow n
Ġwh en
ood ger
Ġplace d
i eld
Ġ 5
on se
ar t
Ġb ool
Ġv al
ĠA uthor
te mp
0 2
i mage
Ġ E
Ġ utf
at ch
Ġwh ich
Ġ$ <
arn ing
a v
k g
Ġb ack
Ġd oc
ĠU n
i ti
Ġc oding
tr ing
uild er
I T
Ġs ource
e p
de x
Ġre s
Ġd irectory
Ġu ser
= '
r ary
Ġ len
Ġex cept
Ġon ly
lab el
' t
f uture
v as
Ġn e
Ġ( '
Ġe ach
= "
> _
d ist
al led
ut ton
Ġn umb
ad d
C ont
Y PE
Ġ( <
Ġ2 01
Ġus ing
b j
d istribution
en er
Ġc heck
ad ata
ec tion
Ġpar se
S et
g ist
i es
k en
s ers
Ġ @
er ti
Ġf l
I C
N ame
g raph
Ġ 8
Ġ le
Ġa ss
con fig
C on
c al
f p
f t
or m
ad ers
co l
for e
Ġ-*- <
: `
or k
Ġi d
ent er
ang le
Ġso me
option s
Ġdoc ument
1 6
> -
d ate
m ode
Ġi ter
at tr
ol or
op en
ction s
Ġme thod
IN G
m odule
re source
Ġin stall
Ġfile name
te m
A L
i tion
o ok
p ort
Ġ. .
te st
ans form
ag ing
~~~~ ~~~~
re quire
ar g
yp es
ra g
ĠN ot
ĠD istutils
pro cess
T ext
c s
Ġ up
la s
ul ti
Ġco mmand
Ġun icode
ens ion
SS L
Ġres ult
U n
r un
Ġ j
re q
re am
lo b
ra ct
ĠI ter
par sers
sp onse
arn ings
C HE
a st
r st
re nt
ĠC o
str ing
oc k
vi ce
ag er
Ġad d
uct ure
sol ute
[ '
] ,
c an
f fer
en c
lo g
ĠH TTP
Ġcol le
( __
A N
x y
il de
sp ace
Ġme ssage
Ġab solute
# <
] )<
y n
Ġ >
in stance
he me
Ġp os
Ġex ample
lic ation
Ġ[ ]<
SI ON
pecifi er
6 4
P ar
R O
n er
s on
u al
re ss
EN T
doc s
las ses
d ocutils
n ection
w idget
Ġ |
Ġ >>
__ )<
iv en
viron ment
Ġsetup tools
P I
b y
i o
i ss
se d
co der
alue Error
mo ve
resource s
a x
k ivy
l ine
Ġt ree
Ġin formation
il ter
up er
pre fix
Ġse e
a k
c ation
t y
v alue
x t
Ġ /
Ġ z
Ġ ro
on g
Ġp o
Ġpar ser
pack aging
D ict
l l
ĠĠĠĠ ĠĠ
Ġt emp
Ġf ol
it em
Ġn ode
ma g
ĠT uple
Ġm ilde
Ġis instance
und er
Ġcon fig
ception s
ai ls
andid ate
1 2
W arning
c le
c ache
h ow
m b
m d
o ther
p en
r yp
an ager
Ġs er
Ġm ode
ĠS et
Ġne ed
Ġcolle ctions
D e
G et
e fore
g u
Ġre quest
Ġpro vi
sc ri
Ġus age
1 8
M L
U T
c li
c lu
g in
t a
Ġ ._
Ġc ache
Ġs uper
Ġin st
ĠL ib
par ser
error s
lease s
Ġass ert
Ġ>> >
' )
M A
c ti
h int
t adata
de s
Ġre quire
Ġo ption
Ġw el
li ke
Ġ' ''
Ġh ave
Ġma pp
text ure
h a
Ġ 7
Ġ K
Ġw arnings
Ġb u
ma p
ĠI f
Ġnumb er
T ype
\ \
r ere
t ings
t xt
u d
Ġc ur
Ġb ut
is ion
Ġde p
Ġcont ext
Image File
CK ING
lay out
CHE CKING
2 00
F A
e gg
i ght
p yp
on ic
re ated
al iz
Ġin ter
ĠT YPE
1 1
> .
U R
k er
in es
se nt
he el
me ssage
ĠD ict
ĠB uilder
mag ing
! =
1 7
C O
L T
c ore
v el
Ġ 9
Ġ \
Ġp ython
Ġin put
ĠC olor
and le
Re quest
ĠO bject
lic ense
Ġfol low
ĠLib rary
rere leases
0 9
> )<
E P
t te
ĠĠĠĠ Ġ
Ġa c
Ġof f
ĠS tring
Ġg lob
ib le
Ġch ar
Ġop en
Lo gger
ale tte
yn c
: :<
S D
T ML
o x
t le
w ord
re t
Ġi mplement
al s
ss l
Ġd ate
is c
rit er
ig n
---------------- ----------------
Ġsc ript
Ġop er
package s
C h
v ert
Ġ RE
re quests
un k
co me
ĠN ew
ĠD e
ĠF or
Ġal low
tribut e
ĠLab el
" .
) .<
U LT
n s
o st
p er
r c
Ġ under
Ġ !=
re quest
ar get
ex ceptions
ra w
Ġe vent
sp lit
Ġdo ing
Ġdo es
1 0
= (
e g
o bj
s f
s ole
Ġi o
Ġp lease
Ġc reate
Ġd ir
ĠC on
Ġde t
rop erti
ou s
fer ence
comp at
roperti es
C T
I mplement
R I
T ime
V ER
c enter
d ict
i mple
s ys
Ġ 6
Ġt wo
Ġc all
me thod
un c
ĠS t
ĠI maging
op up
Ġex ist
Ġg iven
vi ew
app end
but ton
ĠObject Property
$ <
C E
T o
g ro
n ew
Ġ J
Ġ url
it e
Ġd iv
un t
ra pp
ĠW indow
Ġtransl ation
tribut es
EX T
gist ry
scri ption
0 8
B ase
P ro
S C
T rue
W idget
v ed
Ġa v
en code
an t
get Logger
end enc
ĠD av
file name
Ġen coding
ĠV ersion
Ġfunction s
Ġtransl ated
loat Layout
ock et
Ġcur rent
FA ULT
' ]<
T est
Y ou
` <
e vent
p ip
u se
Ġc ase
id th
Ġst ate
um er
pre sent
Ġimage s
how to
ryp to
ĠDav id
F or
F alse
I O
i e
i de
n o
s ing
w h
w ith
z er
in put
re p
le ments
Ġp kg
Ġs ystem
Ġin to
Ġv ec
ĠP EP
as h
Ġex p
ĠB efore
Ġst at
Ġg ener
low er
Ġtext ure
comp ile
bin ary
AD ME
Ġback end
Ġwel come
Ġmapp ings
' ]
2 5
S tr
[ "
e ls
g th
l d
o ft
p roperties
s ub
s ystem
Ġt ra
he d
Ġb o
ĠT wo
il er
ist ory
Ġy our
ĠG oodger
Ġpre fix
Co mmand
ai lable
Ġ199 7
item s
ĠRE ADME
P ython
k v
l ink
n ing
p latform
t ed
u ser
w indow
re ct
al lable
Ġw as
Ġd if
ut able
lo gger
and ard
ic ense
ul l
ir st
ĠL IC
EN SE
ust om
Ġout put
lu gin
Ġval ues
ĠNot Implement
Ġdate time
ĠLIC ENSE
ĠNotImplement ed
) :
0 4
0 5
> ========
T r
T ree
m in
n ect
s upport
v es
Ġf ound
Ġre sponse
ma il
Ġto ken
set up
ĠB utton
Ġname space
Ġhe ader
cont ext
ff set
ox Layout
Ġdet ails
d istutils
f unc
i ew
l ang
at ter
Ġs p
Ġre distribution
Ġan y
Ġh ere
ĠL icense
Ġ[ <
Ġcont ent
In fo
ĠIn valid
graph y
ucture d
Ġ''' <
Ġdiv ision
rypto graphy
P IL
Ġd is
ri d
turn s
ĠS ec
ect angle
Re quirement
ĠF red
Ġor ig
if ic
Ġcan vas
St ate
rol l
Par ser
Str uctured
Structured Text
( ))<
C reate
L S
] )
c re
g oodger
s l
t ypes
v t
y nt
{ }
Ġ la
Ġi tem
en ti
Ġf r
Ġs pec
Ġw ork
lo c
ri k
ĠL und
ĠB ase
Ġname s
Ġy ield
Ġpro cess
der ed
ĠIn stall
Ġtrans form
are nt
Ġhttp s
ĠCo mmand
ĠFred rik
ynt ax
ĠLund h
) .__
F I
I D
[ :
g n
o zer
p kg
in ed
in dex
er y
st ract
de t
Ġc lasses
it s
lo se
li f
ĠT o
Ġm s
ic s
ĠĠĠĠĠĠĠĠ ĠĠĠĠĠĠĠĠĠĠĠ
ire cti
Ġ+ =
Ġma ke
ĠV alueError
Ġhe l
ĠAn y
Ġfollow ing
" ]<
' .
' :<
A n
L E
a f
e lement
p roperty
p rint
w rite
le ct
de p
ti tle
Ġf in
Ġf ind
Ġp latform
Ġre present
Ġo ver
ur ation
it er
ce back
Ġin stance
li p
Ġlo ad
lic y
Ġ{ <
ĠUn ion
clu de
( *
a it
Ġ Ex
Ġ En
ss ion
def ault
ls o
ĠC lock
ation s
ĠA B
Ġco mple
bu g
Ġl ine
app ing
Ġpackage s
Co mp
DE FAULT
ĠLab s
Ġ\ <
ĠSec ret
( [
2 3
N A
O W
a ise
c md
d o
g ra
m anager
n ode
w e
Ġ qu
en viron
Ġd ict
Ġto uch
il t
Ġth read
Ġr ange
Ġwh ile
Ġcan onic
Ġhas h
sc ript
stan ts
http s
Ġerror s
:` ~
by tes
gu i
A R
B A
f ace
h andler
n own
t ree
w d
Ġ like
re StructuredText
en v
he s
Ġp rereleases
Ġs sl
Ġd istribution
Ġm ore
ĠP y
Ġlo ok
Ġe lif
file s
Ġ[ '
bo x
Ġcol or
Ġar gs
act ory
D D
H TTP
S er
` .<
n e
Ġ --
Ġ label
Ġt er
at ing
ro id
Ġp ool
__ .
Ġ' .
Ġm atch
doc format
lit er
ĠIter ator
iss ing
Ġoption s
Ġoff set
) ;<
0 3
> ''
R es
f unction
g b
i ent
r dered
s ure
w n
he aders
Ġf ield
ge st
Ġw rit
co py
ĠC allable
up date
Ġsh util
ĠU R
fer ent
Ġ{ '
ain er
Ġcomp at
col or
can vas
Ġms g
A S
D istribution
P y
W rite
d u
o me
p lay
t ing
w w
Ġ license
in ter
st ore
he ader
Ġf irst
ar i
Ġm an
Ġh ook
int s
ke ys
Ġma y
Ġpar ts
Ġit s
Ġj son
ĠIter able
Ġz ip
aliz ed
ĠString Property
ĠUR L
4 4
I I
U N
c i
d is
d irectory
o id
o ffset
t he
re n
at ive
st at
Ġc or
Ġd ist
ĠT est
Ġm in
Ġm ulti
Ġ" __
ic ro
00 0
qu al
Ġwh ere
Ġ[ "
Ġme tadata
cont ent
ff ect
ha vi
liter als
2 1
I ON
K ey
S tring
a ke
c ls
d s
l ate
m on
u tion
Ġ You
Ġt uple
al ker
ar ch
Ġw he
Ġ" <
ĠP ro
ĠP IL
Ġ2 02
Ġas ync
bu ffer
Ġst art
Ġma in
Ġcon vert
() .
Ġsh ow
Ġget attr
mat ch
im ation
Ġar g
Ġcontain s
Ġext ension
Ġinst alled
Ġimplement ation
VER SION
Ġav ailable
umer ic
Ġdif ferent
ĠNotImplemented Error
3 3
A P
K E
N ot
a use
b e
b all
d t
f ind
i al
o g
Ġ lib
er r
Ġf p
Ġw rite
li ent
un ct
od y
ER R
ĠĠĠĠĠĠĠĠĠĠĠĠĠĠĠĠ ĠĠ
Ġhe aders
Ġext ra
Ġval id
rapp er
0 6
A C
B uilder
D I
E D
O L
T H
d a
e ad
g h
u me
w are
Ġ X
Ġa lso
Ġimport lib
Ġw idget
ut o
Ġin iti
Ġin dex
la gs
ĠT ype
il ity
ĠS yntax
et ree
ĠD istribution
tr ansform
Ġwin d
Ġst andard
if y
ĠH istory
ĠW idget
ON T
.. .
Con nection
Ġnode s
Ġoper ator
A t
P Y
` ,
c atter
h ash
o ols
w heel
w idth
in ner
re s
le te
Ġf unct
ce s
Ġin valid
Ġ' __
Ġh andl
ĠA d
ic k
ect ed
to uch
ĠB SD
ĠB oxLayout
qu ence
ĠM y
pre cation
ĠRe quests
ap e
ap ter
act ers
not es
ole an
gist er
graph ics
Ġiter tools
Ġ> =
Ġtemp file
Ġcontext lib
ns iti
support ed
havi or
Ġfunct ools
F loatLayout
L I
N O
O ption
c ul
j son
m isc
z en
z ip
Ġ end
on ent
re g
se nsiti
mp ty
Ġi m
Ġi mp
st art
ro zen
de code
an n
Ġs imple
Ġo ur
__ ",<
Ġ( "
ac y
ĠT h
ĠT ime
Ġv ari
Ġ1 0
ab c
out put
mm on
Ġr and
Ġl ink
Ġby tes
>> >>
Ġ{ }<
val ues
Ġcode cs
Cont ext
Time out
ERR OR
' ):<
) ):<
B U
C UR
L ist
a il
s k
Ġ join
re en
re sponse
en coding
Ġc ryptography
Ġs ocket
Ġre quests
ed it
ĠT r
id s
Ġh ow
Ġth an
ĠO pen
ĠO rdered
Ġst ream
Ġpro xy
Ġhas attr
build er
andid ates
rag ment
Ġprovi des
endenc y
af e
Ġcanonic alize
ĠSyntax Error
Ġwind ow
" :<
" ):<
" ),<
* *
> :<
A d
E vent
O pen
] .
a mp
c lose
e at
e vt
g ments
h ost
q a
s v
s oft
se e
Ġt able
ro ject
de scription
an ce
Ġthe m
it ory
Ġb et
Ġd irect
es c
ĠC ont
ĠC reated
Ġreturn s
ĠS e
str uct
ĠI t
Ġth en
Ġth ere
Ġco ver
Ġr gb
Ġmodule s
pre ter
ĠH TML
In stall
Ġpro ject
Ġpro gra
ĠR ectangle
ib ility
Ġch ange
Ġno qa
pos itory
orm alized
cli ent
Ġchar det
gro up
ient ation
Ġwhe ther
umeric Property
( _
2 7
H andler
H TML
I G
M ENT
P o
Q u
R G
a uthor
i a
i us
j or
o se
s path
Ġ ""
re move
Ġt ri
Ġa uto
Ġc alled
me tadata
Ġre sol
Ġw ant
id d
ĠS S
ĠS pecifier
Ġh andler
Ġk e
ĠN umericProperty
ic ate
all back
Ġlo cal
Ġnot e
Ġex ception
ĠO S
Ġor ientation
Ġ* <
Ġen sure
Ġun pack
IN E
En vironment
bo ard
mo ved
Ġ200 6
Cont rol
Ġiter able
Request Exception
Ġallow ed
rep r
sub process
ci i
1 5
C ache
E S
E lements
L A
P RO
V alueError
m ulti
Ġ err
re ak
st ri
ort ed
Ġa li
ti es
ing le
Ġs pecifi
Ġb in
et ry
ir cle
Ġ1 2
to ken
Ġ. ..
set tings
ser ver
Ġwith in
Ġpar ame
dir name
() ,
ĠW e
`` ,
`` .<
ĠR es
build ozer
Ġat tribute
Ġtyp es
Ġsub process
temp dir
mode ls
Ġj ust
mb da
Ġinst ead
CE SS
Ġtra ceback
setup tools
Ġorig in
icro soft
evt log
E T
K ER
M P
O CK
R aise
S pecifier
V al
e ader
k an
m it
t en
w ork
Ġp er
an sp
ar k
Ġs u
Ġre d
Ġre source
Ġd on
ex c
co unt
ri v
ĠC heck
Ġh andle
op t
Ġ2 5
to ml
Ġe lement
Ġex c
int ypes
mple ments
code s
Ġuse s
In formation
Ġen v
sc heme
Ġ{ "
En coder
Ġrun ning
Ġobject s
Lo g
Ġmethod s
ĠCo mp
ak es
Ġser ver
Ġhel p
Ġcomple te
transform s
2 0
= <
> *
> ~~~~~~~~
? <
F IL
N I
P ool
T O
b lock
c ase
d own
f loat
g ith
p ache
p opup
p arent
s d
s id
s ix
t yp
w intypes
Ġ util
at tern
Ġc reated
Ġc kan
Ġs ame
Ġo bj
__ ,
it test
th ing
ĠĠĠĠĠĠĠĠ ĠĠ
ec ause
Ġ2 0
ch ine
path s
ĠF ile
ĠB uild
ĠRe quest
Ġat tributes
Ġch unk
OR M
HE AD
IT Y
Ġlen gth
Ġnumb ers
Ġinter face
RI B
>======== ========
irecti ves
>'' '
Ġzip file
Ġhandl ing
Ġrand om
Ġke ys
gith ub
" )
" \
" ]
( ?
* )
5 17
> ]<
C andidate
E CT
M apping
R A
V iew
a ys
b ar
b ed
f init
n g
s ave
Ġ ent
or ld
se lect
Ġt ag
st ate
le vel
Ġp rag
Ġc ls
Ġre quirement
Ġre pository
ur i
># #
ex p
Ġn ow
Ġdef ined
Ġm od
ter m
Ġ1 6
Ġe mail
Ġex ec
ix el
() `
Ġen code
Ġ4 5
Ġsc heme
Ġapp lication
arg v
Ch ar
Ġdoes n
ference s
Ġexist s
Tr ansform
Ġla st
KE Y
sensiti ve
Po licy
ĠOS Error
typ ing
Ġprag ma
' ),<
( (
: :
C ode
D ata
L L
b ool
c lock
c lasses
f c
f bo
i mp
l an
l us
l ines
r type
t ers
Ġ utils
Ġt akes
st ar
ro up
he ight
Ġf loat
Ġp alette
ge x
Ġs ix
Ġre moved
__ ':<
ss ible
Ġb utton
Ġb reak
Ġto p
ac cept
Ġm k
pp ed
ment al
ĠA pache
ic tion
et c
Ġe mpty
Ġstr ings
Ġstr uct
Ġst ri
ver ti
ass ert
lab els
ok en
ok ie
ĠR o
Ġad ded
ord s
act or
Ġsupport ed
spec ific
IT E
open ssl
require s
require ments
Ġrequire d
ud io
Ġac cess
eg acy
SC II
loc ity
lip se
mon str
ĠOrdered Dict
see k
0 7
2 2
4 2
C olor
D irectory
F ilter
F ORM
M e
O D
S e
b ind
c heck
i gest
m an
o f
p ng
t arget
w ist
x x
y le
z one
Ġ Exception
st ream
he ad
Ġf n
Ġp lugin
ar is
Ġin d
li ties
---- <
and roid
ĠA t
ect or
ĠL ine
ild ren
00 00
ser ve
Ġde st
Ġde scription
Ġde monstr
con sole
Ġma x
In valid
Ġen vironment
ĠU se
Ġset tings
upp ress
Ġraise d
App lication
Ġcomp onent
Ġrun time
Ġbase d
Ġpy win
Ġ199 6
gu ments
Ġprovi ded
Ġrequire ments
Ġbu ilt
ĠDe f
gro und
ĠWindow s
25 6
Ġbo th
Ġfr ont
Ġtransform s
we en
Ġthread ing
Ser vice
Ġter ms
stat us
ĠTr ansform
HEAD ER
finit y
> """
B O
H eader
T YPE
W indow
c y
f ter
f ul
g or
g ine
h en
i k
i form
k ed
w ays
ĉ ĉ
re f
le ss
de bug
Ġp yp
ar ker
Ġs sp
Ġre q
Ġre gistry
Ġo pt
Ġw ay
Ġb ecause
Ġd t
Ġd u
ex tern
lo cal
ot e
ĠA PI
par ts
Ġe lements
ĠF ound
ĠB y
Ġwin reg
Ġ< =
con stants
ĠRe turns
ass word
Ġ{ }
Ġpath s
ts with
Ġar guments
Ġx ml
Ġcontain ing
Ġ201 2
AL L
Ġro le
To ml
endenc ies
Ġstat us
eat ure
Ġbet ween
OCK S
star tswith
> ..
E lement
H AS
P ath
R etry
R KER
T ag
` :
a len
b r
b stract
c cur
c andidate
f d
f ilter
k ens
m ory
n orm
p age
p alette
t op
Ġ &
er o
st d
ro u
ro w
Ġc re
Ġc opy
Ġc md
an el
Ġs uch
Ġthe y
Ġre tri
Ġo ccur
__ <
Ġd own
lo p
Ġn ext
ac ti
Ġ' -
name s
ĠP ar
ĠP ong
ic on
et adata
as on
ab spath
Ġlo w
Ġlo op
Re ad
par t
ĠF loatLayout
Ġen um
Ex t
us ers
comp iler
cont rol
doc ument
Ġsc reen
Ġab out
ĠImage File
Ġlog ic
not e
po st
bin s
Ġcontain er
ĠNot e
Par se
Ġro w
Ġpo int
Ġser vice
MA RKER
ĠCon fig
An y
Ġhook s
Ġspecifi ed
Raise d
) ]<
/ <
6 7
> :
D o
F F
F ind
H el
J ECT
T oken
W alker
[ -
] :<
] ]<
f n
k nown
l lipse
n ow
p le
p rereleases
r ame
s ign
s rc
v id
w ise
w rap
Ġ //
Ġ }<
se ction
Ġt ar
Ġi gn
Ġa ct
ti tem
al low
Ġc al
Ġc ustom
Ġc wd
ar ies
Ġre try
Ġre move
it le
Ġd iction
Ġin te
Ġn orm
Ġto ml
ĠC ONT
ra y
for ge
Ġv iew
ir t
ĠL ink
ab bed
end ing
Ġco m
ĠD E
Re turn
yth ing
Ġwin error
Ġor der
Ġwith out
pre ss
Ġpro b
ict ure
ĠRe quirement
source forge
ĠĠĠĠĠĠĠĠĠĠĠĠĠĠĠĠ ĠĠĠĠĠĠĠĠ
pro g
pro xy
ee p
Ġapp ly
back end
Ġtime out
po se
Ġpy wintypes
port er
Ġbu ffer
roll er
Ġfr ame
NA ME
Ġlook up
box layout
Ġlib rary
Ġprogra m
RG B
Ġparame ter
ansp ort
Ġ45 64
' ))<
) ))<
. ,
> `
> }<
A c
A PI
B uild
C F
C H
C M
F O
H T
K ivy
P T
S U
T E
T R
T LS
V E
Z one
a uth
a ded
c wd
e q
h andle
i em
j p
n a
p onse
p atch
s ide
u ffer
Ġ Z
re v
re sh
Ġt arget
at ab
le ar
Ġa fter
ro und
he l
ti al
Ġc ast
ar s
Ġs ave
Ġs pecifier
Ġs ingle
Ġthe se
Ġre p
Ġw idth
__ ,<
Ġd ual
># #<
def ined
un ded
is h
Ġ" _
for ce
Ġv er
name space
ation Error
ic ally
as k
Ġ1 3
Ġ1 00
ĠD ocutils
Ġe gg
__( **
ve lop
Ġg roup
lic it
Ġl ong
Ġ< <
ans ition
um n
dir s
ou ch
Ġcon struct
EN SION
Ġal ways
`` <
IN D
Ġlogg er
cont ainer
Ġar ch
umb er
ĠList Property
AT ION
erti f
Ġle vel
AN D
EXT ENSION
oft ware
copy right
Ġlicense d
CUR ITY
ĠOpen SSL
ĠSe quence
ormalized Name
idd le
Ġorigin al
float layout
RIB UT
Ġopt parse
iem ann
atab ase
+ )
: %
A B
B utton
D O
E qual
I S
L ink
M anager
M issing
N ode
P RE
R ec
T ER
U S
W ait
a ir
a int
c reate
f in
f li
h at
i ce
r fc
s a
s u
w arn
w ik
x ml
Ġ --------------------------------
or ed
or ig
on ly
Ġp ur
Ġp age
Ġp ack
Ġre g
Ġw arning
Ġb its
ex ec
ad ius
ri de
ac tion
Ġan other
ĠC reate
ĠS OCKS
Ġk wargs
el l
ĠP Y
ĠN ame
as cii
Ġ1 5
iz ed
ab el
to col
ĠD D
ĠD em
sp on
Ġma chine
Ġcont in
Ġcon nection
Ġcon sole
Ġcon nect
Ġcan not
In put
Ġse con
ain s
im um
Ġversion s
jo y
ME TH
Ġad apter
Ġht ml
ms g
emp Directory
Ġ201 1
ud it
CO L
-------------------------------- ----<
Ġdir name
For mat
Ġexp ected
>======== ====
Ġdis play
ĠInstall Requirement
irecti ve
Ġdistribution s
Ġfield s
ww w
Ġmin or
Ġ202 0
Ġiniti al
precation Warning
esc ape
Ġrgb a
Me ssage
fli ct
METH OD
' ).
- %
> (
> /
I X
O S
P A
P opup
S ub
b it
b its
c ated
d ll
n d
s uppress
u ally
v c
v ers
} ".
~ <
Ġ ):<
Ġ li
Ġ ]<
Ġ etc
Ġ labels
in st
re turns
at c
al k
Ġp atch
Ġs k
Ġs ample
Ġthe ir
Ġre lease
Ġo ld
Ġd raw
ma x
Ġ( (
ri x
Ġm issing
is ual
ext ension
ĠS U
ĠS h
ĠS catter
ĠS oftware
Ġv endor
ĠI S
ol ution
class method
ase s
end er
Re g
ĠF bo
qu are
Ġde bug
Ġsys config
Ġtr ue
ĠM apping
ix in
vi des
vi ous
Ġsh ader
est ure
Ex ample
ĠRe turn
ok up
read y
Ġus ers
SE CURITY
valid ate
OR T
spec ifi
Ġ199 5
ep endency
Ġle t
date time
ition al
port s
Ġmessage s
Ġconfig uration
ta gs
200 3
Ġav oid
hed ule
utable Mapping
rid Layout
cre mental
Ġprocess ing
Ġfin ally
Comp iler
HTTP Error
Ġcompat ibility
Ġman y
Ġ202 1
dt uple
At tributes
IG HT
ĠSS L
Ġerr no
term ine
wist ed
rou gh
irt ual
Ġ-------------------------------- ------------------------------------<
Ġcontin ue
! <
" ).
( \
) [
2 01
= [
C lip
C CESS
F actory
G E
L O
P AT
R ectangle
S ec
T I
T ouch
a gs
c f
h ere
i mplement
l args
m iss
t n
t ra
u ff
w rit
w ard
z z
Ġ right
Ġ edit
or ies
in ation
re lease
re gistry
se c
at rix
st yle
Ġa round
he ma
Ġf ont
Ġf lags
Ġp attern
Ġc lient
Ġimport ed
Ġs quare
Ġre ct
Ġw heel
Ġw orld
Ġw iemann
Ġd irectives
lo cation
un iform
ile d
ers al
ri b
ri but
ĠT ext
Ġ' '<
Ġm o
yp y
ot to
ĠC ache
iv ersal
as ic
ĠL o
ch ar
Re ader
ser t
ser vice
te ms
ĠB ack
Ġstr ucture
Ġg ot
Ġr adius
Ġwh at
app en
fo o
Ġcont rol
Ġsh ort
ĠW riter
Ġat temp
Ġhe ight
Ġpass word
En um
PE P
OR S
parse d
Ġformat s
po ints
Ġext ract
Ġ201 3
Ġid enti
Ġfilename s
Ġcommand s
ĠHTTP Error
Ġtemp dir
ĠK ivy
aliz er
Ġinter pre
UR L
Time Zone
rep lace
Ġtra il
Ġbo olean
ĠEx ample
do main
we b
Ġhash lib
LI ST
Ġvari able
host name
Ġred irect
TO COL
Char acters
egacy Version
Ġdemonstr ates
gor ith
Ġpyp roject
ĠFound ation
Ġlow er
Ġdiction ary
ertif icate
Clip board
otto m
2 6
2 8
= ',
> @
B e
B oxLayout
C ase
I mport
I mplements
M etadata
O bject
P anel
S catter
W S
a z
b dist
c all
c ord
d ot
e ver
g r
g lob
h ook
l t
o b
r p
t ag
v env
w ait
} )
Ġ 32
or ary
er a
re gex
se p
Ġi ss
Ġi tems
Ġa uth
en sh
Ġf ilter
Ġf ragment
Ġc enter
Ġc ircle
Ġs av
Ġre co
Ġre ferences
Ġre ason
Ġw id
Ġw rapper
Ġb ody
Ġin clu
Ġin clude
li ed
un ter
co mple
co ord
Ġm ath
ĠC H
ĠC h
ĠS T
Ġv ia
Ġk eep
up load
ĠP ool
ĠA bstract
ĠĠĠĠĠĠĠĠ Ġ
ĠL IGHT
Ġ1 1
Ġbe fore
Ġbe havior
Ġco unt
ch op
Ġe qual
ĠF IX
Ġde l
Ġde lete
gg ing
ĠO n
Ġg l
con nect
Ġma jor
Ġpar t
Ġcon stants
ER SION
am era
EN D
fer red
us h
ĠV ERSION
comp are
time zone
Ġsome thing
Ġ.. .<
ock s
ĠHTTP S
Ġpo ssible
De f
MA P
CO M
Ġchar acters
tribute Error
Ġurl parse
context manager
Ġrepresent s
script s
Ġwrit ten
inter preter
UN D
ial og
amp l
Install Requirement
>~~~~~~~~ ~~~~
verti cal
ĠBy tes
Ġign ore
Ġinte ger
abbed Panel
ensh i
ĠFIX ME
' re
( {
- <
8 6
A ME
B uffer
C all
E ffect
F ound
H ook
I F
I mp
M O
M em
N o
O ptional
P F
P H
P re
P ackage
P lugin
R un
S NI
U RE
W ith
] *)
c ryptography
g ot
i et
i alizer
l ated
n ext
p ool
p ace
p ep
p assword
s ync
t uple
u x
v oid
y y
or s
Ġt z
Ġa ction
ro t
ro ss
de v
ti l
Ġf ull
al ity
Ġp ixel
Ġc andidate
Ġs orted
Ġre gister
it es
Ġd p
lo sed
li sh
th read
ri es
ĠT empDirectory
Ġm ight
Ġfor m
ĠC ustom
ext ra
Ġreturn ed
Ġk ind
op er
op ic
as y
as hes
Ġ1 8
ab i
ab stract
ith er
sp inner
Ġde code
(' .
code Error
ĠM A
ĠM icrosoft
Ġma p
pre cated
app lication
Ġcon sid
Ġen coder
ĠRe ad
Ġal ready
Ġun ittest
sc hedule
ĠG et
ĠG ener
ĠR un
ĠR aise
der r
pro ject
Image Plugin
ee ded
cur rent
PE G
Ġtransl ate
Ġ200 4
Ġpy gments
command s
Ġtest s
Ġsub class
Ġ5 17
ĠUn icode
test util
Ġup load
iss ues
Ġpo ints
Ġneed s
De coder
Ġwel l
Ġ7 11
Ġbu f
Ġdep endencies
Ġexist ing
Ġgener ated
Ġcontent s
Ġla mbda
Ġspec ific
Ġhel per
BA SE
ĠPy PI
Ser ver
du mp
Ġcor rect
Ġarg parse
cul ar
ĠTime out
Timeout Error
Ġdirect ories
ĠRo unded
aris on
ĠAt tributeError
Ġretri es
allow ed
ĠCONT RIBUT
ependency Warning
Ġrect angle
gorith m
Mem ory
Ġconsid er
Ġ711 9
ĠRounded Rectangle
ĠCONTRIBUT ORS
( '''<
* .
- .
1 4
1 00
B y
B ack
C C
G S
I P
I f
L en
L sa
L abel
M ore
O F
O P
O per
P aint
S c
U M
W riter
b z
c ast
g o
i er
l ta
m od
p op
p inner
t k
u alen
v g
v en
y cle
er n
le ft
de lete
de lta
Ġf ree
Ġf uture
Ġf eature
al i
al one
Ġp arent
Ġp ick
me ta
Ġs upp
Ġre f
ut put
la mbda
ma jor
co mmon
ĠT LS
Ġ' _
Ġm ip
Ġ" %
ĠS er
Ġv irtual
and alone
ĠI D
op ts
oc h
Ġbe low
Ġbe gin
fi ed
ĠD ata
Ġlo ader
Ġe ither
ĠB o
Ġuse ful
ĠH ow
Ġcont ribut
In finity
Ġme sh
ĠThe se
Ġse par
Ġ3 6
ĠR ec
cess ary
ĠV al
format ter
comp ress
Ġother wise
stan t
ig h
Ġch ild
cont rib
sh ow
Ġcol umn
Ġbuild ozer
Ġsc ale
IL D
St ream
Ġsupport s
EX P
ĠAn imation
po licy
Ġback ground
distribution s
Ġ8 5
Con sole
ĠDistutils Option
Ġup date
run ner
run ning
can onic
Ġprovi de
pyp roject
Ġinter preter
Ġpython com
Ġglob al
Ġoper ations
Test Case
25 5
FI X
([ ^
BA CK
DD S
Res ult
Ġshow s
ĠMy Paint
BU G
Qu ery
FIL EN
Ġstri ct
Ġfn match
Ġfront end
Ġdu mp
Hel lo
Ġcal cul
ĠDem o
PAT H
appen gine
parsed Version
ualen v
ĠDistutilsOption Error
' ll
1 9
> ``
C U
C ircle
D F
D et
I tem
M odule
M atrix
O r
P M
P O
P alette
Q U
S ystem
T EXT
V alue
] ,<
_ .
b er
c ert
c ard
d ings
d ated
d roid
d igest
f name
f actory
f lags
f rame
i alize
l or
l in
m ote
n umber
o ver
r l
r t
s lo
s afe
u v
u sed
Ġ layout
Ġ ERROR
re al
re turn
re ader
re sol
re gister
at is
le s
Ġa g
en ded
de st
ti cular
Ġf ail
Ġp as
an ch
me d
ge titem
Ġs li
Ġs ide
Ġre ader
Ġo ptional
Ġw ould
Ġw riter
Ġw ords
ce l
Ġin v
Ġin fo
Ġin ternal
ex it
ex ample
Ġn on
un ce
co dings
ri e
ĠT ag
Ġ' %
Ġdef in
Ġm ypy
ot al
Ġ" .
== <
ĠC ase
iv ed
Ġis n
age d
Ġh istory
ol ume
Ġth ings
Ġth rough
el y
ĠP ip
ĠP RO
ĠN ode
ĠA l
ĠA SCII
ĠL oc
Ġbe ing
end s
Ġco uld
Ġco mmon
ĠD o
Ġlo c
Ġlo cation
tr s
ĠF rozen
Ġex ceptions
lib c
ve locity
Ġst ored
mm y
Ġg raph
code cs
Ġl at
Ġl ar
con nection
rop ri
Ġname dtuple
Ġma k
Ġpar sing
pre ssion
Ġcon n
In sensitive
RE D
RE N
Ġtext wrap
us r
ĠG ridLayout
ay load
ĠV S
ĠV isual
ĠĠĠĠĠĠĠĠĠĠĠĠĠĠĠĠ ĠĠĠĠĠĠĠĠĠĠĠĠĠĠĠĠĠĠ
build ers
im er
Ġch o
lat ive
PE C
Ġprint s
Ġlanguage s
Co m
po int
security con
iti alize
Ġuser name
Ġid na
SSL v
ENT I
cle ar
Ġmode l
pyp a
message s
Ġ9 0
ĠString IO
ĠFor mat
Ġcall back
Pro vides
link s
Ġsp ace
Ġover ride
ĠEx t
wn d
Ġwrit ers
AP P
AP S
Not Found
ĠType Error
res ult
ĠAd d
ĠAd ded
Ġvari ous
sv n
Ġresol ution
stri p
Ġali as
Ġbin ary
>================ ========
assert Equal
ĠDef ault
br anch
Ext ension
Ġarch ive
ĠSh ader
ĠIS API
implement ation
TimeZone Info
Ġtrail ing
comple te
ĠBytes IO
Call er
Hook Caller
ites pace
abstract method
Ġbuf len
Len gth
slo ts
ĠCase Insensitive
ĠFrozen Set
ĠCaseInsensitive Dict
" ><
" .<
' ),
) ."""<
+ --------
3 0
4 0
9 8
A r
A uth
A SCII
C D
C heck
D oc
E V
E vt
F ield
G ener
H KEY
H ITE
M y
R C
S ource
S PEC
T e
T opic
U sing
[ [
c ss
c andidates
e ed
e mail
e locity
f size
i an
l ong
m k
p s
p are
p ha
r ange
s ound
s ocks
t mp
t ell
v ity
y mb
Ġ }
Ġ uti
re quirement
re spon
Ġt d
Ġt ex
st amp
Ġa uthor
ti le
Ġf s
Ġc types
Ġc andidates
Ġc lear
an ti
me th
Ġs m
Ġs in
Ġs afe
Ġre fer
Ġre port
Ġre lated
ur ing
ur ls
ur ity
__ ()<
Ġb ise
la ke
lo op
lo gging
Ġn eeded
ed ia
un ittest
ac ity
Ġ' \
Ġ# <
il low
Ġdef ines
Ġan imation
str u
Ġv elocity
ate g
Ġk v
Ġk now
ĠP ackage
ĠP ep
ĠP opup
ĠN ormalizedName
oc us
ĠA ll
'' '
ir c
ĠĠĠĠĠĠĠĠ ĠĠĠĠĠ
ĠL egacyVersion
iz ation
ch o
ch ild
ch ildren
Ġ. -.
Ġe ver
ĠF ilter
', '
Ġ` -
__( <
Ġde c
ub le
Ġst ep
mm ary
Ġwh ole
Ġname d
ix ed
ck an
ĠH el
Ġme mory
RE QU
Ġen c
ĠRe ader
Ġse ss
Ġse quence
Ġpath lib
bo se
mo ves
ĠImage Palette
ach ine
vir t
SI Z
Ġapp ropri
St art
Ġ200 1
Ġ200 5
ST R
red irect
AT A
temp late
ĠE llipse
av ailable
Ġle ft
Ġinstall ing
Ġinstall ation
Un supported
Un parsedVersion
by te
Ġtemp orary
Ġrequire s
Ġmapp ing
Ġdep endency
pyp i
Ġac cept
Ch ild
Ġallow s
ĠSt ream
ĠSt andard
Tree Walker
min or
Ġsp lit
ĠInvalid Specifier
Ġdis able
Ġspec ify
ĠInstall ationError
FI ER
Ġfin al
Ġrepresent ation
ĠEn vironment
OW N
node s
ilt ers
>'' ')<
du ce
Ġmulti ple
arch ive
ĠPro xy
Ġarg ument
og le
Ġvalid ate
AC CESS
DI R
Ad d
Ad apter
Open SSL
INE SE
PRO JECT
stri ct
ark up
sd k
ĠBuild Environment
Code c
ero Or
Ġoccur red
vid er
Ġcom ment
jp g
EXTENSION S
ender Context
specifi ers
Touch App
ĠBack end
Ġinterpre ted
Ġvariable s
Be havior
ĠCH INESE
>~~~~~~~~~~~~ ~~
sync Image
oper ator
ĠVal ues
Ġpas sed
ENTI FIER
EV ENT
Ġbise ct
Ġappropri ate
eroOr More
" ])<
) ?
+ +
, '
, )<
3 6
3 9
4 8
> '
B E
C A
C an
C lient
G RO
I MP
L ib
N S
O K
O n
P riv
P CF
P ORT
S H
S ON
W e
W rapper
] ))<
a w
a wn
b io
b efore
c p
d b
d it
f fix
f irst
g rid
h ot
i ces
i pped
m iddle
o ot
p lugin
s i
s ite
t al
v ing
w rapp
z ation
in to
in sert
se ssion
Ġt itle
st er
he ll
ti lities
Ġf ilters
Ġp ut
Ġc atch
an imation
me t
Ġs ign
Ġs ite
Ġs yntax
Ġre c
Ġre al
ur rent
it z
Ġb it
Ġd one
Ġd igest
Ġd uring
Ġin side
ex e
Ġto kens
Ġto tal
ad ing
co unter
il ar
pp ing
Ġ" \
== =<
ĠC an
ĠS ub
ĠS ystem
ĠS NI
str ucture
for k
ol ver
Ġth ose
ĠN o
ul ar
et ch
ĠL ook
Ġ2 2
Ġ2 3
to kens
ild card
ch r
Ġas cii
par tial
bu f
Ġe st
tr ans
ĠF actory
Ġex it
Ġex clude
Ġex pression
Ġde mo
Ġde scri
Ġde termine
Ġde precated
Ġst ates
Ġst ick
Ġ* /<
Ġg o
Ġg enshi
Ġr c
Ġl ines
ĠM utableMapping
Ġpar ticular
ou gh
In ter
ag raph
ĠW hen
Ġit self
ĠU T
Ġse nt
mat ically
Ġal gorithm
Ġun iversal
IN FORM
sc atter
sc roll
Ġ3 0
ĠV ector
format s
len gth
im ilar
Ġwe b
Ġ4 0
sh ould
mo st
Ġpre vent
Ġpre serve
Ġpre vious
Ġfunction ality
ĠApp lication
act er
ĠAn droid
ĠAn si
Ġpy openssl
Ġcontain ed
DE S
Ġ5 0
ĠAuthor s
ĠE lement
Ġne cessary
Ġle ast
arg ument
ĠDistutils Error
Ġresult s
Ġadd itional
De precationWarning
Get Memory
ta il
Ġcontext manager
isc ri
Ġscript s
unk nown
ĠCon vert
method s
Pro cess
SC APS
pip e
Ġstat ic
Ġnamespace s
State WS
cre en
{} .
Ġwork s
ĠTo ml
Ġrepresent ing
Ġcanonic al
DD SCAPS
ne th
gest ure
dis miss
Ġcor respon
Ġasync io
ĠTh ere
Ġwindow s
Ġdirect ly
HTML Elements
multi part
Ġbin aries
ĠRes ponse
HEADER S
sign ed
ĠDE FAULT
Ġprob le
inst alled
atc hed
ĠSU CCESS
Sec urity
cf g
writ ers
Ġiss ue
Ġsav ed
Ġfeature s
ĠRec ycle
lor er
atis fied
Ġlat er
virt ualenv
SIZ E
grid layout
INFORM ATION
# !
- (?
1 02
2 9
3 5
5 09
6 8
A cti
C la
C AL
C ONT
D K
D ate
D istutils
D em
D ialog
E L
F C
G ame
G ET
I RE
L Y
M achine
P latform
P OL
P PORT
S V
S ee
T h
T emp
T abbedPanel
U ser
W HITE
] ])
` .
a pt
b ody
b tn
c a
c ise
d temp
e ffect
f s
f y
f rozen
g ic
h in
j ust
k ind
n one
n ative
p i
s ist
s atisfied
t ar
u id
v s
w arning
w arnings
x is
y g
Ġ )
Ġ etree
or der
se con
se arch
Ġi de
at tribute
st ates
Ġa wait
en vironment
en codings
de velop
ti m
Ġf rozen
Ġf allback
ar sing
me mory
Ġimport s
Ġs ure
Ġs rc
Ġre ce
Ġre mote
Ġo wn
__ .__
># :
Ġn t
ma ke
un ch
un pack
Ġto o
th at
ers on
es h
Ġ' /
il y
ist lib
Ġm ost
ue ss
ĠS pinner
Ġh al
Ġv s
Ġv ert
Ġv ery
ol d
ĠN O
ĠA c
ect s
ir s
Ġu d
iz er
ab ly
Ġ2 4
ch unk
Ġlo aded
Re quire
Re quests
Re gistry
Re porter
ow er
ser ved
Ġe p
Ġde coder
pt y
ub lish
tern et
(" _
ĠM e
ĠM odule
ĠM ulti
Ġma gic
if f
In dex
est ed
Ex ec
ĠRe g
Ġun til
ok ies
text input
data store
ĠIn finity
ĠĠĠĠĠĠĠĠĠĠĠĠĠĠĠĠ ĠĠĠĠ
ĠĠĠĠĠĠĠĠĠĠĠĠĠĠĠĠ ĠĠĠĠĠĠĠĠĠĠĠ
time s
File Name
tri gger
tri cs
cur s
cont roller
En d
sh ader
Ġcode s
Ġpre sent
Ġcomp ile
Ġcomp ress
Ġrun s
.. .<
Lo okup
Ġ200 2
Ġ200 3
option al
om an
po ses
Ġhttp lib
ms vc
Ġ8 67
Ġass ume
Con flict
Ġid x
Ġdocument ation
module s
AL PH
Ġunicode data
Ġpos ix
Ġconfig parser
Ġrequest ed
UT F
tings With
Ġdep th
200 1
vel y
riter ion
Ġ6 0
Ġcall ing
Ġcurrent ly
wh ere
wh ich
user name
window s
Tr ansport
af ter
Ġcomple x
NA Error
OW S
Ġqu ery
Ġter min
Ġcompat ible
Connection Error
olean Property
BU ILD
Open Key
Ġtable s
Ġ"" <
idd en
LA CK
Val id
Ġper form
Ġ25 6
>~~~~~~~~ ~~~~~~~~
parent s
Ġutil ity
Ġexec utable
lus ion
Ġmk dir
Se ssion
man aged
Ġind ent
Ġbuilt in
std out
Ġcre ating
Ġdown load
ĠPong Game
Find er
CM S
TLS v
ĠZ eroOrMore
hel p
Ġrep lace
licit ly
IND OWS
Wait able
Ġpack aging
exec utable
Ġsecon d
Ġvendor ed
Ġlet ter
sec ure
Ġauth enti
Def ault
ampl ing
Ġconsider ed
OP EN
ĠBo oleanProperty
Ġ36 0
EXP R
Ġgraph ics
Ġlar ge
Ġmak ing
Ġcho ice
anti zation
ateg ory
structure s
ĠLook up
Ġstick id
ĠUT F
Ġfrozen set
istlib Exception
# #
' .<
( .
) ),
4 01
5 1
5 2
7 5
> ;
> ):<
A ction
C L
C re
C urrent
E M
E llipse
G esture
K V
L ine
M an
M AN
M ixin
O UT
P S
P os
S imple
S ingle
V ar
W R
] +
` _
` ,<
a j
a udit
d ar
f ail
g t
g mail
h as
m t
n um
o ff
p h
p ayload
r us
r gb
s dist
s ax
s orted
s ampling
v cs
v ision
w rapper
{ <
Ġ Error
er cise
on str
re es
se par
se ud
st derr
le x
le ction
le ep
le ted
Ġa xis
Ġf a
Ġf rag
Ġp ort
Ġp la
Ġp join
Ġp ty
Ġc a
Ġc ap
Ġc ore
an e
rom an
Ġs imp
Ġre t
Ġre lative
ur s
ur ser
Ġw ord
Ġw ait
Ġw alker
Ġw ildcard
Ġb ottom
-- -<
Ġin stru
la st
ent ry
ma ked
Ġto ol
co okie
ac lass
ĠT ree
Ġ' ,
Ġ' <
Ġ' --
Ġdef ine
ist ic
Ġm isc
Ġm iddle
pp er
Ġan ything
Ġ" {
Ġ" \\
id ual
ĠC andidate
ĠC Compiler
ĠC ertificate
iv es
iv idual
ext end
ext ract
ra ise
ĠS c
Ġh ome
and box
Ġth ree
Ġk nown
ĠP ath
ĠN eg
ĠA r
ĠL a
ĠL anguage
ire q
path name
Ġe asy
ĠF ixed
Ġex act
Ġde precation
ĠO ption
ĠO ther
Ġst d
mm ended
(' %
Ġg libc
(" -
(" .
ind ent
und le
Ġare a
vi ct
Ġdo ct
ĠH ashes
Ġcon stant
In cremental
() ,<
() .__
RE EN
RE CT
RE DI
Ġen viron
Ġen counter
ĠW in
ĠU RI
Ġhas hes
IN TER
ĠG esture
ON E
ĠR enderContext
ĠR FC
Ġtrans ition
are d
Ġhe ad
sh a
sh ape
ard ware
Ġfiles ystem
Ġcomp iler
Ġar ray
Ġab stract
SI T
OR D
Ġkey word
Ġnew er
base d
AT E
DE BUG
ĠE ach
ĠE cho
ĠUn pack
ĠUn supported
iti al
Cont ent
Ġ201 9
erti fi
IC Y
config uration
Con fig
Con nect
cal lable
SSL Context
log o
Ġro t
Ġneed le
ĠK ey
pyp arsing
ĠDict Cache
CO MP
Ġoper ation
per i
request ed
Ġdir s
ĠCon nection
new buffer
umer ate
Tree Builder
context lib
ĠBase Environment
AR T
Res ponse
Ġman age
stat ic
Ġtuple s
33 39
TH ON
Ġiniti alize
ĠType Var
Connection Pool
RG BA
Ġtri o
Ġauto matically
Val ues
Ġhelp ers
Ġent ries
exp lorer
verti ces
Ġdest ination
Ġcomponent s
BO M
Element Tree
Ġtar file
Ġact ual
Ġact ually
Ġnorm alize
hel lo
AB LE
US ER
su mmary
wik i
Ġpur poses
ĠName Error
Ġ15 0
ĠDD PF
Ġsecon ds
Ġli mit
Ġsk ip
tra ceback
Ġmo ve
ĠCache Control
Imp erson
rot ate
extra s
ĠMA X
ĠRun time
Oper ator
bz r
Ġsupp lied
Ġmip map
canonic al
resol ve
Ġag ree
Ġdefin ition
ĠPRO TOCOL
ĠLoc ation
Ġloc ale
NotFound Error
complete Read
Ġuti lities
GRO UND
wrapp ers
Inter face
ĠElement Tree
102 4
Cla use
POL ICY
Ġvert ex
Ġposix path
urser y
maked irs
ĠCertificate Error
REDI RECT
" '.
' ])<
( -
( ''
+ ?
. *
. )<
. "<
1 3
3 7
3 8
5 12
9 5
> --------
> ----------------
A udit
B L
B RA
B JECT
C Compiler
D esc
D atabase
D ependencyWarning
E G
F ragment
F LA
G iven
H andle
I ter
K N
M ode
N ormalizedName
O rdered
O utput
P ip
P red
Q ue
R AS
S Y
S k
S ize
T itle
U ST
V S
W in
X X
[ /
c compiler
d irect
g it
g ment
g ener
h g
h er
j ection
k s
m tree
m icrosoft
n or
p d
p g
p lat
p ublic
p riv
p attern
p icture
s in
s ocket
s ume
t d
t z
t able
t ty
t wisted
v ec
y m
z e
} "<
Ġ ur
Ġ jo
or es
in al
in ject
er ber
on es
on key
re set
re port
se n
se titem
Ġt urn
Ġt ake
Ġt ask
Ġt ags
Ġi con
Ġi mplements
at tributes
le y
en u
en neth
he els
ti c
ti f
Ġp ol
Ġp rop
Ġp ending
Ġc ra
Ġc op
Ġc amera
an is
ar ray
Ġs ort
Ġs id
Ġs dist
ur istic
Ġw rap
Ġb c
Ġb ar
Ġb dist
Ġd de
Ġd id
Ġd im
ut c
ut ed
ut es
lo pen
lo okup
li s
li de
li es
Ġn et
Ġn ursery
ma chine
ma pping
un icode
Ġ( ...
co okies
ri or
ĠT ok
ĠT arget
Ġ' "
Ġ# #
ist s
Ġ" ,
ter min
ĠC SI
Ġis dir
---- +--------
ĠS upport
ĠS pec
ĠS imple
ĠS ome
get attr
get cwd
Ġh and
Ġh ack
Ġh igh
ĠI N
ĠI s
ol ation
ĠP o
ĠP er
ĠP ack
ĠP lease
ĠP ixel
ip edia
ic al
et a
et ags
as ync
Ġco okie
ch ard
ch anis
ĠD B
ĠD LL
Ġe ffect
Ġe vict
Ġex ercise
Ġde vice
ub ImageFile
Ġst ack
Ġr v
lic k
Ġwh ite
con n
ĠM o
ĠM ar
ĠM ap
ĠM ixin
ĠM esh
um an
Ġma c
Ġpar tial
Ġcon ven
In ternal
() ))<
Ġsh a
Ġen ti
ER T
ĠW heel
ĠW INDOWS
ĠU sed
ĠRe gex
ĠRe itz
Ġse gment
Ġun less
Ġra w
Ġset ting
`` :
arn ed
IN FO
sc reen
ĠG iven
ĠR G
read line
ib ly
ĠĠĠĠĠĠĠĠĠĠĠĠĠĠĠĠ ĠĠĠĠĠ
Ġat t
File name
Ġch ildren
sh are
pack ager
Ġbuild ing
Ġcomp arison
ifi ed
CK ET
Co okie
St ubImageFile
lay er
Ġ200 8
Ġdefault s
net work
Ġtest ing
Cont ainer
Un known
ast e
AN CE
AN UM
Ġpos ition
Ġ| =
Ġtree builder
Ġfol der
ĠSet tingsWith
MA G
pyp y
pyp irc
aliz ation
>. +?
Ġ9 6
Ġfollow s
Ġoff s
ign ore
ĠDe precationWarning
Ġevent s
Ġevent Log
ĠJ PEG
EXT RA
EXT RAS
Pro vider
wh l
rect s
Ġnamespace HTMLElements
State Machine
roll ing
FI RE
ID ENTIFIER
dep endencies
Ġplatform s
ĠEn sure
DD SD
ne ed
Ġmatch ing
Res olver
ĠCallable Operator
Ġmsg pack
inter val
44 0
dis play
dis pose
ative Infinity
ĠTest App
content s
AC L
DI ST
res sed
ĠRequests DependencyWarning
Ġbet ter
Install ation
Ġchange s
ĠSpecifier Set
PRO TOCOL
Ġali ases
Ġparame ters
FIL E
Ġchunk size
Ġent ry
exp ected
Ġscheme s
lan chard
Ġmk dtemp
ĠTransform Error
Window s
ĉĉ ĉ
Ġdu mmy
ĠPar se
ĠPong App
Parse Error
ĠConfig Parser
ĠĠĠĠĠĠĠĠĠĠĠĠĠĠĠĠĠĠĠĠĠĠĠĠ ĠĠĠĠ
>` _
PT C
PT ION
Ġver bose
air s
wik ipedia
tocol Error
ĠDD SD
>============ <
>/ *
PA REN
Ġdraw ing
LO CAL
TI ME
ĠLo ad
cord ion
hook s
Ġreco mmended
Pre serve
ĠRaise s
ali as
Ġsepar ate
BACK END
ĠMyPaint Widget
Det ails
cert s
Com ment
RC Command
Te X
Ġsm all
REQU IRE
Ġdisable d
>~~~~~~~~~~~~~~ <
met aclass
Ġweb encodings
Ġproble m
ĠRecycle View
#! /
Platform Error
PPORT ED
Waitable T
Ġauthenti cation
OPEN SSL
separ ated
ĠTree Walker
ĠNeg ativeInfinity
resolve lib
BRA CKET
KN OWN
Pred icate
ĠTok ens
REQUIRE MENT
! ")<
" ))<
' *
' \
' }<
) "<
) "),<
+ <
. ')<
. ")<
1 99
2 23
3 00
4 00
5 0
5 5
5 9
8 8
: \
B asic
B LACK
C RE
C ustom
C ategory
E LL
E dit
F R
F ont
F ore
F bo
F rag
G rid
H O
I ST
K AN
L e
M ap
M arker
M utableMapping
P age
P UT
R aw
R oot
S ER
S pec
S ocket
S ome
S creen
T arget
U se
W hen
Y K
Y ELL
b ad
c lib
c ustom
d an
d ers
d rop
d ImageFile
d raw
d atabase
f h
f re
f time
f res
f eature
f etch
g ers
g ument
g zip
g acy
h al
h wnd
i ke
i mat
i maging
k w
k y
k it
l der
n ad
n ers
n os
o ma
p at
p ull
p atched
r acti
t ract
t otal
u c
u g
u ments
u ses
v ar
v ate
v ant
v olume
w ind
w ay
w ill
w riter
x z
z A
} {
Ġ ,<
Ġ Qu
or nad
in ay
in ery
in sensitive
er ver
er ome
mp ath
Ġi req
st it
st ra
st alled
le t
Ġa m
ro le
en ame
he x
de sc
Ġf d
Ġf lo
Ġf name
Ġf ew
Ġf ast
Ġf unc
Ġp ot
Ġp roperty
Ġp ep
Ġc ause
Ġc ertificate
an im
an cy
ar c
ge s
Ġimport ing
Ġs w
Ġs imilar
Ġre actor
Ġre spon
Ġre served
Ġre curs
Ġo w
Ġo lder
Ġw ere
Ġw arn
Ġw rapp
Ġw ish
Ġw alk
it tle
Ġb la
Ġb ig
Ġb ound
Ġb lock
Ġb tn
Ġb asic
Ġd st
Ġd ry
Ġd irective
ct Version
ex er
ex clude
la g
li er
Ġn um
Ġn ative
Ġn ormalized
ma ster
un install
th is
ri m
ĠT ra
il ers
Ġm uch
Ġm anager
is dir
is ible
is erver
id na
ĠC lear
ĠC KAN
Ġis api
ĠS ocket
ĠS aj
str ftime
get TreeBuilder
Ġh ue
Ġh ost
ĠI O
ath er
ĠP illow
ĠN AME
oc i
ĠA lso
ĠA syncImage
ip File
Ġ- =
ĠĠĠĠĠĠĠĠ ĠĠĠĠĠĠ
as p
ec nos
Ġu pper
Ġ1 4
Ġ1 000
Ġ2 1
end ent
to ol
ch inery
fi eld
ĠD ec
ĠD irective
ĠD ependencyWarning
Re turns
path sep
~~ ~<
tr ansport
tr ansition
', )<
sp ect
Ġst ill
Ġst andalone
que ue
Ġ* =
Ġg u
Ġg ame
Ġg rid
Ġwh itespace
Ġ[ ]
ĠM ax
ĠM arker
Ġma de
os x
Ġpar sers
ĠH e
ĠH andle
ĠH idden
Ġcon flict
() ]<
Ġget p
Ġme mb
Ġme chanis
RE G
est s
ĠThe y
ĠU N
EN CO
Ġhas hed
ĠRe quire
ĠRe ference
Ġse n
Ġse ction
Ġse curity
Ġse lect
Ġse gments
Ġse nd
mat ter
list s
Ġtext input
ime types
ĠG IMP
ĠR etry
ĠV inay
data explorer
read ers
ĠIn cremental
Ġ`` .
File Error
File Attributes
Ġch ann
tri ctVersion
Ġhe x
Ġ4 00
mo unt
SE T
Ġad ding
Ġad just
Ġbuild sys
Ġread s
Ġpre set
Ġsc hema
Ġab spath
Ġop acity
umb n
Ġ200 9
Ġtime delta
om b
ST EM
net loc
Ġpy l
Ġ5 08
temp file
image s
av ing
IT S
ep och
Cont ains
Ġ201 6
Ġcheck ing
Ġle ss
Ġass oci
Ġiter ator
ĠDistutils Exec
ĠDistutils PlatformError
Ġup dated
Un less
Un available
req s
CHE ME
Ġro und
cache control
ryp o
Ġser ialize
Get Temp
Ġcache d
') [
') ):<
MA CH
\\ %
Ġ9 7
Ġ9 8
Ġac ross
Ġchar acter
Ġimplement ing
rc parser
compat ibility
VER BO
sys config
To o
Base d
SC RI
event s
Ġgener al
Ġbo unce
Ġdif ference
Tr ansition
min imum
ĠLicense d
ĠCommand Error
[: -
gn ized
Ġfind ing
iter al
AR N
II S
UN KNOWN
ĠPro tocolError
Ġextension s
Not e
find er
AC Y
OL D
PY OPENSSL
Ġhandl ers
NO DE
Option s
Ġlink s
List Property
sk i
ĠOrdered Set
Event Log
ĠHTML Parser
Ġ"" .
Ġauto class
Ġali gn
ĠRes olution
ark ers
Ġsu ffix
Ġresource s
Ġhandle s
Information Policy
select ed
FORM AT
xx xx
ĠDef ine
Header Dict
Ġssp iserver
ALL OW
norm alize
Ġcre ates
Ġretri e
acti ve
Ġlogic al
Ġrow s
Do main
Ġcal ls
Ġprob ably
Ġframe work
NAME S
Ac cess
Ac count
Ġgroup s
DO UT
Node s
Wait For
Ġpur pose
Format ter
vers ation
atc hes
Ġtrue Color
201 7
zz zz
Ġpattern s
ĠText Input
Ġattemp ting
Ġidenti fi
rp m
Ġinclu ded
ĠPool Manager
MO DES
yy yy
ĠCustom Error
Ġ18 0
ĠPyPI RCCommand
Lsa Query
go ogle
Ġpick le
ĠHow ever
Ġcontribut or
FILEN O
FILEN AME
Ġcalcul ate
CU BE
lin er
real path
Ġsli ders
Ġspace Characters
ĠExt ension
ymb ol
Ġauthor ity
Ġsin ce
ĠPackage Finder
Ġever ything
ckan ext
Priv ile
hot os
plugin s
Ġbit map
chr on
Ġcorrespon ding
Th read
sist ent
yg on
Ġide a
Ġnt securitycon
ublish er
OpenKey Ex
Cre ates
MAN Y
fail Unless
ane ous
Ġsimp ly
Ġencounter ed
ĠCacheControl Adapter
ĠRuntime Error
Ġagree ment
FLA GS
SY STEM
nor mpath
Ġjo b
tif ic
Ġpol ygon
Ġprop er
Ġcra sh
Ġ(... )
rior ity
Ġmac OS
WaitableT imer
Fbo FloatLayout
YELL OW
oma s
ornad o
stra int
Ġflo or
Ġpot enti
ĠTra ceback
ĠSaj ip
ĠReference ListProperty
ĠDistutilsExec Error
MACH INE
VERBO SE
LsaQuery InformationPolicy
CUBE MAP
# ]*)
' m
) "
) )
) +
) ("
) ')<
) -(?
. ),<
/ #
4 1
4 5
4 67
7 4
: ]
: ]<
= .
= {
> ".
A U
A s
A TT
A bstract
B efore
B ody
C opyright
C alled
C lose
C andidates
D is
D IT
D irectives
D LL
E B
E TT
F a
F rom
F unction
F FIX
G A
G ACY
H ow
H OLD
I ME
I VE
L anguage
L ike
M ulti
M icrosoft
N et
N ull
O M
O ther
O ffset
P ack
P rint
P assword
S K
T D
T L
T able
T ake
U E
U p
U rl
U tilities
W A
W arned
[ ^
] [
` ."""<
a ken
b ing
b ul
b ottom
b az
c l
c Id
c ms
c losed
d uct
d om
e ar
e li
f r
f ont
g ate
g ress
h l
h key
h ood
h igh
i ed
i ence
l ings
m ath
m texture
n am
n eg
n ull
p ure
p airs
q rt
r ing
r up
r aries
r action
s m
s li
s imple
t ex
t ls
t ask
u hl
v ary
w alk
w heels
z ier
} ,
} }<
} ({
Ġ Q
Ġ ~
Ġ el
Ġ ~~~~~~~~
Ġ escape
in ing
in itialize
on ath
re c
re ew
re ference
re actor
se q
Ġt k
Ġt imer
Ġt aken
Ġi e
Ġi x
st andalone
Ġa bo
Ġa cti
en um
he et
de precation
Ġf fi
Ġf ix
Ġf ails
Ġp ad
Ġp op
Ġp roperties
Ġp seud
Ġp racti
Ġc la
Ġc ent
Ġc id
Ġc ross
me trics
Ġs olution
Ġs ampl
Ġs vg
Ġs leep
Ġs qrt
Ġre ally
Ġre StructuredText
Ġo b
Ġo mit
__ )
__ ):<
ss ibly
Ġb all
Ġb ind
Ġb ox
Ġd ialog
Ġd iscri
ce ll
ut co
Ġin it
Ġin ser
Ġin stan
Ġin cre
Ġin her
lo t
li as
li ght
li hood
Ġn ie
Ġn ested
ma c
ma chinery
ls l
Ġ( ``
Ġ( {}
ad ient
ri end
ĠT abbedPanel
ĠT rie
Ġ' {
Ġ' ')<
Ġm y
Ġm imetypes
is o
is hed
is cell
yp h
ot ed
id x
Ġfor k
ĠC A
ĠC ode
ĠC allback
ĠC omb
ĠS ch
ĠS ap
ĠS im
ĠS afe
ĠS vg
Ġh app
Ġh wnd
Ġv cs
name d
ĠI PTC
ol ds
ol aris
ate gor
Ġth resh
op Matrix
op tim
up tools
up dated
ĠP O
ĠP ty
ĠP ush
ĠP opMatrix
ĠA N
ĠA s
ĠA uth
ic ates
ir d
ĠL exer
ec h
Ġu v
Ġu id
Ġbe st
form ance
ab on
Ġco ord
ys ize
ĠD irect
ĠD istlibException
Re present
set ter
set ting
set Parse
path items
Ġas k
par ti
par agraph
Ġe i
Ġe ar
Ġe val
tr ue
Ġex ternal
Ġex peri
ĠB U
ĠB ad
lib rary
sp awn
__( *
Ġde coding
Ġde leted
ĠO P
ĠO ver
ĠO utput
Ġst ub
Ġst ore
Ġst uff
Ġg r
Ġg uess
lic ate
lic ked
py venv
Ġl xml
Ġl ittle
Ġtr ansp
Ġ[ ('
ĠM an
ĠM ac
ĠM art
ĠM AR
ĠM etadata
ind ices
Ġma int
Ġma sk
Ġpar dir
vi e
pre p
ou se
ĠH art
nt securitycon
Ġcan cel
In d
In completeRead
In stalled
() `,
() ``,
Ġpro duce
Ġsh ape
Ġget Logger
RE AD
Ġen able
ĠW ord
ĠW ork
ĠU sing
ĠRe gistry
ĠRe porter
Ġse c
Ġse arch
ap es
Ġun iform
`` ,<
win error
sc hema
us ing
Ġ{ !
ĠG D
ON G
read the
ĠIn dex
ĠIn ternet
ib lings
are Mixin
ĠĠĠĠĠĠĠĠĠĠĠĠĠĠĠĠ Ġ
Ġat tr
Ġat trs
pro c
time out
time delta
======== ====
load s
Ġso und
cont ains
En coding
bo olean
Ġ% (
Ġstring Start
Ġstring End
Ġlist s
ard less
pack ed
Ġbuild er
Ġread ing
Ġpre ss
Ġpre ferred
Ġpre pare
Ġab le
Ġrun TouchApp
valid ator
Ġapp lied
St d
St ack
St ore
Ġsupport ing
Lo op
Ġkey code
ange s
Ġsub classes
temp t
ĠE vent
Ġ201 4
Ġ201 5
Ġ8 6
col umn
Ġid s
mode l
AL ETT
arg uments
ĠDistutils FileError
process ing
Text For
Un pack
Un icode
run TouchApp
Ġadd s
Ġcolle ct
space Characters
yn am
yn chron
RO L
RO ID
widget s
sed Version
line View
Ġz lib
Ġz ero
Ġpo st
12 52
mb ed
ryp t
Ġser ializer
De codeError
') ]<
ĠK enneth
Ġbu g
Ġdep end
UR I
Ġglob ally
Ġglob als
Ch unk
Ġallow none
ĠCon nect
ĠCon straint
compat ible
Implement ation
ĠSt udio
ĠJ o
ĠJ onath
Pro xy
ĠVersion Predicate
Ġstate machine
umer al
ide o
wh ile
wh itespace
Ġgener ator
'] ,<
Tr ans
ĠInvalid Header
Ġwork ing
[: ]
ĠTo ols
An d
LE GACY
dep endent
Ġfin alize
iter items
Comp arison
Comp areMixin
NA A
gra m
script or
:`~ .
DD PF
Ġter m
Ġwrit ing
Py GetMemory
play er
dis able
Ġwhe els
be havior
err no
ĠX V
ĠX PM
ĠX XX
Ġwidget s
PY THON
sensiti vely
Ġim g
Ġrand int
edit able
sv c
ance d
Ġtri gger
Ġtri angle
Ġresol ve
Ġ12 8
ĠWe b
Ġorigin ally
Raise s
Ġsu c
exc lusion
Ġ25 5
case d
ĠFile NotFoundError
Ġchunk s
>================ ====
term ines
Ġencode d
Transform s
Ġmk path
Ġaccess ible
Se lect
wist d
Ġind ividual
cy cle
ful ly
ref resh
Ġssp icon
Toml Preserve
Element Interface
HAS H
alen dar
std in
std lib
Ġloop s
users ite
ĠConfig uration
prog ress
CM YK
SU CCESS
SU FFIX
TR UST
AND ROID
Ġoriginal TextFor
DO CU
Rec lineView
Ġreg ular
Ġreg ardless
METHOD S
bit buffer
Ġrelease d
max size
Enum Key
Enum Value
Ġidenti fy
web p
Import er
az abon
ĠST ART
ĠAbstract Distribution
ĠOn ly
COM MA
Ġtz info
thread ing
('. ')
dump s
Ġcorrect ly
By te
Sc heme
ĠID NAError
Ġbegin ning
Ġcontribut ed
ĠMyPaint App
TEXT URE
Ġinv ok
Ġ`- '
Ġstep s
ĠHel per
Ġmemory view
Ġenc buf
STR ING
ĠBackend Invalid
ĠBackend Unavailable
CA CHE
Ġest dt
trans late
Process Error
CONT ENT
Distutils Error
secon ds
ĠNO T
ĠAc cordion
chunk s
ĠInfinity Type
(. *)
raise s
ĠOther wise
ĠConnection Error
static method
Imperson ate
pd h
sume d
Ġur lopen
report ing
Ġnet loc
Ġhand led
Ġenti re
Ġraw mode
MAG IC
>.+? )-(?
need le
Frag Color
gument Parser
hal fres
imat ed
stit ute
field s
ĠHidden Text
umbn ail
Ġassoci ated
Based CompareMixin
ALLOW ED
failUnless Equal
Ġpotenti ally
AU DIT
bul ky
cId as
pure lib
uhl man
vary ing
Ġabo ve
Ġcent re
utco ffset
Ġinstan ti
Ġ({} )
riend ly
iscell aneous
ĠComb ine
ĠSap in
ĠSim on
Ġhapp ens
ategor ies
uptools DeprecationWarning
ĠPush Matrix
Ġcoord in
setParse Action
ĠMAR KER
ĠHart ley
readthe docs
ALETT E
ĠJonath an
SUFFIX ES
DOCU MENT
! )<
" ^
" }<
" ],
' %
' ^
( %
( ('
) '
) *
) '<
) ).
, ))<
- ]
/ ',
1 000
2 4
3 1
5 6
5 00
: "
: ',
< /
= ",
= ['
= '''
> "
> =
> \
> |
> .<
A F
A G
A l
A uthor
A ll
A syncImage
B Y
B ar
C ol
D ocutils
D ING
D raw
E E
E LS
E OF
F IN
F ull
F rame
G C
G ridLayout
I R
I t
I FF
J SON
K G
K EN
L P
L a
L oc
L INE
L egacyVersion
L UM
M o
M od
M IN
M arkup
O f
O BJECT
P L
P ER
P RI
P icture
P ublisher
R oman
S h
S how
T C
T uple
T ry
T ypes
T hen
T here
U til
V P
V IL
V AL
W ill
W heel
W hat
W ARN
W EB
X IO
Y AN
] =
] ):<
] ),
a ma
a udio
b l
b le
b order
c or
c er
c ut
c id
c rypto
c rt
c riterion
c ertifi
c licked
d m
d n
d if
d ns
d iscri
e of
e ars
f ragment
f allback
f actor
f src
f ish
f lake
f ocus
g z
h op
h ind
h ashes
i co
k a
l er
l ar
m map
m arkers
o ser
o ke
o ses
p e
p l
p rop
p ly
p board
p riority
r b
r ac
r ong
s val
s uch
s heet
t heme
u mp
u ed
v in
v ector
v anced
w g
x pt
x ies
y ml
} )<
Ġ ed
Ġ es
Ġ et
Ġ EXTENSION
Ġ roman
Ġ EXTRA
in ux
er tion
er red
er ify
re co
re tri
re pository
re ferences
Ġt b
Ġt wisted
Ġt rees
Ġi ma
Ġi mm
at ur
at us
at uration
st and
st op
Ġa st
Ġa ug
Ġf all
Ġf actor
Ġf lag
al ys
al pha
Ġp i
Ġp at
Ġp riv
Ġp sd
Ġp lt
Ġp ower
Ġc are
Ġc allable
Ġc losed
Ġc riterion
Ġc alendar
an k
me mb
ge d
ge ther
Ġs uppress
Ġre set
Ġw rong
__ ))<
__ ),
it ch
it Stack
Ġb row
Ġb undle
Ġd er
Ġd ay
Ġd atabase
-- -
ce led
ut er
Ġin ject
Ġin sert
ct xt
la ep
la pped
lo ader
lo aded
Ġn r
ma sk
ma pped
un patched
Ġ( .
Ġ( _
ile Error
Ġto gether
ad ow
ad apt
ad ler
th rough
th ough
ri ch
ĠT AR
ĠT OK
ĠT GA
ĠT IFF
Ġ' {}
Ġdef erred
Ġm at
Ġm ar
Ġm icro
Ġm arkup
Ġm enu
Ġan alys
ot st
Ġ" {}
ĠC lose
ĠC amera
ĠC OM
iv ale
ra ft
---- ---<
ĠS tr
ĠS ource
ĠS ection
ĠS uper
ĠS trictVersion
ĠS olaris
str Val
get ype
get opt
Ġh ard
Ġh ide
Ġh aving
Ġv el
Ġv olume
name dtuple
and s
and user
ĠI P
ĠI nt
ol ated
ate way
Ġth ink
Error s
up licate
ĠP latform
ĠP SD
ĠP ost
ĠA udio
ĠA lias
ip ul
ip map
'' ',<
ic lient
Ġ- <
ĠĠĠĠĠĠĠĠ ĠĠĠĠĠĠĠĠĠĠĠĠĠĠĠ
Ġ1 7
Ġ1 11
Ġbe hind
form data
ire s
ire ction
Ġco ls
ch ange
Ġ. __
ĠD oc
set opt
ure Transport
Ġas ked
ser ializer
te ger
Ġpip es
ĠB ar
ĠB uffer
Ġ_ ,
qu ivale
==== =<
__( '
Ġde b
Ġde sk
Ġde velop
Ġon es
ert ain
file list
ve ls
our s
Ġst ars
Ġg en
Ġg ood
Ġr st
py c
py openssl
version s
version control
Ġl on
Ġl ang
(" /
con stant
con versation
con sistent
ĠM ust
ĠM ain
ĠM ilde
ĠM utable
ĠM ark
ĠM aint
ĠM cIdas
rop ag
ly ing
able Grid
Ġby te
Ġpar agraph
vi de
pre ferred
pre pare
ver al
Ġ: :
Ġdo uble
ĠH eader
ĠH ardware
Ġcont roller
Ġcont rolling
Ġcon f
Ġcan celed
In itialize
() '
() ):<
() .<
Ġpro tocol
Ġpro gress
Ġsh adow
Ġget s
Ġget opt
ag ent
Ġme ans
RE S
RE PO
RE CA
est ination
Ġen umerate
ĠW ith
ĠW rit
ĠU tilities
ĠU eli
EN GE
EN ABLE
EN XIO
ĠRe move
ĠRe moved
Ġse em
Ġse ssion
Ġse arc
Ġal pha
ime zone
IN T
IN ANCE
text box
win xpt
istri but
ĠG tk
ĠG ateway
ĠR oman
data Elements
ĠIn itial
ig its
im al
pro vid
Ġhe uristic
Ġpass ing
En v
En codeError
sh ort
Ġlist ed
SE C
lat in
Ġread ers
Ġcomp ute
Ġcomp iled
Ġar m
Ġab i
Ġab s
ifi ers
Ġrun ner
ach er
SI MP
SI TI
OR Y
Ġout file
Ġout files
HE EL
Ġno thing
Lo ader
Ġlog in
key name
Ġ200 0
Ġdefault dict
Ġtime s
ST D
ST GC
install er
Ġpy toml
bin ing
The me
AD ATA
tes Trans
Ġsub key
Ġ199 9
own er
Ġval s
ĠE mpty
ĠE OF
atch ing
IT ION
Ġsource s
Ġne ver
add r
Cont roller
Ġcheck s
Ġparse d
Set up
Set Console
Ġle gacy
:` .
Ġsome how
test s
require d
Text Input
Ġadd r
can not
enc il
enc ache
log in
ĠHTTP Response
ress ing
ENT A
ax is
Ġtree builders
ak ing
Ġz one
Ġro ut
Ġpo licy
ĠSet uptoolsDeprecationWarning
cli pboard
Ġsuper class
200 0
200 5
FA IL
Ġ9 5
Ġ\ "
ĠString Builder
Ġimplement ed
ign Attributes
ĠNew Type
ĠDe termine
Ġunder stand
Ġunder lying
Ġdir url
CT YPE
ĠSt art
Test Service
Ġcase s
IO Error
ie adler
wh at
Ġpkg util
Ġexp ect
Ġexp ects
Ġexp licitly
Ġgener ate
Ġgener ation
Ġgener ic
Ġgener ates
Command Error
Ġsp awn
ĠInvalid Version
ĠInvalid Requirement
Ġspec ial
Ġms vc
LE TE
Ġload ing
(* *
Comp at
do uble
Ġqu ad
Ġqu ote
ilt in
tree builders
ĠPy OpenSSL
ĠPy GetMemory
Ġcolor ama
Ġlabel led
Ġ'. '<
Res ource
II s
ren der
Ġcor ner
Ġdist ance
ĠTest Sk
Ġmulti processing
late st
mon ition
Ġ"< {
ĠPro cess
Ġasync pg
Ġstart ing
Ġconvert ed
Ġlib raries
Ġextra s
At tribute
At trs
ĠMy App
NO T
NO RECA
Option Parser
zip file
Ġimp licitly
ĠTh read
ĠTh omas
ĠTime stamp
CUR REN
Ġstream s
Event s
ĠCont ainer
ĠCont ains
Ġprogra mm
IG NORECA
author ized
ĠSS PI
Ġlocal s
Ġunpack b
Ġunpack ed
multi ple
ĠComp are
ĠComp onent
Pool Error
TO KEN
ĠFile Mode
ĠRequest Exception
ĠRequest Handler
(? :
Ġent ers
Ġmod ify
Ġexec uted
imp oses
Ġbutton s
assert Raises
Me thod
ĠException s
0000 00
Application Error
Service s
Ġssp i
Ġssp iclient
Ġreq s
ALL ENGE
Toml Encoder
Retry Error
norm al
row s
ĠPar ser
Hel per
now flake
Ġtar info
Ġign ored
Ġcustom ization
Ġinte gers
ĠDE BUG
ĠRequirement Set
Ġframe s
Ac cept
TE ST
jp eg
ĠZ IP
force list
Ġconstruct or
IND ENT
RIBUT ES
Link s
PRE FIX
orig inal
Ġpage s
ĠDem onstr
Ġconnect ing
>============ ==<
Message s
extension s
ĠSU PPORTED
specifi er
ĠSSL Error
LO G
ward s
Ġedit able
style sheet
ĠText ure
Ġmo ving
ĠLo gger
char det
service util
Import Error
cord ing
dot s
glob al
ob ecnos
rp c
}) >".
Ġiss ues
Ġinclu ding
ĠHTTPS Connection
Run Any
Ġregister ed
('. ')<
ĠRead TimeoutError
ĠGener al
Ġspecific ally
By tesTrans
Back ground
ali ases
Ġmip mapped
ĠSer vice
ĠData Error
canonic alize
BACK GROUND
Ġdump s
frame s
med i
ĠFormat Control
Evt R
long opt
mk dir
Ġ} ,<
ĠProxy Scheme
SH ORT
We b
Ġrec ent
Ġdigest s
ĠCan vas
ĠApplication Error
ĠConvert s
Acti vity
Dem o
WHITE LIST
ĠMe thod
ĠMulti texture
Ġ867 1
Ġbuiltin s
Ġreplace ment
Single Object
WR ITE
ĠError Output
urs or
Ġwildcard s
Ġinstru ction
ĠLa TeX
Ġenviron ments
INTER PRE
SIT ORY
ĠLocation ParseError
EG AT
Iter able
Pip e
Que ue
erber os
Ġwrap s
ĠPo int
ĠPack er
Ġevict ed
ĠMo vie
Ġconven ience
ĠSettingsWith S
223 1
BLACK LIST
Fore ignAttributes
Le vel
drop file
let ters
Ġfast er
Ġsw itch
Ġrecurs ive
Ġbla ck
tool kit
Ġmemb er
ENCO DING
rypo ints
WaitFor SingleObject
ĠtrueColor Offset
Privile ges
ATT RIBUTES
TL M
fr ont
Ġ~~~~~~~~ ~~~~~~~~
Ġpad ding
Ġpseud o
Ġcla mp
Ġomit ted
Ġnie obecnos
ĠSch laep
Represent s
ynam ic
behavior s
Ġsuc cess
Ġinvok ed
LUM INANCE
PRI VIL
Util ity
dm g
ump y
yml ink
Ġima getype
Ġimm utable
memb ers
rich ieadler
ĠTOK EN
Ġanalys is
ĠSuper imposes
quivale nt
Ġdesk top
ĠMaint ainer
REPO SITORY
ĠRemoved CommandError
winxpt heme
ĠTestSk ipped
CURREN T
IGNORECA SE
BytesTrans ferred
ĠProxyScheme Unsupported
Ġnieobecnos c
ĠSchlaep fer
! ".
" /
" }
" ')<
" ].
$ ')<
' "
' ],
( {}
) ;
) ==
+ ':
, .
- )<
. :
. '<
. ',
. ",<
. ;<
. );<
/ '
4 6
4 9
4 25
5 8
6 27
7 8
8 00
9 7
9 01
: ",
: ')<
= $
= ('
> [
> +--------
? #]*)
@ @
A GS
B G
C lass
C lasses
C allback
C ERT
D H
D id
D ir
D irective
D istlibException
E SE
E EX
E ST
E LE
E GE
F L
F S
F lags
F ONT
F BO
G RE
G RIB
G REEN
H e
H istory
H DF
I s
I nt
J K
J ar
L ock
L OW
L egacy
L PH
L PAREN
L BRACKET
M D
M S
M T
M ake
M IP
M edia
M iscellaneous
N F
N orm
N umber
N DK
O RE
O UR
O PTION
P AR
P UN
P lan
P illow
P KG
R ound
S upport
S ave
S OCKS
S CHEME
T X
T empDirectory
U ES
U ATION
V irtual
W M
W ork
W ID
W orld
W ORD
\ '
\ .
\ <
\ "'.
] {
] +)
_ *
a mmon
a ux
b i
b la
b es
b ert
b zip
b undle
b lanchard
c ing
c lo
c reated
d k
d at
d en
d iv
d irectives
e i
f ers
f ree
f lus
f ancy
f riendly
g l
g le
g id
g enshi
g lsl
g encache
h ue
h app
h ension
h ren
h uman
i el
i que
i map
i ous
i hat
j y
j ar
k es
k ely
k ka
l g
l ing
m icro
m ypy
n on
n el
n umb
n cy
o graph
o ssible
p c
p k
p m
p ur
p un
p em
p eat
p ending
r v
r ansport
r mtree
s la
s un
s ome
t w
t tp
t wistd
u lo
u ert
v ars
v Options
w b
w er
y ou
y led
} ):
Ã ¼
â Ģ
Ġ Y
Ġ q
Ġ enter
Ġ END
Ġ ysize
Ġ -------<
or iz
or ow
or dered
in c
in ary
in clu
in cre
in clude
in ternet
in itial
in ners
in sensitively
er m
er ce
>< /
on d
re name
re leases
re porter
re aded
re lative
re wind
re hension
Ġt ty
Ġt ail
Ġt ornado
Ġt reew
mp ImagePlugin
st ro
st ep
le an
le file
le vant
Ġa est
Ġa udio
ro les
de lit
de coder
"" .
"" ""
Ġf ul
Ġf size
Ġf ash
Ġf mt
al y
al og
al ius
al gorithm
Ġp lay
Ġp orted
Ġp ayload
Ġc ar
Ġc lo
Ġc lose
Ġc sv
Ġc ertifi
Ġc lick
Ġc ategories
Ġc ertain
an o
an y
ar m
Ġs ile
Ġs co
Ġs um
Ġs iblings
Ġs nowflake
Ġthe me
Ġre main
Ġre po
Ġre ference
Ġre stri
Ġre ports
Ġre vision
Ġre members
Ġre levant
Ġo th
Ġo lefile
ur ro
Ġw param
it ect
it able
ss h
ss ue
ss ertion
Ġd y
Ġd rag
Ġd bi
># .
ce d
ce lo
ut ing
ut Of
Ġin ve
ct rl
ex ml
ex ception
ex ports
ex ists
ion s
ent ries
li d
li der
Ġn umeric
ma ds
ed irect
ed AsyncImage
un ame
un used
Ġ( -
Ġ( /
co ords
co erce
th umb
th ird
ri c
ac l
ĠT ry
ĠT oken
ĠT OD
ĠT wisted
ĠT otal
ĠT AGS
Ġ' #
Ġ' (
Ġ' \\
il li
Ġm i
Ġm on
Ġm texture
Ġm onkey
Ġm atches
is it
is instance
is olation
ot es
ot onic
Ġ" $
Ġ" '
Ġ" -
Ġ" /
Ġ" --
id ence
Ġfor ward
ĠC F
ĠC ython
ĠC opy
ĠC ould
ĠC Python
ĠC ursor
ra s
od orow
Ġis ap
Ġis olated
age ment
ĠS E
ĠS an
ĠS how
ĠS ha
ĠS creen
ĠS DK
for med
get TreeWalker
Ġh i
Ġh r
Ġh uman
Ġv i
Ġv oid
ĠI mplements
ĠI IS
ate ly
ate Password
Ġth us
Ġth umbnail
Ġk ill
Ġk ern
Ġand roid
op acity
ĠP re
ĠP lace
ĠP AT
ĠP icture
ĠN et
ĠN orm
ĠN ull
ĠA LPH
ip es
ic Name
ir ks
as ing
ĠL O
ĠL e
ĠL egacy
ĠL iteral
32 7
ht rac
Ġbe havi
ab s
Ġ2 6
Ġ2 75
Ġco s
Ġco me
Ġco uple
Ġco unter
Ġ. ._
ĠD an
ĠD NS
ow ano
00 01
bu gging
ser ialize
Ġe g
Ġe as
Ġpip e
tr anges
ĠF uture
ĠF LI
ĠF ITS
ĠB la
ĠB ody
ĠB lanchard
lib s
Ġ` __
int ext
Ġos crypto
sp hin
sp inners
qu enc
qu ery
qu iet
Ġde g
Ġde que
Ġde signed
Ġde termin
Ġde scriptor
Ġde termines
mple tion
Ġon ce
file post
out files
Ġ""" `
ĠO utOf
Ġst ar
Ġst op
Ġst derr
Ġst encil
(' \\
Ġg i
Ġg id
Ġg oodger
Ġr mtree
py d
py gments
tern ate
Ġl one
Ġl param
Ġtr ack
(" %
(" ,
(" <
(" {
ĠM i
ĠM or
ĠM IC
ĠM ake
ise d
um ns
Ġma gn
os ite
dir tools
if est
pre set
ver y
ver ify
ver bose
ou kka
ĠH andler
ĠH ash
ĠH KEY
ĠH DF
ĠH ammon
ĠH uert
Ġcon sumed
Ġy iel
In v
In line
() )
() ==
() ``
() ),<
Ġpro vid
Ġpro duct
Ġpro xies
Ġget gr
Ġget next
Ġme trics
RE C
RE MO
RE GROUND
ĠW AL
ĠW hat
am d
ĠU S
ĠU p
ĠU ses
EN V
EN SIT
Ex p
Ex ists
ĠRe vOptions
mat ic
list dir
Ġun ich
Ġun supported
Ġun defined
Ġun signed
`` :<
`` )<
ache d
ments Conflict
IN TR
Ġraise s
text edit
win inst
sc ale
Ġ3 7
Ġ3 8
Ġ3 9
Ġ3 02
ĠG L
ĠG raph
vendor ed
:// ",
:// ...
ĠIn put
ĠIn clude
ĠIn secure
comp ass
comp ressed
len d
len code
are a
are ncy
ĠĠĠĠĠĠĠĠĠĠĠĠĠĠĠĠ ĠĠĠĠĠĠ
ig ure
ig ner
pro tocol
pro jection
File s
Ġch r
Ġch ain
load ing
Ġ4 2
Ġ4 4
Ġ4 8
En c
En gine
Ġcol lis
mo tion
doc info
SE M
SE PAR
Ġad apt
Ġbuild s
lat es
IL ON
Ġcomp are
Ġcomp ared
Ġcomp ressed
Ġcomp rehension
ĠImage Color
SI tem
ff ine
ĠApp Engine
Ġapp dirs
Co mpletion
Ġclass Dict
St udio
St atus
python com
Ġout side
Ġtry ing
HE S
Ġshould n
lit tle
Ġbase string
Ġint ro
Ġno tific
Lo ad
Ġlog o
key word
com bining
Ġtime d
Ġkey val
ST OP
ript or
Ġpy CMS
pos ix
Ġx y
Ġx size
ange d
Version Error
Version Control
base name
AT OR
AD ITION
Ġsub sampling
Ġ199 8
Ġ5 00
Ġ5 12
ĠE dit
Ġback off
ĠUn defined
add ress
Ġ201 7
Ġcheck ers
Ġparse Fragment
Ġfl ush
IC E
IC O
IC OL
Ġle vels
fp s
enter edAsyncImage
Ġsome file
Ġsome other
port able
ĠNot es
ĠDistutils Internal
Text ure
cs v
Ġup gr
ension s
SSL Error
Un defined
ast ing
ast ern
ast imezone
can cel
enc ing
ĠHTTP HeaderDict
AN G
AN ESE
Ġexample s
Ġ| -
Ġ| <
Ġz h
Ġtemp late
12 8
cle an
cache str
cache points
Ġmode ls
Get String
Get Token
Ġcache able
ĠLib Error
MA X
ha h
Ġ7 68
ĠK ORE
Type Registry
Ġcur ve
Ġdep ending
Ġdep ends
200 2
200 4
200 7
onic alize
17 5
CO DE
LT ransport
EP T
Ġac cording
Ġopen ed
Ġimplement ations
Ch ildren
ĠDe codeError
rc name
CT L
CT UATION
Time stamp
VER IF
ĠSt ore
view er
To Win
ĠJ AP
ĠJ SON
Ġdiv isible
Base Version
ĠVersion Control
Test s
Test App
Ġstate ment
ide bar
no unce
wh en
zer o
Ġexp licit
Ġexp ires
Ġstat s
Ġstat uses
Ġgener ating
lower key
'] [
sub directory
04 8
min ator
Ġsp inner
Ġsp here
Ġsp eed
ĠInvalid Wheel
Ġdis patch
rid den
State Error
{} \"'.
ĠBase Distribution
ĠBase Cache
ĠBase HTTPError
ĠBase Reporter
ĠInstall ation
FI ED
ID S
ID NAError
det ails
lif y
dep s
Ġfin ished
Ġover ridden
Ġload s
ĠEx itStack
ĠEn um
ĠEn gine
Ġcomple tion
do ct
do Test
Ġqu iet
Ġqu ality
Ġqu antization
Ġthread s
Ġlike lihood
env build
ĠPy Py
Ġlook s
HTTP S
function s
wn am
Ġwrit es
Ġmsg DLL
Py GetString
du mmy
inter pre
Ġcor out
Ġmulti line
Ġmulti part
21 467
KE LY
Ġvalid ation
ĠX P
... ')<
ces sed
LI FIED
cul ate
Ġsimple json
ĠTh at
Ġlink ing
BU FR
ĠOpen Clipboard
sv g
ĠCont ent
ĠCont ext
ĠCont rol
struct s
Ġprogra ms
group s
27 28
MENT S
Qu antization
Ġ"" ),<
Ġtri ck
Ġresol ved
ĠSS LTransport
Environment Name
Ġiterable s
Ġspecifi ers
Ġbin s
ĠRes ult
Ġsu ite
ĠCheck s
Information Popup
scheme s
ĠComp oser
ĠComp ileError
ĠFile Exists
ĠRequest Error
Ġchunk ed
>================ <
View er
Ġmod ern
Ġmod ified
KEY S
lan et
Ġbutton id
Ġstri p
Ġstri ps
22 4
ĠAt tempt
Ġdemonstr ation
Application Run
Ġfront matter
extern ally
local host
Ġ{} )<
HAS HES
norm als
norm case
Ġcre ation
Ġcmd options
Ġoccur s
acti vity
acti vate
ĠPar sedVersion
Ext ra
FF SET
Ġdiction aries
Ġnorm al
Ġnorm ally
ĠCONT ROL
ĠLink Error
press ure
CH ALLENGE
FO REGROUND
TR ADITION
ĠZ ipFile
rev ision
Ġrep r
Ġver ify
ask o
velop ment
Ġconstruct ing
Ġconstruct ed
IND EX
Rec ord
fin alize
fin alized
su ffix
Ġreg ion
Format s
>============ =<
PA CE
nd k
Ġsk ipped
ĠScatter Plan
ĠFbo FloatLayout
Factory Factory
Ġright s
Ġsquare s
ĠCache Controller
iversal Det
char map
Ġshort cut
Ġattemp t
Ġattemp ted
Ġredirect s
Ġlower case
Ġinclu des
ĠCh ar
ĠST D
ĠST DOUT
Def ine
COM M
COM MENT
Imp ossible
iet ers
rot li
abi lities
ĠUnicode EncodeError
Back end
Oper ation
Sc ript
Sc hema
mod ulo
tk inter
Ġref resh
common s
ĠSer ver
ĠID ENTIFIER
Ġsepar ator
compress ion
Stream Reader
Stream Writer
Result s
Ġcalcul ation
lin ux
Ġag ain
Ġsli ce
Ġdefin ing
ĠPip Error
ĠPip Session
ĠAl low
ends with
connection pool
Ar gumentParser
Doc ument
Field s
Gener ate
Gener ates
Te acher
Ġ} )<
ocus Behavior
Ġever y
ĠProxy Error
>~~~~~~~~~~~~~~ ~<
operator s
EVENT LOG
Can onicalize
Priv ate
session s
Ġreal path
Ġdescri bed
ĠAnsi ToWin
ĠToml Error
Ġcorrespon d
Security Warning
Acti ve
Dem onstr
kind s
secon d
Ġrece ived
Ġhal ign
Requests Warning
iff ImagePlugin
msvc compiler
ALPH ANUM
Valid atePassword
>~~~~~~~~~~~~~~~~ ~~~<
help ers
secure transport
ĠLookup Error
ĠLookup Dict
Gesture Database
Line Circle
Single Byte
rgb a
Ġfa iled
Ġport able
Ġpla in
Ġpla intext
Ġcap abilities
Ġinstru ctions
cookie lib
Ġexact ly
Ġdoct ests
Incremental Encoder
Incremental Decoder
ĠGesture Database
ĠEcho Server
ĠEcho Client
ĠUnpack Exception
Config Parser
ĠKey Error
Ġlimit ed
('' ,
38 4
>---------------- ----
Audit Events
BL OCK
Desc riptor
VS SItem
gener al
sen code
Ġturn s
Ġtask s
Ġcop ied
Ġbc g
Ġdim ensions
----+-------- ----+--------
ĠSupport s
ĠSome times
ĠMar celo
ĠRG BA
Cookie Jar
ĠeventLog Flags
Installation Candidate
ĠParse Exception
TIME OUT
ĠNegativeInfinity Type
88 59
Basic Auth
CRE AT
Edit or
SER VER
Socket Handler
Screen Buffer
fre ely
Ġam ong
Ġpep s
Ġrespon ses
Ġow ner
rim ary
ĠSocket Error
ĠMax RetryError
ĠHe aders
Ġgetp wnam
Ġmechanis ms
REG EX
Ġchann els
Ġadjust ForeignAttributes
Ġpyl int
GetTemp FileName
SCRI PT
Ġidentifi er
hotos hop
Ġproper ly
Dis patch
Fa iled
Multi texture
SK IP
WA IT
rec line
Ġpracti ce
Ġsampl er
Ġincre ment
Ġinher it
ĠSafe String
ĠPty ProcessError
ĠAN D
ĠAuth Info
parti tion
Ġear lier
Ġeval Env
ĠBad Command
ĠMan agement
ĠMart in
Ġproduce d
ĠIndex Error
Chunk Length
Select ableGrid
cycle view
TomlPreserve Comment
JSON Encoder
Sh ader
mmap file
prop s
reco gnized
Ġder ived
--- +<
Ġinsert Before
adapt ers
otst rap
ĠStr ucture
ĠIP v
ĠDoc ument
consistent Candidate
ĠMutable Set
Ġconf idence
ĠWrit ten
INT ENSIT
provid ers
SIMP LIFIED
SITI VE
Ġ\" {}\"'.
what wg
ĠFileMode Warning
EvtR ender
INTERPRE TER
EGAT IVE
Ġsuccess fully
PRIVIL EGE
ymlink s
"} ,<
>+-------- ----+------------+--------
EEX IST
FL C
GRE SS
MIP MAP
Media Store
OUR CE
PUN CTUATION
WID TH
flus h
happ ily
ihat exml
numb ers
oriz ont
stro ke
Ġaudio button
delit em
Ġful ly
Ġfash ion
alog owano
Ġoth ers
itect ure
ssertion Error
Ġinve st
ĠTOD O
odorow ski
Ġisap icon
ĠSha hin
Ġvoid Elements
ĠNull Handler
ĠALPH ANUM
htrac er
Ġbehavi our
sphin x
quenc y
Ġdetermin ed
ĠHammon d
ĠHuert a
Ġprovid ing
Ġgetgr nam
REMO VE
mentsConflict ed
://... ``)<
SEPAR ATOR
ICOL ON
Ġsomeother file
ĠDistutilsInternal Error
Ġupgr ading
GetToken Information
ĠKORE AN
VERIF Y
ĠJAP ANESE
ĠInvalidWheel Filename
21467 627
ApplicationRun ner
TRADITION AL
ĠScatterPlan e
iversalDet ector
ValidatePassword Policy
SingleByte Char
AuditEvents Information
INTENSIT Y
>+------------+------------+-------- ---+<
" %
" '
" (?
" (\
# #<
' +
' ve
' ``
' ".
( #
( """<
) }<
) ),<
) ])<
* (
* =
* \
* ([
+ {
, -
- {}
- *.
. %
. {
. ',<
/ .
/ '<
/ ')<
/ ")<
3 4
3 44
5 3
5 7
6 5
6 6
7 1
7 23
9 6
9 000
: (
: ])<
: ].
> $
> )
> ',
> ')<
> "<
> `.<
> {<
? ([^
A X
A v
A CK
A CE
A fter
A sync
A ssertionError
B J
B o
B le
B all
B IN
B IT
B uff
C ore
C ON
C ould
C oding
C allable
C ance
D own
D iction
D ATA
D ACL
E C
E AD
E mpty
E mbed
F T
F FI
F etch
F inal
F ITS
G L
G o
G raph
G INE
G roup
G dImageFile
G ENTA
H ER
H ost
H ash
I o
I con
I VERSION
J erome
L EP
L UE
M ath
M ay
M AT
M atch
M ULT
M utable
N E
N U
N on
N umeral
N TLM
O b
O UND
O ps
P er
P ort
P IT
P ress
P TH
P LA
P CD
P layer
P ALETTE
R ow
R ange
R UN
R edirect
S ens
S ection
S andbox
S CODE
T U
T ool
T IN
T AB
T rie
T ADATA
T erm
U C
U P
U s
U v
U sed
V i
V OR
V ID
V isual
V IR
V ICE
W rap
W arnings
W HEEL
X ELS
Z ipFile
Z alogowano
[ <
[ ]
] \
] '<
] ')<
_ (
_ ,
_ '):<
` )."""<
a de
a ut
a ix
b s
b ro
b and
b reak
b lake
c q
c z
c at
c he
c is
c ython
c ision
c ake
c allback
c lan
c Length
c dImageFile
c azabon
d f
d ent
d up
d ay
d umb
d ry
d uration
d irection
d istribut
e el
e ded
e asy
e tic
e vin
f q
f fi
f tp
f low
g i
g m
g w
g en
g win
g iven
g uess
h n
h ist
h App
h ard
h andl
h sv
h ours
i li
i alized
j h
j ac
j erome
k o
k r
l v
l xml
m os
m arker
n ter
n der
n ie
n ested
o v
o ose
o Man
o gram
p lace
p lit
p eg
p ixel
p anel
p ublish
r d
r u
r on
r ansition
s o
s ort
s imilar
s leep
s andbox
s ymbol
s Attrs
s wer
s urro
s acl
s igner
t oc
t abbed
u i
u it
u ous
u mask
v Studio
w id
x F
x html
x FF
x AF
y an
y our
y ear
y linux
y Redirect
z a
} /
} \
} ")<
} '.
ĉ ĠĠ
Ġ ,
Ġ ;
Ġ ^
Ġ 00
Ġ EX
Ġ ).
Ġ 64
Ġ uri
Ġ Query
Ġ ],<
Ġ gesture
Ġ YELLOW
Ġ ech
Ġ utcoffset
or age
or ated
or ator
in s
in ce
in formation
in line
er ous
on s
on ce
on ym
re y
re po
re ason
re itz
re curs
re quency
se mb
se nd
Ġt w
Ġt ails
Ġt ie
Ġt index
Ġt iff
Ġt pl
Ġi a
Ġi glob
le ine
le arn
le tes
le clan
Ġa ver
Ġa ms
Ġa mount
Ġa ffine
ro ls
ro ach
en tion
en able
en umerate
he it
he ther
de c
de select
de leted
"" ,
"" <
ti ve
ti cle
Ġf i
Ġf it
Ġf out
Ġf init
Ġf obj
Ġf air
Ġf lake
Ġf ixed
Ġf oot
Ġf ancy
Ġf igure
al g
al ls
al ive
al loc
Ġp id
Ġp ure
Ġp icture
Ġp air
Ġp ush
Ġc li
Ġc word
Ġc irc
Ġc Pos
Ġc erber
Ġc lean
an ing
an ose
an aly
an nounce
ing Set
ing Header
ing Tool
ar ily
Ġimport ant
Ġs v
Ġs z
Ġs ur
Ġs low
Ġs val
Ġs hell
Ġs andbox
Ġs ymbol
Ġs aturation
Ġre st
Ġre size
Ġre cord
Ġre nder
ur lencode
Ġw on
Ġw ar
__ `
__ :<
__ )),
ss pi
Ġb rotli
Ġd n
Ġd x
Ġd ri
Ġd ot
Ġd ue
Ġd rop
Ġd under
Ġd ns
Ġd uration
Ġd riv
Ġd uplicate
Ġd ynamic
ce util
ce ived
ce eded
Ġin form
Ġin tern
Ġin spect
Ġin liner
Ġin tranges
ct ypes
ex ist
ex port
la re
la ins
def ining
ent ly
ent OS
ent rypoints
li m
li mit
Ġn s
Ġn ull
Ġn ice
Ġn umeral
Ġn atur
Ġn umpy
ed Graph
ame ters
un load
un ts
un ich
un schedule
un named
un nel
Ġ( [
Ġ( ('
Ġto uc
Ġto day
ad apter
ri me
ri angle
ri gin
ri des
ac ing
ac cess
ĠT k
ĠT er
ĠT EXT
ĠT akes
ĠT ouch
ĠT opic
ĠT ornado
ĠT iffImagePlugin
es sel
Ġ' *
Ġ' ',
Ġ' **
Ġ' *.
Ġdef ects
Ġm im
Ġm arker
Ġm atrix
Ġm ouse
is ite
yp er
Ġan not
Ġan gle
Ġan swer
Ġan onym
ot s
Ġ" )<
Ġ" :"
id am
id om
id enti
Ġfor get
ĠC C
ĠC ol
ĠC all
ĠC lient
ĠC OL
ĠC azabon
ĠC YAN
ĠC atching
ĠC enteredAsyncImage
ĠC entOS
iv ing
iv gw
Ġreturn ing
Ġis file
ĠS Y
ĠS o
ĠS un
ĠS ound
ĠS IG
ĠS lide
ĠS CHEME
ĠS lider
str ings
get text
get root
get rgb
Ġh at
Ġh is
Ġh key
Ġh appen
Ġh idden
Ġv erti
Ġv irt
Ġv isible
Ġv ideo
Ġv isit
and om
and ingHeader
ĠI M
ĠI d
ĠI Service
ĠI PS
ĠI ssue
ol l
ol ve
ol ves
ate ver
Ġth ing
Ġth ough
ĠP lus
ĠP CF
ĠP DF
ĠP PM
ĠP CD
ĠP ALETTE
ĠP ropag
ĠP hotoshop
ĠN T
ĠN ow
ĠN um
ĠN umber
ip s
ip y
et ter
ĠĠĠĠĠĠĠĠ ĠĠĠĠ
all files
as semb
ĠL et
ĠL ec
ĠL inux
ec ker
Ġ1 9
Ġbe ings
Ġbe come
form s
iz ing
iz es
ab out
ab ility
Ġ2 7
Ġ2 8
end if
Ġco st
Ġco unts
to o
ch ive
ch ann
ch ars
ĠD is
ĠD mit
ĠD estination
Re f
Re gister
Re peat
00 2
00 3
00 5
00 99
set default
Ġnot es
path lib
bu iltin
ser vers
Ġe vt
Ġe mit
te gr
tr ust
ĠF S
ĠF rom
ĠF ont
ĠF FI
ĠF ragment
ĠF eed
Ġex e
Ġex pos
Ġex port
Ġex ha
Ġex ports
Ġex ceeded
ĠB r
ĠB u
ĠB or
ĠB le
ĠB it
ĠB ast
ĠB LACK
ĠB inary
ĠB mpImagePlugin
ĠB LUE
ĠB ecker
Ġ_ )
Ġ_ <
sp n
qu isite
Ġwin cer
Ġde lay
Ġde mos
ang ing
ang erous
pt c
file system
out file
out File
Ġ0 8
Ġ0 9
ĠO r
ĠO ur
ĠO per
ĠO LE
ĠO BJ
Ġor d
Ġor g
Ġor ange
Ġor dered
ub ert
Ġst yle
Ġ* ,
Ġ* _
(' \
Ġr fc
Ġr ank
lic ies
ke picture
py win
code c
Ġl iteral
Ġwh ose
Ġwh atever
(" >
(" \\
Ġ< /
con st
con ds
Ġ[ (
Ġ[ ("
ĠM er
ĠM ST
ĠM ock
ĠM PEG
ĠM SV
ans late
Ġmodule FactoryFactory
ind er
Ġ+ <
und led
os name
able Header
able Body
Ġpar ses
if def
pre vious
Ġ: :<
Ġ: )<
app Name
em ero
fo bj
ĠH ere
ĠH AS
ĠH ell
ĠH EAD
Ġcon version
Ġcon cept
Ġcon sist
Ġy et
() ]
() [:
() ``<
Ġpro vider
Ġpro cessed
Ġsh aders
Ġsh lex
Ġget parent
Ġget cwd
Ġme t
Ġme ta
Ġme ant
Ġme aning
RE PLA
Ġen codings
Ġen ough
ER N
ER IC
>> >
ĠW ill
ĠW CK
ĠW rite
ĠW orld
ĠW illi
ĠW hether
ĠU ser
ĠU rl
ĠU SHORT
EN GINE
EN ERIC
Ġhas Children
ĠRe lease
ĠRe mote
Ġse p
Ġse ctions
Ġse ns
ĠPython s
ĠPython Version
Ġal g
Ġal ong
Ġal ternate
ap s
Ġun ix
Ġun like
Ġun escape
Ġun compressed
Ġtext size
Ġra ster
Ġset attr
ated ata
~~~~ ~<
IN PUT
text domain
sc ore
Ġ3 1
Ġ3 4
Ġ3 5
Ġ3 07
us age
us ko
ĠG r
ĠG io
ĠG ET
ĠG RIB
ĠG REEN
ĠG Ã¼
ĠG NU
ON LY
ĠR st
ĠR ot
ĠR ich
ĠR aw
ĠR Lock
ĠV alue
ĠV ideo
ĠV erify
ĠIn ter
ĠIn formation
ĠIn completeRead
comp ilers
ĠĠĠĠĠĠĠĠĠĠĠĠĠĠĠĠ ĠĠĠĠĠĠĠĠĠĠ
ĠĠĠĠĠĠĠĠĠĠĠĠĠĠĠĠ ĠĠĠĠĠĠĠĠĠĠĠĠĠĠĠĠĠĠĠĠĠĠĠĠĠĠĠĠ
ig lob
pro cti
time tuple
Ġch ose
tri p
Ġwe ak
Image Button
01 00
Ġtyp ically
Ġ4 7
Ġ4 05
Ġ4 40
En ter
En able
bo otstrap
ME TADATA
Ġlist ing
App The
SE D
SE S
lat er
lat ten
http bin
Ġpre d
Ġpre ference
Ġpre served
Ġpre cision
Ġsc en
Ġsc roll
Ġsc hedule
Ġsc ipy
IL TIN
Ġcomp uted
Ġcomp ilers
PE ER
Ġab c
ĠImage Draw
ifi es
Ġrun py
TT ERN
SI D
OR K
object s
ff ec
sol aris
Ġapp end
Ġapp Name
Ġapp lies
Ġapp ears
Ġapp roach
parse Fragment
Ġclass name
St yle
St ores
ens ure
back port
back ground
Ġformat ter
Ġformat ting
Ġbase name
Ġint ent
Ġlog Type
key board
not mp
com ment
Ġkey board
Ġkey ring
Ġnew lines
EX CL
EX EC
ST S
ST DOUT
net con
po ssible
Ġpy installer
pos ition
Ġx range
The se
ive TreeWalker
Version s
Ġ** ",
emp ty
Ġext ends
Ġext raction
DE D
DE FIN
DE LETE
DE PTH
Ġsub package
Ġsub command
Ġsub packages
Ġsub tract
Ġ5 03
ĠE PS
ĠE ric
Ġback ports
ĠUn ix
ĠUn rewind
iti ve
ep at
=' .',
Ġ(' **
=" %
dist ro
dist ance
Ġparse date
Set WaitableTimer
ken neth
Ġ8 4
Ġ8 37
Con vert
cal culate
col lide
Ġid c
Ġsome one
Ġsome times
Ġdocument ed
date Resource
Ġinstall er
AL S
rag ged
ĠDistutils Setup
Text Attribute
las ma
Un able
Un recognized
Ġadd ition
Ġcolle ction
AN GE
xy z
ENT ITY
PI X
prefix ed
Ġsee k
Ġz f
Ġz ones
Ġro unded
Ġpo ssibly
mag ic
mag ne
Ġconfig ure
12 3
12 5
cache able
Ġser ve
ĠSet s
ĠSet FileAttributes
Ġneed les
De vice
Get Policy
Get User
UT C
ta kepicture
Ġmapp ed
Ġ7 9
ĠK eep
ĠK erberos
ĠK evin
ĠK leine
\\ "
Ġcur s
Ġdep s
200 00
UR CC
CO UN
Request Handler
Request History
Ġfollow ed
Ġac count
Ġchar set
ox ml
isc u
Ch op
Ch ange
ĠRE D
ĠDe vStudio
Ġallow ing
ĠLabel Base
Ġdet ect
Ġ6 3
ĠSt ate
ĠSt oll
append Child
CE MENTS
new Fields
ĠJ ython
ĠJ emero
unt ain
Base Distribution
Base Cache
encode d
no thing
sing le
els ius
Ġdif fers
Ġoutput s
support s
Ġhere by
Ġdis pose
ĠSec ureTransport
ific ally
Create Event
Create Server
Create WaitableTimer
Create Pipe
cre ating
cre ative
{} '.
Ġwork er
loc ale
ĠBase d
ĠBase SSLError
Ġyield s
gn ore
det ect
ĠTo oMan
Ġhel lo
'. "
LE D
element Tree
lect or
Ġfin ish
Ġfind s
Ġfind er
Ġover lapped
iter keys
Ġinstance s
ĠEn d
ĠEn coding
Ġline ar
do Auth
Ġqu irks
Ġrange s
AR Y
AR SIZE
face s
tree builder
Ġlook ed
HTTP Warning
HTTP ConnectionPool
HTTP HeaderDict
ne cessary
liter al
Res olution
AS SES
Py gments
Py Sec
Write Console
du cing
ari able
Ġman ipul
Ġzip import
ĠURL Require
UN ICO
dis patch
Ġcor ners
Ġmin imum
Ġmulti ply
Ġ[" _
Key BasedCompareMixin
mon key
ĠPro vides
Ġstart ed
Ġmain ly
Ġarg v
Ġarg on
KE L
Not es
dt Pygments
Ġlib rus
gh ter
ĠX ML
Ġiniti alization
ĠDistribution Version
Ġwind ll
... \
PY PI
hash er
hash lib
ĠAd am
ick le
LI B
Ġend s
Ġim medi
Ġimp licit
start node
ĠTime Zone
output s
Ġlink ed
sk ip
ĠTr ansition
ĠTr anslate
Ad monition
Event Source
esc apes
ĠCont act
ĠCont ribut
ĠSe ssion
ĠSe veral
Ġthere fore
Ġcover ed
ĠHTML Input
HTML Parser
Po int
Ġ"" ,
Ġ"" )<
Ġtri ple
Ġauto complete
Ġresol ver
Control Set
LA ST
multi process
multi thread
Ġspecifi es
token izer
Ġ... '<
Ġ... ]<
Ġ... }<
ĠRes olver
Specifier Set
work er
Ġsu g
Ġsu mmary
Ġred act
exc lus
Ġexc lusion
Log ical
ĠComp ound
>* <
Ġckan ext
ĠBuild Tag
ĠRequest Field
exp anduser
Ġmod ifiers
Ġexec ute
()` ."""<
Policy Change
Code s
Code point
imp l
lan che
ĠRo ot
ĠRo bin
Ġaccess ing
man ylinux
Ġind icate
ĠAt tributes
ĠLine Circle
ĠLine Ellipse
0000 0000
Ġmax size
Ġmax imum
Service Frame
cy gwin
Ġpyp a
ĠFound Candidates
ĠFound Links
Ġ{} ".
Ġxml rpc
Toml Decoder
rou sel
Ġoccur ren
ĠPong Ball
Read Buffer
Ext Type
Ġpoint size
ĠConfig OptionParser
Do Create
Token Imperson
Token Privileges
Ġview class
Ġcom ments
Ġcom bin
ĠRequirement ParseError
ĠĠĠĠĠĠĠĠĠĠĠĠĠĠĠĠĠĠĠĠĠĠĠĠ Ġ
ĠĠĠĠĠĠĠĠĠĠĠĠĠĠĠĠĠĠĠĠĠĠĠĠ ĠĠĠĠĠĠ
Ġapply ing
API XELS
Build System
CM eta
FO UND
FO URCC
SU PPORTED
rev ctrl
Ġtarget s
Ġrep eat
namespace s
namespace HTMLElements
Ġarch ives
Ġarch itecture
ertif icates
+) _
+) "')<
AB CMeta
DO CTYPE
Rec ords
Rec urs
ĠPY THON
ĠName d
Ġconnect or
Ġdisplay ed
OS Error
PA CK
PA TTERN
Sub st
Sub Title
bit map
Ġli ves
inst ead
alk ers
Ġsk learn
max imum
Reg Set
Reg OpenKey
vious ly
Ġlet ters
Ġavoid s
ĠSSL Context
201 5
Touch Widget
miss ion
tra ceutil
sec ret
Ġstructure s
Ġextract ing
Ġextract ed
ĠHTTPError s
replace ments
Clipboard Data
28 22
Be zier
gr adient
regex p
Ġsav ing
Ġreco gn
Ġreco gnized
comple tion
ĠCH ILD
ĠCh ri
ĠCh unk
Ġkeep s
ĠPool Error
ĠAbstract Provider
Ġequal ity
Ġgl yph
ĠHTTPS Handler
ĠHTTPS ConnectionPool
({ <
Effect Base
MO DE
No tific
No mads
Pre fix
Package Set
Package Finder
Package Details
Run ning
iet f
ĠMA GENTA
ĠRead Timeout
ĠGener ate
ĠUnicode DecodeError
Ġspecific ation
CC EPT
Ġsupp ly
Ġref id
ĠTLS v
ĠSer ializer
ĠID NA
ĠBo th
Module s
System Topic
over write
resol vers
dest ination
Ġfail ure
Ġinv oke
Ġinv olves
Ġthrough out
ĠPip e
ĠAl though
libc Version
Ġmak es
Ġcho ices
Com ments
Ġspace s
ĠExt Type
APP ENGINE
ĠAdd itional
>======================== ========
>======================== =====<
ĠDefault Dict
ĠShader Editor
Field Sens
ymb ols
Ġreport ing
urls plit
Ġknow s
child Nodes
Ġdec orator
ĠHel p
Start Tag
STR ONG
redirect or
Ġleft most
Ġaccept s
Child Nodes
Ġspecify ing
Add Topic
)? "<
Lib rary
On Background
hell Embed
Ġput ting
Ġsign al
ĠSystem Error
ĠSystem Message
Ġest ab
Ġdescri bing
Ġdescri bes
Ġgo ing
Ġrc dataElements
Ġparticular ly
Ġproble ms
Security Descriptor
effect s
effect widget
make file
unch anged
unpack ed
Ġ'/ '
ĠSpinner Interface
ĠNO TE
ĠAc cess
Ġep och
ĠMe ssage
ĠModule Type
Ġcompress ion
Lookup Account
Ġ867 6
Conflict ing
ALPH A
ALPH APIXELS
Ġtermin al
Valid ator
Ġperform ance
Ġindent ed
CL ASSES
Current ControlSet
Line Ellipse
Pos ition
dar win
sax utils
Ġca ption
Ġ"\\ "
ĠSc heme
ĠSc roll
Ġknown FileName
ĠOption Property
Ġstd in
Ġstd lib
(". "):<
ORD Type
ĠUnpack er
ĠUnsupported Extension
ĠUnsupported Operation
Connect TimeoutError
Ġrot ate
Ġrot ated
ĠKey BasedCompareMixin
COMP RES
.* ?
>-------- ----<
Audit Category
Ordered Dict
Que ued
gener ated
plat lib
plat dir
public domain
priv atedata
pattern s
tz info
tic FieldSens
Ġcop ies
ĠSpec ifically
Ġhack ed
Ġhigh p
Ġhigh er
ĠIs Theme
ĠPer ry
Ġdevice s
ĠMo ve
ĠMar ti
ĠMap s
Ġconven tion
ĠRG B
Ġatt ack
Ġatt ached
ĠSettingsWith TabbedPanel
StateMachine WS
ĠConfigParser Property
>`_ .<
CRE ATE
Font File
dan ov
fetch row
imaging cms
vant age
Ġfname out
Ġrespon s
Ġwrapp ing
Ġwrapp ed
ĠClear Color
ĠClear Buff
ĠSocket Timeout
Ġhue Round
asp x
ĠDec imal
Ġgu ar
ĠMax imum
Ġconflict ing
Ġgetp ass
Ġmechanis m
Ġsen ds
ĠIncremental Encoder
ĠIncremental Decoder
Ġchann el
Ġpreset s
Ġpyl ons
GetTemp Path
SCRI PTION
ĠResolution Impossible
xxxx xxxx
Ġretrie ving
Domain Information
zzzz zzzz
yyyy yyyy
74 98
From Page
Language Importer
sli des
simple filter
Ġel lipse
Ġpop ul
Ġdiscri m
Ġinser ted
ĠCode c
Ġthresh old
Ġthresh olds
ĠPO ST
ĠLexer Error
ĠDirect edGraph
Ġexperi mental
ĠBU FR
ĠOutput s
Ġtransp arent
Ġtransp arency
Ġmaint ain
Ind ividual
model view
ynchron ous
mbed ded
ĠConnect Timeout
ĠConnect TimeoutError
ĠJo hn
Ġtrigger ed
ĠWeb SocketHandler
exclusion s
ĠConfiguration Error
('.') ))<
(.*) ")<
pdh util
stitute In
Ġcoordin ate
Ġcoordin ates
-] *
Al loc
Col lection
La TeX
LINE ARSIZE
Mo untain
Mod al
MIN IVERSION
Markup Error
Roman Error
VAL UES
WARN ING
WEB P
cor rect
discri ms
eof s
factor ingTool
theme s
vanced EffectBase
Ġed ge
retri es
Ġbrow ser
Ġmar sh
ĠClose Clipboard
ĠCOM MENT
ĠSource Distribution
Ġlon ger
Ġparagraph s
ENABLE D
Ġseem s
Ġsearc hes
ĠGateway Ops
ĠEOF Error
Ġrout ines
FAIL URE
Compat ible
IIs Web
Ġprogramm ing
Method s
ĠDemonstr ates
ĠSettingsWithS pinner
front matter
BG R
Did nt
ELE MENT
MS G
Norm al
TX FS
clo ud
gl yph
hren heit
pk gs
}): (\
inclu ding
Ġtreew alker
Ġclo sing
Ġnumeric al
ĠTotal BytesTransferred
327 68
Ġeas ier
Ġmagn etic
Ġunich r
Enc rypt
Ġcollis ion
ĠAppEngine Manager
Completion Status
little cms
Ġintro duce
Ġnotific ations
Ġdispatch er
doct ests
doTest Impersonate
Extra Data
INDEX ED
ĠChar acter
Private Data
Demonstr ate
>-------------------- -
Shader Viewer
orizont al
723 4
Av ailable
Cance l
Diction ary
HER IT
Match er
MULT I
Non Recurs
Per formance
PIT CH
RUN TIME
TU AL
Us age
Uv loop
VOR ITE
VID ER
VIR TUAL
Wrap s
bro ken
cq ire
fq p
handl ers
jac ent
lv l
tabbed panel
yRedirect s
ĠEX IF
Ġaver age
Ġfinit e
Ġfair ly
Ġcerber us
anose conds
urlencode d
Ġintern ally
Ġnice ly
ĠTornado Uvloop
Ġmim ic
Ġannot ations
Ġanonym ous
ĠSound Loader
Ġvirt ualenv
ĠIService Collection
ĠIPS hellEmbed
ĠPropag ate
ĠNum Py
assemb ly
ĠLec lanche
ĠDmit ry
tegr ation
Ġexpos ing
Ġexha ust
ĠBast ian
Ġwincer api
ĠMSV CCompiler
ableBody Error
ĠHell er
REPLA CEMENTS
ĠWilli am
ĠRemote NotFoundError
Ġsens or
ĠGÃ¼ nter
ĠRich ard
ĠRaw ConfigParser
ĠVideo Player
ĠInformation Popup
procti tle
Ġchose n
Ġweak ref
AppThe med
ĠEPS ILON
ĠUnrewind ableBodyError
kenneth reitz
ĠDistutilsSetup Error
magne ticFieldSens
GetPolicy Handle
GetUser Name
ĠKleine idam
ĠJemero v
creative commons
ĠTooMan yRedirects
PySec Buffer
ĠURLRequire d
UNICO DE
Ġimmedi ately
ĠHTMLInput Stream
exclus ive
ServiceFrame work
TokenImperson ation
BuildSystem Details
ĠPYTHON PATH
Notific ation
COMPRES SION
Queued CompletionStatus
ĠIsTheme Active
danov ski
ĠClearBuff ers
NonRecurs iveTreeWalker
magneticFieldSens or
! !
! --
! "<
" #
" >
" {
" '<
" )):<
" [-
" [^
# >:
$ $
$ '
$ """
$ ",
' }
' """<
' "<
' (\
( '<
( ["
( "".
) -
) =
) \
) ]
) //
) ``
) ")<
) ::<
) ):
) '.
) )]<
) [-
) ").
) )?
) ``,<
* $
* ,
* <
* "):<
* (?
+ .
+ =
+ '<
+ +)
+ ============
, ):<
, ]<
- '
- (
- .<
- (\
. ]
. |
. '''<
. '.
/ {
/ ']<
/ '))<
/ ?#]*)
1 16
1 000000
1 00000000
2 048
3 32
4 3
5 4
6 1
6 00
7 7
8 0
8 1
8 3
8 7
8 9
8 11
8 17
8 08
8 000
8 21
8 74
9 2
: .
: {
: |
; '
; ").
; *.
= %
= -
= ~
= ''
= {}
= (),
= {<
= "",
> ]
> }
> '<
> ;<
> ...
> **
> ``.<
> =====<
> """"
? :
? """<
? ')<
? $')<
@ ").
A K
A IN
A SE
A UT
A ns
A CT
A lso
A pache
A GE
A RED
B Z
B l
B RE
B lock
B ox
B IO
B OL
B ottom
B DF
C a
C e
C or
C ls
C ython
C TT
C RI
C Python
C AC
C APS
C ANCE
C YAN
C JK
D es
D one
D ec
D est
D irect
D om
D AT
D eep
D OWN
D WR
D ATE
D TD
D uplicate
D estination
D WORD
E K
E ach
E asy
E astern
F ire
F orm
F RO
F OL
F allback
F RA
F ocusBehavior
G D
G N
G P
G ot
G IT
G MENT
G HT
G tk
G ENERIC
H andl
H OR
H AT
H OW
H ome
H AND
H IS
H ardware
H ttp
I M
I V
I SION
I MA
I RED
I PTC
I KELY
J PEG
K INTER
K enneth
K erberos
L ER
L AT
L ong
L ines
L eg
L icense
L AP
L ower
L ONG
L UC
M on
M ix
M ER
M ain
M IT
M ax
M PEG
M esh
M onkey
M eta
M ipmap
M BOL
N T
N ext
N ew
N ormalized
N ONE
N ico
N umpy
N EGATIVE
O T
O w
O ver
O VER
O ld
O DES
O CTYPE
O FFSET
O LED
P i
P s
P ix
P lease
P AD
P ull
P arent
P PRE
P air
P ower
P ART
P ropag
P DH
P rimary
R ot
R et
R ect
R out
R AL
R ight
R ITE
R enderContext
R PAREN
R BRACKET
R TD
R DWR
S it
S id
S em
S OR
S VE
S oftware
S ocks
S pace
S OF
S vg
S hell
S trictVersion
S idebar
S PACE
S OURCE
S trip
S SED
T S
T z
T ex
T ra
T ip
T ECT
T hat
T otal
T iff
T WA
T cl
T wistd
U ri
U ME
U pper
V C
V IN
V OL
V erify
V ISION
W G
W rit
W ay
W INDOWS
W IST
W asting
W HAT
X V
X ml
X ML
Y LEP
Z C
Z ip
Z EN
Z eroOrMore
[ .
[ \
\ "
] "
] """<
] ==
] ['
] \\
] ").
^ (?
_ {
_ .<
_ ":<
_ ]\
` )
` ;
` ::<
` -'
a co
a if
a ffect
a uto
a mental
a CCEPT
b g
b at
b en
b ge
b ers
b ig
b ecause
b row
b ice
b abel
b ender
b asic
b ably
b lend
c c
c n
c pp
c as
c url
c python
c heme
c ns
c amera
c Pos
c ElementTree
c ategories
c aps
c ertificates
d T
d d
d i
d p
d y
d st
d id
d key
d ive
d ition
d yn
d ial
d igits
d lg
d alius
d angerous
d usko
e ac
e ign
e ved
e ven
e fully
e quivalent
f A
f ur
f ill
f alse
f mt
f sencode
f eac
g al
g ing
g ame
g Error
g lish
g rim
g danovski
h i
h and
h ave
h ref
h Item
h ouse
h Std
h yper
i pp
i od
i os
i gger
i col
i ak
i uses
i Codes
j k
j n
j ython
j av
j ci
j uc
k b
k t
k in
k ent
k as
k ang
k top
k uhlman
k Nico
l m
l one
l and
l ation
l path
l lic
l strip
l bl
l bert
m y
m ust
m ilde
m issing
m jp
m enu
m ipmap
n r
n od
n adata
n ormalized
n ius
n br
n eeded
n atur
n ced
n props
o z
o ct
o gs
o os
o log
o sed
o CD
o ogle
o jci
p an
p ing
p la
p ad
p il
p format
p rere
p sf
p lus
p lop
p och
p seud
p aste
p lier
p Formatter
p ickle
r m
r w
r an
r ation
r nd
s j
s ample
s ms
s Hel
s hell
s ym
s aturation
s oukka
s ymlinks
t b
t c
t od
t ab
t ach
t ected
t reew
u z
u er
u de
u ce
u ation
u ck
u ary
u enter
u ish
u juc
v p
v an
v ols
v App
v olution
v pi
w ant
w alker
w orld
w ildcard
w aste
x or
x ls
x size
x step
y r
y code
y ong
y Zalogowano
z b
z al
z ing
z ma
z op
z em
z mat
z ily
z ones
z oz
{ '
| \.
} "
} ',
} ]*)
} "'.
} !".
} '".
} (.*)")<
Â ł
Ã Ń
Ġ .<
Ġ 99
Ġ );<
Ġ ?<
Ġ !<
Ġ urls
Ġ ]+
Ġ queue
Ġ ENXIO
Ġ Queue
Ġ âĢ
or ms
or ations
or ial
or ph
or oos
in ate
in el
in et
in te
in File
in valid
in ally
in com
in Name
in ition
in ations
in String
in stru
in liner
in ued
in teger
er ly
on gs
on python
re st
re me
re sp
re ction
re build
re load
re try
re lated
re cycleview
se v
se qu
se lection
Ġt e
Ġt i
Ġt ab
Ġt cs
Ġt reated
Ġt abbed
Ġt aj
Ġt aking
Ġt unnel
mp g
mp tion
mp licit
Ġi cns
at ic
at ure
at ly
at ransition
at tach
st andard
st ead
st Char
st ian
st yled
le ading
le gacy
le gate
Ġa f
Ġa ctions
Ġa mb
Ġa String
Ġa pi
ro v
ro y
ro ve
ro ved
ro pped
ro sa
ro utes
ro kes
ro sla
en n
en o
he st
he li
he uristic
de lay
de coding
de cre
de tail
de scriptor
"" ):<
ti ce
ti ps
ti fy
ti vely
ti ptc
)< /
)< <
Ġf ar
Ġf id
Ġf ire
Ġf our
Ġf und
Ġf ill
Ġf bo
Ġf mode
Ġf etc
Ġf eed
Ġf lex
Ġf riendly
Ġf sencode
Ġf requency
al ag
al len
al ImageFile
al ign
al abel
al lid
Ġp d
Ġp f
Ġp h
Ġp t
Ġp al
Ġp rom
Ġp ers
Ġp ul
Ġp ow
Ġp ub
Ġp list
Ġp ig
Ġp print
Ġp lus
Ġp anel
Ġp hot
Ġp atched
Ġp layer
Ġp aste
Ġp airs
Ġp hotos
Ġp riority
Ġp rimary
Ġp lasma
Ġp xstep
Ġc c
Ġc s
Ġc at
Ġc ame
Ġc ir
Ġc ec
Ġc rop
Ġc ategory
Ġc ElementTree
Ġc rime
sel id
an ces
an imated
rom a
rom e
ing w
ing Sk
ing uish
me yr
ge Value
ge lbert
ge tiptc
Ġs i
Ġs s
Ġs an
Ġs ve
Ġs ine
Ġs ay
Ġs ig
Ġs ync
Ġs af
Ġs ake
Ġs atis
Ġs ym
Ġs ynchron
Ġs Attrs
Ġs ymlinks
Ġs olve
Ġs ymbols
Ġre name
Ġre sp
Ġre ver
Ġre pro
Ġre mo
Ġre ach
Ġre leases
Ġre search
Ġre wind
Ġre spect
Ġre named
Ġre cycleview
Ġre quisite
Ġo db
Ġo dd
ur t
ur Effect
ur lopen
Ġw s
Ġw aste
Ġw asting
__ =
__ }
__ ',
__ ")<
__ ),<
__ ="
it a
it o
it ow
it Dialog
ss lo
ss Warning
ss ibility
ss ymb
Ġb z
Ġb ad
Ġb pp
Ġb ab
Ġb right
Ġb low
Ġb ast
Ġb ash
Ġb order
Ġb unch
Ġb ands
Ġb igger
Ġb allid
Ġd a
Ġd en
Ġd ig
Ġd ie
Ġd arker
Ġd NS
Ġd igits
Ġd lg
Ġd iscu
Ġd ropped
-- <
-- >',
ut Builder
ut ely
ut orial
Ġin file
Ġin format
Ġin ner
Ġin vert
Ġin finit
Ġin sensitive
Ġin cremental
Ġin dependent
Ġin sensitively
Ġin correct
ct x
ct ype
ct ually
ex pression
""" ^(?
ion error
la p
la def
la red
la cer
def late
li en
li ce
li ant
li kely
li ograph
Ġn l
Ġn p
Ġn one
Ġn est
Ġn props
Ġn anoseconds
Ġn orms
ma pt
ma kes
ma inder
ed u
ed Writer
ed Encoding
ame file
un parse
un split
un link
un defined
un iversal
un signed
un sorted
un authorized
un ordered
un ivgw
un yong
un styled
Ġ( >
Ġ( `
Ġ( ''
Ġto gg
Ġto ld
ad iuses
co s
co ur
co uld
th en
th an
th resh
th omas
th readed
ri ption
ri ff
ri later
ri llic
ri heli
ac count
ac cqire
ĠT O
ĠT urn
ĠT able
ĠT ake
ĠT itle
ĠT riangle
ĠT HIS
ĠT KINTER
Ġ' '
Ġ' [
Ġ' )<
Ġ' ']
Ġ' +'<
Ġ# :
il ing
il ls
il ata
il led
il grim
Ġdef orm
ist ogram
Ġm d
Ġm ile
Ġm map
Ġm atter
Ġm arkers
Ġm iscellaneous
Ġm Activity
is ol
is ation
is file
is ap
is match
is abs
yp ress
pp ol
pp rint
Ġan im
Ġan imated
ot ch
Ġ" +
Ġ" ...\
id ing
id ll
Ġfor ce
Ġfor eign
ĠC re
ĠC ra
ĠC lass
ĠC ore
ĠC alled
ĠC lasses
ĠC ryptography
ĠC andidates
ĠC urrent
ĠC SV
ĠC yg
ĠC lick
ĠC JK
ĠC ALS
ĠC elsius
iv an
iv ersion
ext raction
ment ation
ra b
ra se
ra ys
ra ke
ra mb
ra vols
Ġis Path
Ġis olation
one go
Ġof fer
---- -<
ĠS J
ĠS te
ĠS ave
ĠS ty
ĠS TO
ĠS EM
ĠS oukka
ĠS AX
ĠS ince
ĠS uz
ĠS oroos
for est
for ward
get format
get default
get filesystem
get previous
get ChildNodes
Ġh ad
Ġh ol
Ġh ig
Ġh im
Ġh wn
Ġh ardware
Ġh Std
Ġh urt
Ġv x
Ġv y
Ġv ow
Ġv env
Ġv ars
Ġv isual
Ġv Tex
name lbl
ĠI con
ĠI Python
ĠI ron
ĠI gnore
ĠI RTD
ĠI TS
ĠI van
ĠI mplicit
ĠI ppol
ate ReadBuffer
Ġth ous
Ġth rows
Ġth readed
Ġk o
Ġk w
ation ValueError
ation alization
op ython
op ener
up enn
ĠP C
ĠP an
ĠP rint
ĠP ublic
ĠP alette
ĠP rep
ĠP ng
ĠP assword
ĠP URE
ĠP hot
ĠP ublisher
ĠP ressing
ĠP DH
ĠP lanet
ĠP ieters
ĠP cdImageFile
ĠP ilgrim
ĠN B
ĠN ON
ĠN DK
ĠN ico
ĠN TLM
ĠN EGATIVE
oc used
ack Error
ĠA T
ĠA ss
ĠA cti
ĠA uto
ĠA sk
ĠA LL
ĠA udit
ĠA last
ĠA ctually
ip e
ic z
ic ation
ic Exception
ic ient
ul z
ul ates
et y
et ype
et ries
et rov
ect ing
ir it
ir onpython
as c
as d
as m
ĠL if
ĠL im
ĠL ock
ĠL ight
ĠL og
ĠL INE
ĠL AB
ĠL ACK
ĠL ots
ĠL IKELY
ĠL utBuilder
32 0
32 16
ec how
ec hin
Ġu json
Ġu chardet
Ġbe ach
Ġbe zier
ire ctions
Ġ2 048
Ġ__ <
to bool
ch dir
ch odorowski
Ġ. /
Ġ. -.<
ĠD on
ĠD ist
ĠD ate
ĠD et
ĠD rop
ĠD ave
ĠD om
ĠD raw
ĠD IG
ĠD ET
ĠD ependency
ĠD ob
ĠD TD
ĠD raft
ĠD alius
ĠD OCTYPE
Ġlo st
Ġlo ss
Ġlo ck
Ġlo ts
Ġlo cated
Re set
Re parse
Re ST
Re port
Re ason
Re vision
Re ceived
Re factoringTool
00 6
00 04
set Pro
set Filter
set proctitle
Ġnot ation
path set
ure Path
~~ <
Ġas ynchronous
par ation
par ator
par sing
ser ts
ser ial
Ġe o
Ġe v
Ġe mp
Ġe ager
Ġe ven
Ġe quivalent
te ap
te kNico
tr l
ĠF ed
ĠF ix
ĠF ind
ĠF ree
ĠF ill
ĠF IL
ĠF OR
ĠF ield
ĠF ull
ĠF BO
ĠF eature
ĠF rame
ĠF NF
ĠF ocusBehavior
ĠF OUND
ĠF eel
Ġfrom list
Ġex clu
Ġex ename
ĠB Z
ĠB e
ĠB ind
ĠB len
ĠB RI
ĠB ecause
ĠB ob
ĠB EL
ĠB eta
ĠB LP
ĠB ond
ĠB alag
lib er
lib Encoder
lib rus
lib Compatible
Ġ` -.
int ent
int opython
Ġstr m
Ġstr ateg
Ġstr tobool
Ġos x
Ġos name
Ġ_ /
Ġ_ )<
sp eed
qu ad
qu xx
qu ote
qu antization
qu oted
Ġwin con
Ġwin api
__( _
Ġde al
Ġde sc
Ġde comp
Ġde ta
Ġde dent
Ġde letes
Ġde vpi
Ġon line
Ġtype Filter
file object
file types
out go
Ġ""" :
Ġ""" \<
Ġ0 1
ĠO b
ĠO bj
ĠO FFSET
ĠO ffi
ĠO rigin
ĠO dtPygments
Ġor icol
ub er
Ġst ale
Ġst ret
Ġst ores
Ġst yled
Ġst rokes
que es
Ġ* "
(' #
(' -
(' /
(' _
(' /',
(' :')<
(' [\
(' -->',
ght on
ght ly
Ġg it
Ġg ive
Ġg ives
Ġg lsl
Ġg rab
Ġr u
Ġr ather
Ġr adiuses
Ġr ulz
ke ypress
py o
py w
py dist
py wintypes
py OpenSSL
py CMS
py epat
tern ative
tern ationalization
url fetch
url unsplit
Ġl b
Ġl t
Ġl v
Ġl inux
Ġwh o
Ġwh y
(" #
(" ("
(" ["
(" >=
(" :",
(" +{
(" )").
(" ;").
(" @").
(" ]").
con f
con struct
con sume
Ġ[ [
ĠM S
ĠM od
ĠM ath
ĠM ode
ĠM ag
ĠM ore
ĠM ay
ĠM are
ĠM uch
ĠM atch
ĠM IT
ĠM anager
ĠM ost
ĠM issing
ĠM ET
ĠM achine
ĠM arkup
ĠM onkey
ĠM IME
ĠM ODES
Ġname prep
ans i
ans itow
um ans
und ers
und ant
able Candidate
Ġpar am
if Scatter
pre d
ver Image
ver Behavior
Ġ: -)<
", )<
em on
ou ghton
ĠH as
ĠH ave
ĠH ook
ĠH IG
ĠH of
ĠH olds
ĠH ttp
ĠH umans
ĠH oughton
Ġcont rols
Ġcon form
Ġcon fi
Ġcon su
Ġcon sistent
nt ly
Ġy value
Ġy offset
Ġy ears
In clude
In direct
In teger
In consistentCandidate
In tegration
In itDialog
() [
() `<
() `.<
() )("
() ][
Ġpro jection
Ġsh are
Ġsh ipped
Ġsh apes
Ġget text
Ġget palette
Ġget TreeWalker
ag on
RE F
RE AL
RE LE
RE CUR
RE FIX
RE VISION
ity CC
Ġen orm
ER SON
ĠW h
ĠW are
ĠW arnings
ĠW alker
ĠW iemann
ĠW HITE
ĠW arc
ĠW ARN
ĠW HEEL
ĠW ORK
ĠW RITE
ĠW ojci
Ġhas n
Ex e
Ex port
Ex peri
ĠRe gister
ĠRe vision
put palette
Ġse m
Ġse en
Ġse veral
Ġal ter
Ġal gorith
Ġal lot
Ġal though
Ġal ongs
list en
ap k
ap ed
Ġun ame
Ġun able
Ġun link
Ġun known
Ġun fin
Ġun su
Ġun parsed
Ġun used
Ġun installed
Ġun expected
Ġun authorized
Ġun ique
Ġun ordered
ore set
Ġtext box
ok ay
`` -
`` .
ime s
ime ter
IN IT
IN HERIT
win reg
sc m
Ġ3 3
Ġ3 01
Ġ3 33
Ġ{ ...
ĠG e
ĠG roup
ĠG Object
ĠG dk
ĠG libcVersion
ĠG aif
ĠG oogle
ĠG uenter
ĠR id
ĠR PM
ĠR PAREN
ĠR BRACKET
ĠR ename
ĠR andom
ĠR etries
cess arily
ĠV er
ĠV iew
ĠV asko
ĠV FT
ĠV ariable
ĠV ilata
der ived
:// <
:// ``
read s
read only
main Loop
ĠIn c
ĠIn stance
ĠIn iti
ĠIn clu
ĠIn vert
ĠIn itialize
ĠIn consistentCandidate
ĠIn ternationalization
format ted
comp onent
comp uter
comp osite
source s
Ġ`` "
Ġ`` '
Ġ`` (
Ġ`` <
Ġ`` --
ib liograph
Ġtrans action
ĠĠĠĠĠĠĠĠĠĠĠĠĠĠĠĠ ĠĠĠĠĠĠĠĠĠĠĠĠĠĠĠĠ
ĠĠĠĠĠĠĠĠĠĠĠĠĠĠĠĠ ĠĠĠĠĠĠĠĠĠĠĠĠĠĠĠĠĠĠĠĠĠĠĠĠĠĠĠ
ĠĠĠĠĠĠĠĠĠĠĠĠĠĠĠĠ ĠĠĠĠĠĠĠĠĠĠĠĠĠĠĠĠĠĠĠĠĠ
ig ation
ig ier
ig uous
im g
Ġat tri
Ġat exit
pro d
pro file
pro vides
pro gram
pro ble
pro tected
File Version
File Wrapper
File Size
Ġpath name
Ġch allen
tri o
Ġhe art
ee k
cur ious
Ġso ft
Ġso lid
Ġversion ing
cont ain
cont rolling
cont inued
Ġ4 1
Ġ4 3
Ġ4 6
Ġ4 9
Ġ4 18
Ġ4 27
En sure
sh aders
sh ake
bo und
bo ok
bo unce
bo gdanovski
ME TR
Ġcol lide
Ġcol umns
Ġlist comp
doc it
ard ised
Ġcode base
Ġcode point
SE EK
Ġad vanced
Ġad monition
Ġad vantage
Ġad jacent
Ġread me
Ġread only
Ġpre paration
Ġsc ore
IL S
IL ITY
Ġdata store
Ġdata explorer
Ġdata Received
Ġcomp ass
Ġcomp uter
Ġcomp osite
Ġar bit
Ġar rays
PE D
Ġab ort
Ġab is
Ġfunction al
Ġfunction ing
ĠImage Font
Ġprint ing
yst ick
SI TE
SI GN
Ġpackage Name
OR ANGE
ff icient
led ge
sol utely
Ġapp ear
parse String
Co unt
Co ords
Co okies
St op
St andard
St uff
St derr
St orage
St andingHeader
HE IGHT
HE LP
SS PI
back ed
Ġformat date
Ġbase s
Ġbase type
Ġbase mode
Ġint ention
Ġno tice
Lo st
Lo ssWarning
com ments
Ġdomain s
Ġtime stamp
Ġnew list
Ġnew Parent
ST AT
ST RO
ST YLEP
install ation
ĠAn ything
po ssibly
Ġpublic Id
spec s
spec ify
Ġx m
Ġx v
Ġx offset
red raw
red enti
red uce
package d
Version Predicate
base string
ms dn
ence d
AT AL
AT FORM
AT ORS
coding Error
Ġext ended
Ġext reme
DE V
DE SCRIPT
ute String
Ġtest ed
Ġtest main
Ġtest Name
Ġtest Waitable
Ġtest Simple
Ġtest Impersonate
Ġtest Cookies
Ġsub tle
Ġsub title
Ġsub mit
Ġsub section
Ġsub stitute
Ġsub sequ
Ġwhen ever
Ġ5 5
Ġ5 11
temp orary
temp lates
02 25
ĠE d
ĠE SC
ĠE qual
ĠE ffect
ĠE astern
ĠE mbedded
ĠE poch
av ed
Ġback ward
Ġback wards
Ġback sla
ĠUn parsedVersion
ĠUn iversalDetector
Ġres ume
=' +
Ġne atly
=" (\
=" ([^
add Handler
add itional
Ġ201 0
Set tings
Set Pro
Set tingsWith
Set SecurityDescriptor
IC S
graph ic
Ġ8 467
Ġle x
Con stants
Con sumed
Con structs
col umns
Ġid nadata
16 0
Ġiter ate
Ġiter items
open pty
Ġinstall d
Ġinstall ations
AL I
arg a
ĠNot Integer
ĠDistutils Module
ĠDistutils Ar
cs Info
Ġup stream
las se
Ġresult ing
Un filter
Un expected
Un iversalDetector
run as
Ġj a
Ġj jk
Ġj nius
ract s
rst style
ĠCo mmon
Ġadd res
Ġadd ressing
[' \
log ic
ĠHTTP Exception
ĠHTTP Connection
ĠHTTP Adapter
ĠHTTP ConnectionPool
space walk
heme s
Ġpos itive
Par sing
Par sedVersion
RO OT
son Errors
Ġ| (
Ġ| .|
iss ue
kivy app
line ar
line view
prefix es
ak ta
Ġ/ <
Ġ/ __)
Ġz um
Ġz ipp
Ġro utes
Ġpo licies
Ġpo ssibility
Dict Encoder
12 00
ryp tion
ryp ted
Ġser ial
ĠSet ting
De lete
De fin
De termine
De bugging
De velopment
De legate
De codingError
Get Window
Get Console
Get Current
Get Cookie
Get FileAttributes
Get Std
Get Save
gu id
Ġrequest Code
scri be
Ġusage s
UT E
UT DOWN
UT RAL
UT ILS
Ġinst allable
ĠLib rus
') "
') )
des ign
Ġoption ally
ha zmat
Ġ7 20
Ġ7 67
Ġ7 320
ĠK V
ĠK ang
ĠK uhlman
ĠK riheli
ĠK lasse
Ġnumber ing
Ġnumber ed
Type Error
\\ .
\\ \
\\ #>:
Ġcur dir
Ġcur ved
200 6
200 9
200 0000
FA VORITE
Ġinter rup
11 0
ĠDict Metadata
CO DES
Ġ\ '%
Ġ\ $$
ĠColor ed
Request Error
Request Warning
Request Field
Request Topic
ĠLibrary Loader
Ġac comp
Ġac cid
Ġopen ing
SD K
als o
isc losed
isc hemes
Ġscript ing
Ġoper ating
Ch oose
ĠRE SET
come s
ĠNew ConnectionError
ĠDe bug
ĠDe lete
ĠDe precated
ĠDe termines
ĠDe velopment
ĠFor ward
ĠLabel With
ĠLabel OnBackground
ĠLabel Mipmap
per form
Ġevent Type
Ġevent ID
Ġevent ually
Ġevent Category
split Comparison
10 4
ĠCon stants
Ġdet ected
Ġdet ector
CT rie
RI X
Ġ6 55
ĠSt atic
ĠSt ackError
CE LER
To WaitFor
ĠJ e
ĠJ ust
ĠJ ann
ĠJ ones
ĠJ sonErrors
Ġurl join
Ġurl unparse
Ġdiv iding
Base Specifier
Base Candidate
Base Reporter
Pro c
Pro tocol
Pro duct
Pro vide
SC M
SC S
SC REEN
filename s
Test Data
Test ReclineView
event Log
Ġcase dkey
Ġstate Filter
For Result
IO Loop
wh ite
with out
input file
input stream
Ġsystem Id
Ġexp lor
Ġexp anduser
Ġexp lains
lower case
'] :<
'] ``
sub class
sub tract
system Id
Ġtra ining
Command Info
Python Key
platform s
user id
rect or
Ġdif ferences
05 0
>======== ===<
Tree Input
min ate
min utes
Ġtoken ize
Ġtoken izer
Ġtoken Types
Ġsp irit
Info Distribution
ĠInvalid URL
ĠInvalid Marker
ĠInvalid Proxy
ĠInvalid Schema
ĠInvalid ChunkLength
ĠInvalid Codepoint
PIL ED
Ġdis miss
Ġdis pla
Requirement Information
ific ation
Create Key
Create Topic
LS L
LS cheme
enti ties
Ġspec ialized
ĠBase Specifier
ĠCommand Ar
ID Py
ID OK
[: ]<
det ector
ĠTo Date
'. ')<
An droid
LE VE
dep th
dep endency
Ġrepresent ed
Ġrepresent ative
Ġover head
Ġover writ
Ġover rides
iter dir
lip ses
ĠEx ec
ĠEx tra
ĠEn able
ĠEn try
ĠEn caps
ĠEn gelbert
default s
Comp onent
Comp uteString
([ ])<
NA IVE
cmd options
do be
gra b
gra de
Ġqu ite
Ġqu oted
Ġqu otes
Ġhash able
AR D
AR RA
tree Type
hes ized
ĠPy gments
ĠPy Access
ĠPy Pi
ĠPy Socks
Ġ[' -
Ġcolor s
Ġcolor ed
Ġcolor mapt
HTTP Connection
HTTP Message
HTTP Response
Ġ-- ><
ating Default
Ġ'. '
Ġ'. '.
03 3
Ġfield name
copy ing
Py PI
Py INPUT
header bar
ari ant
Ġman ually
Ġman aged
Ġits dangerous
ĠURL s
ĠURL Fetch
44 3
stat s
Ġdist ances
Ġdist inguish
ĠTest ReclineView
Ġmin utes
Ġmin idom
Key State
Key Code
Key Down
String Property
String IO
String List
mon otonic
arch y
ĠPro ject
ĠPro bing
ĠPro vide
Ġstart node
Ġshow ing
33 33
Not Chunk
Not Http
be at
be ing
dt d
unct uation
AC CELER
DI VIDER
OL SIZE
da ys
da pt
ĠX Z
Ġindex es
... @
Ġoperator s
At temp
At tempt
ĠAd vancedEffectBase
ĠMy Scatter
ĠMy Lib
ĠRequests Warning
LI KELY
NO CTT
NO FOL
Ġend ing
Ġend ian
reg ular
Ġimp ly
Ġimp lies
start ing
start Activity
ĠTh us
ĠTh ink
Ġvari ety
Context s
BU FF
BU ILTIN
CUR SOR
Ġjoin String
ĠOpen GL
Ġstream reader
Ġstream writer
Open Port
]. *)
ĠSe arch
Install er
Ġchange d
Ġchardet ect
Qu ake
author ize
author ization
ose Version
remove Child
Ġauto matic
Ġresol ves
Ġresol ving
Ġlocal rev
Ġunpack ing
Control KeyState
15 0
15 55
15 7234
Cache Control
PRO C
PRO PER
PRO GRESS
multi texture
multi ply
Ġerr msg
Ġ... ,
Ġ... ])
Ġattribute Map
ET IME
Ġper iod
Ġsu itable
Ġred istribut
Ġred undant
Ġ25 1
Ġ25 2
Ġ25 3
Ġ25 4
Ġexc l
Log on
ĠComp ute
ĠComp iler
FIL L
FIL TER
Pool Manager
case s
down load
down loads
sd l
sd card
Ġobj loader
ĠFile List
ĠFile Cache
ĠBuild ozer
ĠBuild Default
ĠRequest Methods
>================ ===<
") ("
") ],<
"] :<
ECT ING
RA CE
RA SCS
save opts
Ġent rypo
Ġent rypoints
Ġtag Token
state machine
>## #
exp and
Ġ16 0
Ġ16 384
Ġexec uting
()` :
Ġlast y
Policy No
Policy AuditEventsInformation
(( (
lan k
Ġfloat ing
Ġtop ic
Ġtop icName
Ġstri de
ĠRo ger
ĠRo bert
Ġaccess SCM
22 9
Se arch
Se quence
Se lection
Se parator
bind textdomain
stream s
Ġind ices
Ġind icates
Ġdest inations
Ġdescription s
Ġdemonstr ate
Invalid URL
Invalid Marker
Invalid ChunkLength
Application s
ĠDef inition
ĠTransform er
ĠTransform Spec
HEADER SIZE
cy rillic
ik i
Ġpyp i
local s
Ġ{} \
Ġ{} '.
Ġxml ns
Ġrole s
Toml Path
Toml Ar
Toml DecodeError
Toml Numpy
Path Distribution
Retry Meta
alen coder
fd open
filter warnings
top ic
top icName
Ġ'- '
Ġ'- '<
ĠPar ticular
ĠPar ameters
Read s
Read Timeout
Read TimeoutError
ĠNote App
ĠNote View
Ġpoint ing
Ġservice s
Ġservice manager
Do uble
Do Some
Find Files
Token Type
Token izer
Token Session
Ġact s
ray Separator
ĠLink s
Ġcom ma
ĠDE SCRIPTION
Ġprob er
ĠĠĠĠĠĠĠĠĠĠĠĠĠĠĠĠĠĠĠĠĠĠĠĠ ĠĠĠĠĠĠĠĠĠĠĠĠĠĠĠ
Ġapply Handl
backend s
Ġframe d
NAME D
Ġlookup s
SU PPORT
SU BJECT
TR Y
handle s
Ġtarget name
Ġrep l
ish ment
Ġver b
namespace URI
Ġ100 000
Ġegg s
Ġlong opt
ĠSequence Like
Button Behavior
IS API
Link Source
Missing Dict
Missing Warning
PRE SSED
PRE RELE
Rec ycle
fin ally
xml rp
Ġpur ge
Ġreg util
exec ute
ĠCreate Event
ĠDD S
Ġconnection s
>============ ===<
flict ing
OS X
Sub sampling
Sub scribe
vc vars
Ġli ve
Ġli kely
Ġli ghter
Ġpatch ing
Ġsample s
Ġold y
Ġdraw n
Ġ(( -(?
ĠSU PPRE
ĠSh ort
ĠSh ading
Ġvendor able
Reg OpenKeyEx
Reg EnumKey
Reg EnumValue
Reg CreateKey
ready Installed
ORT S
HTTPError s
201 4
=[ (
=[ <
Sec ureTransport
TI ES
cf e
tra iling
uff led
writ able
Ġfont s
Ġclient Connection
Ġrect s
location s
uniform s
ĠText IO
Ġmo ved
ĠLo op
ĠLo oseVersion
ĠBack up
Ġshort er
Ġattemp ts
Enum Windows
Ġidenti cal
Ġinterpre ting
Ġinterpre ters
URL ENCO
replace ment
ĠExample s
Ġlower cased
Import Popup
ever ything
ob server
}) "<
}) ".
}) -(\
orary File
Ġreason able
coord inate
ĠCh odorowski
Ġkeep ing
ĠAbstract Resolver
ĠLIGHT RED
ĠLIGHT WHITE
ĠLIGHT BL
ĠLIGHT MAG
ĠLIGHT BLACK
ĠLIGHT YELLOW
ĠLIGHT GREEN
ĠLIGHT CYAN
Ġgl ork
ush ing
Def ect
COM PILED
>~~~~~~~~~~~~ <
>~~~~~~~~~~~~ ~<
({ !
({ "
Buffer ed
Hook Missing
IF T
IF EST
With Color
pool manager
pep s
ux ili
Ġtz name
rot ation
Ġfull name
ĠTempDirectory TypeRegistry
Ġform al
ĠCustom Popup
ĠCustom JSONEncoder
oper ations
abstract property
('. '):<
ĠMA KE
Ġmap s
ĠGet ClipboardData
ĠGet QueuedCompletionStatus
ĠGener ic
ĠGener ated
ĠGener ator
ĠRaise d
project Name
Server App
ĠTimeout s
ĠTimeout Error
ĠTimeout StateError
Ġrectangle s
Memory BIO
Ġconsider ations
Lsa Store
OF N
ier archy
Ġfree form
Ġfree ze
Ġparent hesized
Ġpick ling
Ġref Node
common prefix
Ġ'_ ')<
och rome
Ġbegin s
ĠData LossWarning
Ġsepar ated
ĠVal id
Ġscale s
EXP ORTS
Ġ85 95
Ġ85 41
Ġ85 65
Ġ85 92
Ġpythoncom xx
([^ ?#]*)
([^ }]*)
Ġcalcul ated
ĠDemo App
>`` `<
PO SITIVE
PO OLED
PO OLSIZE
Value Ex
_. ")<
_. ]+
ialize Error
over lay
over ride
over lapped
real file
Ġsli ghtly
Ġside bar
example s
ĠTag Info
Ġ". ".
ĠPRO GRESS
ĠAl ways
ĠAl pha
ĠLoc al
ĠLoc ate
ĠDo es
Ġloc ate
Ġgraph ical
Ġlat in
Ġlar gest
Ġmodel view
ĠFormat Error
ĠFormat Message
Ġcallback s
ĠExt racts
Ġresolution s
>======================== <
>======================== =<
Extension s
Extension Proc
ĠShader Widget
ĠShader Tree
CD ATA
Check s
Doc Info
Doc Title
Doc TreeInput
Evt Query
Evt Next
Evt Subscribe
Gener ally
My State
My Callback
mk path
mk temp
mk dtemp
tmp l
tmp dir
Ġ} ;<
Ġuti li
anti c
Ġrefer encing
Ġknow ledge
ocus WithColor
Ġ`- .<
Ġ`- '<
Ġ`- `.
Ġdec lar
Ġdec imal
Ġdec lared
ĠHel lo
REQU EST
REQU IRED
Ġenc rypt
Ġenc ryption
byte code
Ġaccept able
ĠStream Reader
ĠStream Writer
ĠStream Size
ĠStream BytesTransferred
ĠStream Number
ĠStream Consumed
Add itional
Codec Info
Ġappropriate ly
)? $
39 86
>' (
Can vas
GRO UP
IMP ERSON
Lib s
NS Ps
OK S
On ly
SH ARED
SH UTDOWN
SH IFT
db Raw
wrapp ed
into sh
insert Before
Ġcatch ing
Ġsign ed
Ġrec ords
Ġrec lineview
Ġ"\ "
ĠSub ject
ĠSub classes
ĠSub stituteIn
ĠSNI MissingWarning
ĠNo Return
Ġascii Upper
trans action
Ġexit ing
Ġgo ogle
Ġsent inel
Ġprevent s
ĠAndroid ApplicationRunner
ĠAnsi Back
ĠAnsi Fore
pipe TestService
{}. {}
ĠToml Ordered
ĠToml Tz
Ġcanonical ise
gesture s
ĠResponse Error
ĠResponse NotChunk
Security Context
ĠRecycle BoxLayout
#! .*
29 6
35 78
CAL E
CONT ROL
EL FORMAT
Platform Warning
Th umb
Temp oraryFile
TabbedPanel Header
tar file
order ing
develop ment
tim er
Ġrece ive
Ġrece ives
Ġrece iving
Ġnt lm
unch er
ĠSpinner Option
Ġhal t
Ġ24 00
Require ments
Require mentsConflicted
Registry IDPy
ĠMe ir
ĠReg Error
ĠReg OpenKeyEx
ĠReg EnumKey
ĠReg EnumValue
FileName W
End Tag
End Dialog
Lookup Dict
Lookup Privile
Ġassume d
Ġassume s
Ġquery ing
Ġtermin ate
Ġtermin ates
BUILD ER
Valid ationError
>~~~~~~~~~~~~~~~~ <
>~~~~~~~~~~~~~~~~ ~<
>~~~~~~~~~~~~~~~~ ~~~~~<
Ġdownload ing
Ġreplace d
Ġauthenti c
Cre ating
Current ly
OUT PUT
WR ONLY
has is
has hed
off s
ph ases
sdist s
ĠError String
lex ers
Ġaxis id
Ġfrag ments
Ġport ion
Ġcap able
Ġcap ability
Ġsimp lify
Ġtool kit
ĠCandidate Lookup
extract ors
ĠSc ale
Ġhome page
ĠAr gs
ĠAr gumentParser
ĠAr chive
ĠLa rosa
ĠLa uncher
ĠLanguage Filter
ĠLanguage Importer
Ġdeprecation s
Ġstd out
("- ",
("- _.")<
indent ation
Ġdoct ree
Ġdoct rees
ĠWin Color
ĠWin Term
ĠWin Style
ĠURI s
ared Request
Ġkeyword s
ĠUnsupported VersionError
Content s
Connect To
Connect Timeout
requested Privileges
Ġmanage ment
ABLE STYLEP
USER S
('' ,'
37 0
>-------- ---<
Desc ription
Iter ation
Ordered Set
Pip Session
pd atingDefault
public Id
priv s
priv ate
table s
report ers
Ġtask bar
Ġdid n
utc now
utc timetuple
lis hed
Ġnet work
Ġ'" {
Ġ'" \\\
ĠSupport ed
ĠSpec ial
ĠSpec ify
ĠSimple Filter
ĠSimple Extension
ĠIN FO
ĠIN FIN
ĠIs AppThemed
ĠPer form
ĠPer formance
async io
Ġcookie lib
Ġeffect s
Ġexercise s
ĠMesh Data
Ġenti ties
Ġatt ach
Container IO
>.+? )<
ĠeventLog Type
ĠeventLog Record
ĠEnsure Dispatch
Resolver Exception
display Name
Installation Result
ĠParse Results
>`_ <
ĠLoad Dialog
Preserve Elements
Ġseparate ly
199 7
199 8
223 344
300 2
Edit TestApp
HO ME
HO ST
HO OKS
Root Key
SER VICE
Spec ial
Socket Error
Target s
custom filter
drop s
fre etype
ĠQu ake
ĠQu oted
Ġam ssymb
hex version
hex digest
Ġfname in
Ġrecurs ion
Ġow ed
Ġbla zing
Ġbound ing
Ġnum Records
Ġhue Index
Ġhost ing
ĠNAME D
ecnos ci
Ġupper case
tool tips
ĠDec orated
transition s
Ġgu ard
ĠHe imes
Ġconflict s
Ġmemb ers
ĠUN C
ĠUN DEFIN
ĠUN LIKELY
ĠRequire s
ĠRequire mentsConflicted
Ġsen se
Ġsen ding
Ġselect ing
Ġselect ed
ĠRetry Error
Ġschema s
Too Deep
Ġbounce d
Transition Error
ĠResolution Error
Ġretrie ve
Ġretrie ved
Domain BasicAuth
NAMES PACE
Ġidentifi ers
ĠExtension Error
Ġbitmap s
Thread Pool
Ġcrash er
ĠTraceback Type
)+ $",
={ '
Abstract Distribution
Close ableHeader
How ever
Net ValidatePasswordPolicy
Other Topic
Pack er
Table Parser
Table MarkupError
Up dateResource
Url ValidationError
baz file
cl one
gate Pair
rup ole
sli der
tex coords
ĠQ t
ĠQ Name
Ġ~ /
Ġel lipses
Ġtk inter
Ġacti vity
Ġacti vely
Ġacti vate
enum s
Ġpop ular
Ġsampl ers
Ġdiscri minator
Ġinher its
iso format
Ġfork pty
ĠCA MER
ĠCallback Reason
ĠCallback FileWrapper
ĠSvg Widget
ĠPO SITIVE
ĠPty Process
ĠAN SI
ech ti
Ġuv loop
parti cle
Ġear ly
Ġexperi mentation
ĠOver ride
Ġgr adient
Ġgr ubert
Ġlittle CMS
ĠMac Version
ĠMart ÃŃ
Ġmaint ainer
Installed Distribution
ĠWork ing
Ġsec ret
schema s
ĠInternet Canonicalize
ĠInternet GetCookie
Ġsound s
ĠEvent Loop
Ġ86 03
Unpack Exception
Unpack ValueError
Ġcollect or
Ġcollect ing
cased key
>==================== <
>==================== ==<
>==================== ===<
refresh ing
TomlPreserve Inline
usersite packages
('.') [:
STRING BUILDER
ĠAccordion App
ĠAccordion Item
Ġentire ly
imated Button
Ġinstanti ates
"^ \
"^ (?:
'^ #!.*
=", ",
AF TER
AG PL
BY TE
Loc al
Loc ationValueError
PL ATFORM
TC P
Try ing
VAL ID
dif fer
dif ferent
dns name
discri minator
lar ge
pe ace
Ġed ges
Ġes sen
retri eved
Ġpriv s
Ġcare ful
Ġsuppress ing
Ġbrow sers
Ġmar quees
Ġ"{} "'.
ĠCamera App
ĠSource File
ĠInt ent
ĠInt el
ĠPost Script
ĠAudio Button
ĠAudio Background
ĠAlias Property
Ġ111 1
ĠBuffer Full
Ġdeb t
Ġdeb undled
Ġrst style
Ġlon gest
ĠMain Window
Ġbyte array
Ġsession s
Ġsearc hed
ĠGateway Errors
ĠInitial ise
SEC BUFF
STD IN
owner Document
ĠEmpty Tag
ĠEmpty Clipboard
SetConsole TextAttribute
Ġrout ine
ĠStart Tag
Compat ibility
Ġquad rilater
iltin Filter
ĠPyOpenSSL Context
ĠContainer IO
ĠCompare s
ĠDemonstr ation
ĠTexture d
ĠLogger Wrapper
RunAny Command
medi um
ĠMultitexture Layout
ĠMultitexture Widget
ĠSettingsWithS idebar
Ġ~~~~~~~~~~~~~~~~ ~~~<
"/ ><
({} ,
({} )<
); //
@@ @
FONT S
He aders
Int ent
Legacy Specifier
NF D
OPTION S
TempDirectory TypeRegistry
Virtual KeyCode
Work ingSet
\' >'
_* ``
bla is
bla ck
dk uhlman
ious ly
jar aco
ograph s
pc build
pm ImageFile
pur ge
pun ycode
pun ishment
tw ine
Ġq tables
incre ment
incre asing
Ġsile nced
Ġsile ntly
Ġsco pe
Ġremain ing
Ġrestri ctions
Ġdbi Raw
ĠTwisted ServerApp
Ġmon th
Ġmon otonic
ĠSE CURITY
ĠScreen Manager
Ġkern el
Ġkern els
ĠPAT H
ĠPAT CH
ĠNet ValidatePasswordPolicy
ĠNorm ally
ĠNorm alize
ĠLO CALE
ĠLe le
ĠLegacy Specifier
Ġpipe TestService
ĠBla is
ĠBla ha
ĠBody NotHttp
Ġdeg ree
Ġdeg rees
ĠOutOf Data
ĠOutOf Range
Ġstar ts
(", ").
("{ ([^}]*)
ĠMi rror
ĠMi rosla
ĠMor sel
Ġyiel ded
Ġyiel ding
Inv oke
REC ORDType
ĠUS ING
Exp ected
Exp lorer
ĠGraph icException
ĠInput State
ĠInsecure RequestWarning
ĠInsecure PlatformWarning
SEM ICOLON
Ġadapt ed
ĠpyCMS dll
ĠEdit or
ĠUndefined Comparison
ĠUndefined EnvironmentName
Undefined Comparison
Undefined EnvironmentName
ĠInstallation Candidate
ĠEnum s
HTTPS Handler
interpre t
interpre ted
Ġcorout ine
Ġcorout ines
ĠContent DecodingError
ĠFileExists Error
suffix es
ĠSTD ERR
COMM AND
ĠServer Options
Ġseparator s
Ġagain st
GestureDatabase Item
ĠEchoServer Factory
ĠEchoClient Factory
BLOCK SIZE
ĠSupports Int
Multitexture Layout
Ġincrement alencoder
TomlPreserveComment Encoder
TomlPreserveComment Decoder
EvtRender Event
MIPMAP COUN
Ġinvest igation
SingleByteChar setPro
SingleByteChar SetPro
"(\ .
'+ '
*= \
>) ("_
?([^ #]*)
Async IOLoop
Bo ard
Ble hItem
BIN ARY
Coding Nomads
Go F
Icon ImagePlugin
MAT RIX
Mutable TextInput
NE UTRAL
Numeral Map
Ob ecnosci
PALETTE INDEXED
Section SubTitle
Used Container
Vi olation
[] ")<
ade bender
aut oreset
band Filter
flow Error
gm x
hApp Log
jh sh
so on
yan ked
Ġ; -)<
Ġech o
recurs ionerror
Ġtw ine
Ġams math
enable d
dec lare
Ġfoot note
Ġcli pping
Ġcword s
Ġcirc uit
Ġclean up
analy zer
Ġslow down
Ġdri ver
Ġdriv ers
ently UsedContainer
limit ed
Ġnatur ally
unich ar
Ġtouc htracer
ĠTer minate
ĠTouch Effect
Ġ'* '
identi ty
ĠCol on
ĠSY MBOL
ĠSIG N
ĠSlide Transition
Ġhat id
Ġ28 2
Ġcost ly
chann els
ĠDestination File
Repeat Count
trust Info
ĠFS CTL
ĠFont File
ĠFeed Parser
Ġexe Name
ĠBor land
ĠBle ach
ĠBit Stream
ĠBinary IO
ĠOper ator
Ġ*_ :
ĠMer ge
ĠMock Request
Ġconcept s
Ġconsist s
ĠGr uber
ĠRst LanguageImporter
ĠRot ate
Ġscen es
ffec tive
Ġappend Child
notmp key
Ġ('** .
Ġ84 12
Unrecognized Format
PIX ELFORMAT
Device Type
Ġmapped value
Ġ79 75
Ġcurs ors
ĠState Machine
ĠEnd Tag
KEL VIN
PYPI RC
ĠTimeZone Info
ĠContribut ors
Point Elements
LAST NAME
Ġsug ar
ĠCompound Selection
PolicyChange Notification
Ġoccurren ce
+)_ (\
ĠNamed TemporaryFile
RegSet ValueEx
ĠChri stian
ĠChunk edEncoding
ĠHelp ers
ĠSystemMessage Propag
LookupAccount Name
ĠScroll View
ĠMarti jn
Ġrespons ible
Ġguar ded
ĠMaximum Size
Ġpopul ating
Individual Specifier
ĠJohn son
Alloc ateReadBuffer
Ġmarsh al
Normal ise
Ġintroduce d
ĠCharacter Category
Cancel led
Performance Attributes
VIRTUAL ENV
ĠPropagate Targets
Ġexhaust ed
PySecBuffer Type
TokenImpersonation Level
magneticFieldSensor Enable
"[- _.]+
$""" ,<
'} .<
)- >
))? -(?
.] *([
=~ /.
>"""" ""
AIN ER
Ans iCodes
ACT ION
Bl urEffect
BRE AK
Cor rection
CRI ME
CAC ERT
CANCE L
Dec orations
Dest roy
DAT ETIME
Form erly
FRO ZEN
FRA GMENT
HAND LE
IMA GE
Leg al
LAP PED
LUC R
Ow ner
Ret rie
Sit ting
Sem antic
SVE M
Space Characters
SOF TWA
Svg Widget
SPACE S
Total FileSize
Tiff ImageFile
VOL UME
Way ToWaitFor
WIST D
WHAT WG
]== "
bge ld
cas adebender
did Subst
dive intopython
dyn dns
dial ogs
fur ius
kin ect
kent ype
kang sj
mjp ieters
nod ot
natur al
olog y
pan jy
prere lease
pseud oxml
sms net
sHel pFormatter
tod ay
treew alkers
wildcard s
zop echin
zem iak
zoz nam
Ġ]+ ")("
ĠâĢ Ķ
inte gers
incom ing
instru ctions
Ġtaj ne
Ġamb iguous
decre asing
tify AuditEventsInformation
Ġfund amental
Ġfetc hed
Ġflex ible
Ġprom ote
Ġpers ist
Ġpow ers
Ġplist lib
Ġphot ographs
Ġcir cular
selid or
ingSk ips
getiptc info
Ġsve m
Ġsaf ely
Ġodb c
sslo bj
Ġbab y
Ġbast ardised
Ġdig it
ĠdNS Name
Ġinformat ive
Ġinner HTML
Ġinfinit e
Ġincremental decoder
ladef ile
universal detector
Ġ('' ,
thresh old
isol ate
isap idll
ĠCalled ProcessError
ĠCandidates FromPage
ĠCyg win
ĠClick ing
ravols kas
Ġoffer ed
ĠSave Dialog
ĠSty le
ĠSTO P
ĠSEM ICOLON
ĠSuz i
getfilesystem encoding
Ġhig hest
Ġhwn ds
ĠvTex Coords
ĠIron Python
ĠIRTD Server
ĠIppol ito
ĠPrep aredRequest
ĠPng ImagePlugin
ĠPhot oCD
ĠNico la
ĠAsk o
ĠAlast air
ĠLim it
ĠLAB ELS
echow icz
ĠDIG IT
ĠDET ECTING
ĠDependency Warnings
ĠDob ravolskas
Reparse Exception
Ġasynchronous ly
Ġeager ly
teap ot
ĠFix es
ĠFree ze
ĠFeature s
ĠFrame buffer
ĠFNF Error
Ġexclu ded
ĠBind Texture
ĠBlen der
ĠBRI GHT
ĠBalag uer
Ġstrateg y
Ġdeta iled
outgo ing
ĠObj File
ĠOffi ce
("(" ).
("[" ).
construct ors
consume s
ĠMag ic
ĠMare k
ĠMissing Schema
ĠMET ADATA
ĠMachine State
ansitow in
ĠHook Missing
ĠHIG H
ĠHof meyr
ĠHttp ExtensionProc
Ġconsu mption
Integration PointElements
REAL M
Ġenorm ous
ĠWare house
ĠWarc raft
ĠWojci echowicz
Export Popup
Experi mental
Ġalgorith ms
Ġallot ted
Ġalongs ide
Ġunfin ished
Ġunsu itable
Ġ{... }}<
ĠGaif ax
ĠRename d
ĠInstance s
ĠInclu des
component s
ibliograph ic
Ġattri b
proble matic
Ġheart beat
METR ICS
Ġarbit rary
fficient ly
STAT US
redenti als
Ġextreme ly
DESCRIPT OR
ĠtestWaitable Fire
Ġsubsequ ent
0225 01
ĠEqual ity
ĠEffect Widget
Ġbacksla sh
ĠNotInteger Error
ĠDistutilsModule Error
ĠDistutilsAr gError
Unfilter edWriter
Ġaddres ses
Parsing Error
Defin ition
GetWindow Rect
GetStd Handle
GetSave FileNameW
Ġ767 8
Ġaccid ent
ĠLabelWith Markup
ĠLabelMipmap Test
ĠJann ie
TestReclineView Base
eventLog Type
ĠInvalidProxy URL
Ġdispla ys
LScheme Unknown
ĠCommandAr gs
LEVE L
Ġoverwrit es
ĠExtra Data
ĠEncaps ulates
ComputeString Length
ARRA Y
Ġcolormapt ype
ĠProbing State
ACCELER ATORS
ĠMyLib rus
NOCTT Y
NOFOL LOW
startActivity ForResult
].*) ?$')<
PROPER TIES
Ġperiod ically
ĠBuildDefault PythonKey
Ġentrypo int
ĠtagToken Types
PolicyNo tifyAuditEventsInformation
TomlPath libEncoder
TomlAr raySeparator
TomlNumpy Encoder
ĠParticular ly
DoSome thing
TokenSession Id
ĠapplyHandl ingSkips
ĠSequenceLike lihood
PRERELE ASE
xmlrp clib
vcvars all
ĠSUPPRE SS
readyInstalled Candidate
URLENCO DED
ĠLIGHTBL UE
ĠLIGHTMAG ENTA
uxili ary
LsaStore PrivateData
Ġ`-`. `-'
Ġdeclar ations
ĠStreamConsumed Error
IMPERSON ATION
ĠResponseNotChunk ed
LookupPrivile geValue
ABLESTYLEP REFIX
pdatingDefault sHelpFormatter
ĠINFIN ITE
ĠQuoted String
ĠUNDEFIN ED
ĠCAMER A
ĠMartÃŃ n
ĠInternetCanonicalize Url
TomlPreserveInline DictEncoder
SECBUFF ER
Ġquadrilater al
ĠBodyNotHttp libCompatible
ĠOutOfRange Error
("{([^}]*) }(.*)")<
ĠMirosla v
MIPMAPCOUN T
SingleByteCharsetPro ber
SingleByteCharSetPro bers
ĠCompoundSelection Behavior
ĠChunkedEncoding Error
ĠSystemMessagePropag ation
"[-_.]+ ")<
SOFTWA RE
WayToWaitFor SocketError
zopechin a
isapidll handle
TomlArraySeparator Encoder
