{"<s>":0,"<pad>":1,"</s>":2,"<unk>":3,"<mask>":4,"!":5,"\"":6,"#":7,"$":8,"%":9,"&":10,"'":11,"(":12,")":13,"*":14,"+":15,",":16,"-":17,".":18,"/":19,"0":20,"1":21,"2":22,"3":23,"4":24,"5":25,"6":26,"7":27,"8":28,"9":29,":":30,";":31,"<":32,"=":33,">":34,"?":35,"@":36,"A":37,"B":38,"C":39,"D":40,"E":41,"F":42,"G":43,"H":44,"I":45,"J":46,"K":47,"L":48,"M":49,"N":50,"O":51,"P":52,"Q":53,"R":54,"S":55,"T":56,"U":57,"V":58,"W":59,"X":60,"Y":61,"Z":62,"[":63,"\\":64,"]":65,"^":66,"_":67,"`":68,"a":69,"b":70,"c":71,"d":72,"e":73,"f":74,"g":75,"h":76,"i":77,"j":78,"k":79,"l":80,"m":81,"n":82,"o":83,"p":84,"q":85,"r":86,"s":87,"t":88,"u":89,"v":90,"w":91,"x":92,"y":93,"z":94,"{":95,"|":96,"}":97,"~":98,"¡":99,"¢":100,"£":101,"¤":102,"¥":103,"¦":104,"§":105,"¨":106,"©":107,"ª":108,"«":109,"¬":110,"®":111,"¯":112,"°":113,"±":114,"²":115,"³":116,"´":117,"µ":118,"¶":119,"·":120,"¸":121,"¹":122,"º":123,"»":124,"¼":125,"½":126,"¾":127,"¿":128,"À":129,"Á":130,"Â":131,"Ã":132,"Ä":133,"Å":134,"Æ":135,"Ç":136,"È":137,"É":138,"Ê":139,"Ë":140,"Ì":141,"Í":142,"Î":143,"Ï":144,"Ð":145,"Ñ":146,"Ò":147,"Ó":148,"Ô":149,"Õ":150,"Ö":151,"×":152,"Ø":153,"Ù":154,"Ú":155,"Û":156,"Ü":157,"Ý":158,"Þ":159,"ß":160,"à":161,"á":162,"â":163,"ã":164,"ä":165,"å":166,"æ":167,"ç":168,"è":169,"é":170,"ê":171,"ë":172,"ì":173,"í":174,"î":175,"ï":176,"ð":177,"ñ":178,"ò":179,"ó":180,"ô":181,"õ":182,"ö":183,"÷":184,"ø":185,"ù":186,"ú":187,"û":188,"ü":189,"ý":190,"þ":191,"ÿ":192,"Ā":193,"ā":194,"Ă":195,"ă":196,"Ą":197,"ą":198,"Ć":199,"ć":200,"Ĉ":201,"ĉ":202,"Ċ":203,"ċ":204,"Č":205,"č":206,"Ď":207,"ď":208,"Đ":209,"đ":210,"Ē":211,"ē":212,"Ĕ":213,"ĕ":214,"Ė":215,"ė":216,"Ę":217,"ę":218,"Ě":219,"ě":220,"Ĝ":221,"ĝ":222,"Ğ":223,"ğ":224,"Ġ":225,"ġ":226,"Ģ":227,"ģ":228,"Ĥ":229,"ĥ":230,"Ħ":231,"ħ":232,"Ĩ":233,"ĩ":234,"Ī":235,"ī":236,"Ĭ":237,"ĭ":238,"Į":239,"į":240,"İ":241,"ı":242,"Ĳ":243,"ĳ":244,"Ĵ":245,"ĵ":246,"Ķ":247,"ķ":248,"ĸ":249,"Ĺ":250,"ĺ":251,"Ļ":252,"ļ":253,"Ľ":254,"ľ":255,"Ŀ":256,"ŀ":257,"Ł":258,"ł":259,"Ń":260,"ĠĠ":261,"ĠĠĠĠ":262,"ĠĠĠ":263,"or":264,"in":265,"er":266,"><":267,"on":268,"re":269,"se":270,"Ġt":271,"ĠĠĠĠĠĠĠ":272,"mp":273,"Ġi":274,"at":275,"st":276,"le":277,"ort":278,"Ġa":279,"ro":280,"mport":281,"en":282,":<":283,"he":284,"de":285,"Ġ=":286,"\"\"":287,"ti":288,")<":289,"Ġf":290,"al":291,"Ġp":292,"Ġc":293,"sel":294,"self":295,"an":296,"rom":297,"ing":298,"ar":299,"me":300,"ge":301,"Ġimport":302,"Ġs":303,"Ġthe":304,"Ġre":305,"from":306,"Ġo":307,"ur":308,"Ġw":309,"):<":310,"__":311,"it":312,".<":313,"ss":314,"Ġb":315,"Ġd":316,">#":317,"--":318,"ce":319,"ut":320,"Ġin":321,"ct":322,"ĠĠĠĠĠĠĠĠĠĠĠ":323,"ex":324,"\"\"\"":325,"ion":326,"la":327,"Ġself":328,"lo":329,"def":330,"import":331,"ent":332,"li":333,"Ġn":334,"tion":335,"ma":336,"ed":337,"ls":338,"ame":339,"un":340,"Ġ(":341,"ile":342,"Ġto":343,"ad":344,"co":345,"th":346,"ers":347,"ri":348,"ac":349,"ĠT":350,"es":351,"Ġ'":352,"\"\"\"<":353,"Ġ#":354,"il":355,"Ġdef":356,"ist":357,"Ġm":358,"is":359,"uti":360,"yp":361,"pp":362,"Ġan":363,"ot":364,"ror":365,"Ġ\"":366,",<":367,"urn":368,"ue":369,"turn":370,"ter":371,"id":372,"Ġfor":373,"==":374,"ĠC":375,"iv":376,"ext":377,"ment":378,"ra":379,"utils":380,"Ġreturn":381,"od":382,"lass":383,"Ġis":384,"one":385,"Ġof":386,"._":387,"age":388,"----":389,"ĠS":390,"str":391,"for":392,"get":393,"Ġh":394,"Ġv":395,"name":396,"and":397,"ĠI":398,"ol":399,"ate":400,"Ġth":401,"Ġk":402,"rror":403,"Error":404,"el":405,"Ġand":406,"Ġif":407,"ation":408,"ath":409,"op":410,"class":411,"up":412,"ĠP":413,"ĠN":414,"oc":415,"ack":416,"ĠA":417,"ip":418,"''":419,"ic":420,"Ġ-":421,"ul":422,"et":423,"ect":424,"ir":425,"ersion":426,"ĠĠĠĠĠĠĠĠ":427,"all":428,"as":429,"ase":430,"ĠL":431,"32":432,"ec":433,"Ġu":434,"ype":435,"ont":436,"Ġ1":437,"ivy":438,"ht":439,"mage":440,"'<":441,"Ġbe":442,"form":443,"iz":444,"ab":445,"Ġfile":446,"ire":447,"Ġ2":448,"end":449,"Ġco":450,"Ġ__":451,"ption":452,"to":453,"ild":454,"Ġ\"\"\"<":455,"ch":456,"]<":457,"ys":458,"Ġ.":459,"()<":460,"fi":461,"ĠD":462,"Ġkivy":463,"Ġlo":464,"ith":465,"Re":466,"ow":467,"yth":468,"00":469,"set":470,"Ġnot":471,"path":472,"ure":473,"ython":474,"~~":475,"Ġas":476,"ize":477,"par":478,"bu":479,"ser":480,"Ġe":481,"te":482,"Ġpip":483,"tr":484,"ĠF":485,"ata":486,"Ġfrom":487,"Ġex":488,"ĠB":489,"',":490,"lib":491,"Ġ`":492,"int":493,"Ġstr":494,"Ġos":495,"Ġ_":496,"ule":497,"sp":498,"ĠNone":499,"qu":500,"ject":501,"Ġwin":502,"====":503,"__(":504,"odule":505,"Ġde":506,"ang":507,"mple":508,"pt":509,"Ġon":510,"gg":511,"ert":512,"Ġtype":513,"file":514,"out":515,"Ġ\"\"\"":516,"Ġ0":517,"--------":518,"his":519,"ve":520,"ĠO":521,"Ġor":522,"Ġwith":523,"gs":524,"our":525,"ub":526,"Ġst":527,"que":528,"Ġsys":529,"mm":530,"Ġ*":531,"('":532,"ght":533,"istutils":534,"alue":535,"Ġg":536,"Ġr":537,"lic":538,"ke":539,"py":540,"quest":541,"ction":542,"ew":543,"tern":544,"version":545,"bject":546,"url":547,"code":548,"Ġl":549,"ode":550,"ĠĠĠĠĠĠĠĠĠĠĠĠĠĠĠ":551,"))<":552,"Ġtr":553,"Ġwh":554,"(\"":555,"Ġ<":556,"ocutils":557,"con":558,"Ġ[":559,"ĠM":560,"ory":561,"rop":562,"Ġname":563,"ly":564,"ans":565,"Ġmodule":566,">#<":567,"ise":568,"um":569,"ix":570,"ind":571,"Ġ+":572,"Ġma":573,"und":574,"ther":575,"Ġthat":576,">\"\"\"<":577,"ource":578,"init":579,"Ġ->":580,"os":581,"able":582,"Ġare":583,"Ġby":584,"Ġpar":585,"vi":586,"ck":587,"dir":588,"if":589,"pre":590,"ver":591,"Ġ:":592,"Ġdo":593,"ult":594,"app":595,"uild":596,"\",":597,"em":598,"fo":599,"Ġuse":600,"right":601,"ou":602,"ĠH":603,"Ġcont":604,"Ġcon":605,"mmand":606,"nt":607,"error":608,"ternal":609,"Ġy":610,"ine":611,"Ġcan":612,"stall":613,"In":614,"ml":615,"angu":616,"()":617,"quire":618,"anguage":619,"Ġpro":620,"Ġsh":621,"Ġget":622,"ag":623,"')<":624,"Ġme":625,"tp":626,"ackage":627,"RE":628,"ings":629,"ity":630,"opy":631,"est":632,"Ġ$":633,"Ġen":634,"Ġthis":635,"ĠThis":636,"\"<":637,"args":638,"ER":639,"'''<":640,"ĠThe":641,"ict":642,"cept":643,"internal":644,">>":645,"ĠW":646,"ree":647,"Ġit":648,"am":649,"ĠU":650,"EN":651,"rit":652,"ary":653,"Ġhas":654,"Ex":655,"ĠRe":656,"put":657,"Ġse":658,"low":659,"ader":660,"ĠPython":661,"irect":662,"opyright":663,"ass":664,"mat":665,"Ġal":666,"Ġdocutils":667,"list":668,"lab":669,"ap":670,"Ġun":671,"ore":672,"ere":673,"Ġtext":674,"ĠCopyright":675,"//":676,"ok":677,"Ġra":678,"Ġset":679,"ool":680,"ated":681,"``":682,"size":683,"erty":684,"roperty":685,"ception":686,"ime":687,"endor":688,"None":689,"Ġdistutils":690,"~~~~":691,"fer":692,"upp":693,"ache":694,"ments":695,"Ġimage":696,"\")<":697,"arn":698,"IN":699,"Ġraise":700,".\"\"\"<":701,"text":702,"win":703,"sc":704,"Ġ3":705,"istri":706,"info":707,"us":708,"ust":709,"Ġ{":710,"val":711,"ĠG":712,"ON":713,"ay":714,"ĠR":715,"bution":716,"cess":717,"istribution":718,"vendor":719,"ĠV":720,"der":721,"://":722,"uth":723,"ain":724,"data":725,"Ġvalue":726,"idget":727,"read":728,"ols":729,"Ġ==":730,"but":731,"rint":732,"main":733,"util":734,"ĠIn":735,"format":736,"comp":737,"source":738,"Ġus":739,"fig":740,".__":741,"Ġ``":742,"len":743,"unction":744,"ib":745,"Ġother":746,"stan":747,"Ġtrans":748,"ault":749,"are":750,"ĠĠĠĠĠĠĠĠĠĠĠĠĠĠĠĠ":751,"build":752,"\",<":753,"ig":754,"im":755,"Ġat":756,"upport":757,"pro":758,"rue":759,"time":760,"Ġlogg":761,"File":762,"Ġpath":763,"Ġch":764,"========":765,"root":766,"*-":767,"tri":768,"lease":769,"Ġ-*-":770,"Ġhe":771,"Ġpass":772,"Ġwe":773,"load":774,"Image":775,"Property":776,"ill":777,"Id":778,"alse":779,"ts":780,"uld":781,"01":782,"ee":783,"Ġtyp":784,"pec":785,"ptional":786,"cur":787,"Ġso":788,"Ġversion":789,"urllib":790,"),":791,"cont":792,"Ġ4":793,"En":794,"sh":795,"uix":796,"ssage":797,"bo":798,"ey":799,"jo":800,"vent":801,"Ġ%":802,"ME":803,"Ġcol":804,"Ġstring":805,"irectory":806,"Ġlogging":807,"Ġlist":808,"mo":809,"rap":810,"doc":811,"ould":812,"heck":813,"utf":814,"(<":815,"App":816,"ard":817,"Ġfiles":818,"Ġcode":819,"SE":820,"pack":821,"Ġad":822,"thod":823,"else":824,"----------------":825,"Ġbuild":826,"ace":827,"lat":828,"ton":829,"ded":830,"Ġread":831,"http":832,"tools":833,"Ġpre":834,"Ġsc":835,"uple":836,"IL":837,"uthor":838,"ument":839,"ord":840,"Ġdata":841,"Ġcomp":842,"ample":843,"andl":844,"fix":845,"Ġar":846,"uct":847,"lace":848,"PE":849,"reate":850,"ator":851,"Ġab":852,"Ġfunction":853,"ĠImage":854,"try":855,"ding":856,"ifi":857,"Ġprint":858,"Ġrun":859,"valid":860,"ach":861,"ĠOptional":862,"vir":863,"yst":864,"}<":865,"Ġlanguage":866,"..":867,"Ġobject":868,"Ġwill":869,"TT":870,"Ġtyping":871,"ystem":872,"CK":873,"wargs":874,"ink":875,"gger":876,"SI":877,"mplement":878,"quests":879,"Ġsize":880,"Ġop":881,"umb":882,"join":883,"\":":884,"),<":885,"This":886,"Ġpackage":887,"OR":888,"object":889,"ff":890,"ger":891,"led":892,"ĠApp":893,"Lay":894,"ry":895,"sol":896,"Ġapp":897,"parse":898,"Co":899,"act":900,"ave":901,"Ġclass":902,"indow":903,"Layout":904,"St":905,"Ġyou":906,"99":907,"python":908,"Ġout":909,"lay":910,"Ġht":911,"viron":912,"ens":913,"ĠTrue":914,"ally":915,"Ġtry":916,"ues":917,"Ġtransl":918,"HE":919,"SS":920,"ublic":921,"stance":922,"ai":923,"ĠList":924,"Ġbeen":925,"Ġshould":926,"back":927,"lit":928,"org":929,"Ġformat":930,"rite":931,"language":932,"ates":933,"Ġbase":934,"Ġint":935,"Ġno":936,"ich":937,"():<":938,">__":939,"lu":940,"ses":941,"rol":942,"Ġsupport":943,"raph":944,"TTP":945,";<":946,"Lo":947,"ound":948,"Ġone":949,"Ġlog":950,"key":951,"Ġused":952,"Exception":953,"':":954,"'s":955,"html":956,"Ġ200":957,"kwargs":958,"not":959,"Ġ)<":960,"lock":961,"com":962,"Ġdefault":963,"ĠSee":964,"ĠImport":965,"option":966,"Ġdomain":967,"ood":968,"Ġtime":969,"Ġ()":970,"Ġkey":971,"ĠFalse":972,"om":973,"type":974,"Ġnew":975,"tribut":976,"EX":977,"ST":978,"install":979,"ĠAn":980,"Ġsetup":981,"net":982,"po":983,"ense":984,"Ġpublic":985,"except":986,"ript":987,"param":988,"curity":989,">'''<":990,"uch":991,"Ġpy":992,"uture":993,"lable":994,").":995,"icode":996,"Ġerror":997,"spec":998,"',<":999,"bin":1000,"ole":1001,"pos":1002,"Ġx":1003,"ange":1004,"Ġcontain":1005,"api":1006,"latform":1007,"wo":1008,"Ġelse":1009,"red":1010,"Ġplace":1011,"formation":1012,"ĠImportError":1013,"The":1014,"package":1015,"ive":1016,"eld":1017,"Ġhttp":1018,"languages":1019,"Version":1020,"base":1021,"Ġ**":1022,"ms":1023,"Ġurllib":1024,"security":1025,"lement":1026,"ence":1027,"loat":1028,"quirement":1029,"pecifi":1030,"AT":1031,"emp":1032,"alize":1033,"coding":1034,"andler":1035,"Ġext":1036,"Ġall":1037,"DE":1038,"ale":1039,"Ġroot":1040,"ute":1041,"command":1042,"Ġmust":1043,"andid":1044,"ĠLab":1045,"AD":1046,"tes":1047,"Ġtest":1048,"Ġsub":1049,"oding":1050,"Ġ199":1051,"own":1052,"Ġwhen":1053,"oodger":1054,"Ġplaced":1055,"ield":1056,"Ġ5":1057,"onse":1058,"art":1059,"Ġbool":1060,"Ġval":1061,"ĠAuthor":1062,"temp":1063,"02":1064,"image":1065,"ĠE":1066,"Ġutf":1067,"atch":1068,"Ġwhich":1069,"Ġ$<":1070,"arning":1071,"av":1072,"kg":1073,"Ġback":1074,"Ġdoc":1075,"ĠUn":1076,"iti":1077,"Ġcoding":1078,"tring":1079,"uilder":1080,"IT":1081,"Ġsource":1082,"ep":1083,"dex":1084,"Ġres":1085,"Ġdirectory":1086,"Ġuser":1087,"='":1088,"rary":1089,"Ġlen":1090,"Ġexcept":1091,"Ġonly":1092,"label":1093,"'t":1094,"future":1095,"vas":1096,"Ġne":1097,"Ġ('":1098,"Ġeach":1099,"=\"":1100,">_":1101,"dist":1102,"alled":1103,"utton":1104,"Ġnumb":1105,"add":1106,"Cont":1107,"YPE":1108,"Ġ(<":1109,"Ġ201":1110,"Ġusing":1111,"bj":1112,"distribution":1113,"ener":1114,"Ġcheck":1115,"adata":1116,"ection":1117,"Ġparse":1118,"Set":1119,"gist":1120,"ies":1121,"ken":1122,"sers":1123,"Ġ@":1124,"erti":1125,"Ġfl":1126,"IC":1127,"Name":1128,"graph":1129,"Ġ8":1130,"Ġle":1131,"Ġass":1132,"config":1133,"Con":1134,"cal":1135,"fp":1136,"ft":1137,"orm":1138,"aders":1139,"col":1140,"fore":1141,"Ġ-*-<":1142,":`":1143,"ork":1144,"Ġid":1145,"enter":1146,"angle":1147,"Ġsome":1148,"options":1149,"Ġdocument":1150,"16":1151,">-":1152,"date":1153,"mode":1154,"Ġiter":1155,"attr":1156,"olor":1157,"open":1158,"ctions":1159,"Ġmethod":1160,"ING":1161,"module":1162,"resource":1163,"Ġinstall":1164,"Ġfilename":1165,"tem":1166,"AL":1167,"ition":1168,"ook":1169,"port":1170,"Ġ..":1171,"test":1172,"ansform":1173,"aging":1174,"~~~~~~~~":1175,"require":1176,"arg":1177,"ypes":1178,"rag":1179,"ĠNot":1180,"ĠDistutils":1181,"process":1182,"Text":1183,"cs":1184,"Ġup":1185,"las":1186,"ulti":1187,"Ġcommand":1188,"Ġunicode":1189,"ension":1190,"SSL":1191,"Ġresult":1192,"Un":1193,"run":1194,"Ġj":1195,"req":1196,"ream":1197,"lob":1198,"ract":1199,"ĠIter":1200,"parsers":1201,"sponse":1202,"arnings":1203,"CHE":1204,"ast":1205,"rst":1206,"rent":1207,"ĠCo":1208,"string":1209,"ock":1210,"vice":1211,"ager":1212,"Ġadd":1213,"ucture":1214,"solute":1215,"['":1216,"],":1217,"can":1218,"ffer":1219,"enc":1220,"log":1221,"ĠHTTP":1222,"Ġcolle":1223,"(__":1224,"AN":1225,"xy":1226,"ilde":1227,"space":1228,"Ġmessage":1229,"Ġabsolute":1230,"#<":1231,"])<":1232,"yn":1233,"Ġ>":1234,"instance":1235,"heme":1236,"Ġpos":1237,"Ġexample":1238,"lication":1239,"Ġ[]<":1240,"SION":1241,"pecifier":1242,"64":1243,"Par":1244,"RO":1245,"ner":1246,"son":1247,"ual":1248,"ress":1249,"ENT":1250,"docs":1251,"lasses":1252,"docutils":1253,"nection":1254,"widget":1255,"Ġ|":1256,"Ġ>>":1257,"__)<":1258,"iven":1259,"vironment":1260,"Ġsetuptools":1261,"PI":1262,"by":1263,"io":1264,"iss":1265,"sed":1266,"coder":1267,"alueError":1268,"move":1269,"resources":1270,"ax":1271,"kivy":1272,"line":1273,"Ġtree":1274,"Ġinformation":1275,"ilter":1276,"uper":1277,"prefix":1278,"Ġsee":1279,"ak":1280,"cation":1281,"ty":1282,"value":1283,"xt":1284,"Ġ/":1285,"Ġz":1286,"Ġro":1287,"ong":1288,"Ġpo":1289,"Ġparser":1290,"packaging":1291,"Dict":1292,"ll":1293,"ĠĠĠĠĠĠ":1294,"Ġtemp":1295,"Ġfol":1296,"item":1297,"Ġnode":1298,"mag":1299,"ĠTuple":1300,"Ġmilde":1301,"Ġisinstance":1302,"under":1303,"Ġconfig":1304,"ceptions":1305,"ails":1306,"andidate":1307,"12":1308,"Warning":1309,"cle":1310,"cache":1311,"how":1312,"mb":1313,"md":1314,"other":1315,"pen":1316,"ryp":1317,"anager":1318,"Ġser":1319,"Ġmode":1320,"ĠSet":1321,"Ġneed":1322,"Ġcollections":1323,"De":1324,"Get":1325,"efore":1326,"gu":1327,"Ġrequest":1328,"Ġprovi":1329,"scri":1330,"Ġusage":1331,"18":1332,"ML":1333,"UT":1334,"cli":1335,"clu":1336,"gin":1337,"ta":1338,"Ġ._":1339,"Ġcache":1340,"Ġsuper":1341,"Ġinst":1342,"ĠLib":1343,"parser":1344,"errors":1345,"leases":1346,"Ġassert":1347,"Ġ>>>":1348,"')":1349,"MA":1350,"cti":1351,"hint":1352,"tadata":1353,"des":1354,"Ġrequire":1355,"Ġoption":1356,"Ġwel":1357,"like":1358,"Ġ'''":1359,"Ġhave":1360,"Ġmapp":1361,"texture":1362,"ha":1363,"Ġ7":1364,"ĠK":1365,"Ġwarnings":1366,"Ġbu":1367,"map":1368,"ĠIf":1369,"Ġnumber":1370,"Type":1371,"\\\\":1372,"rere":1373,"tings":1374,"txt":1375,"ud":1376,"Ġcur":1377,"Ġbut":1378,"ision":1379,"Ġdep":1380,"Ġcontext":1381,"ImageFile":1382,"CKING":1383,"layout":1384,"CHECKING":1385,"200":1386,"FA":1387,"egg":1388,"ight":1389,"pyp":1390,"onic":1391,"reated":1392,"aliz":1393,"Ġinter":1394,"ĠTYPE":1395,"11":1396,">.":1397,"UR":1398,"ker":1399,"ines":1400,"sent":1401,"heel":1402,"message":1403,"ĠDict":1404,"ĠBuilder":1405,"maging":1406,"!=":1407,"17":1408,"CO":1409,"LT":1410,"core":1411,"vel":1412,"Ġ9":1413,"Ġ\\":1414,"Ġpython":1415,"Ġinput":1416,"ĠColor":1417,"andle":1418,"Request":1419,"ĠObject":1420,"license":1421,"Ġfollow":1422,"ĠLibrary":1423,"rereleases":1424,"09":1425,">)<":1426,"EP":1427,"tte":1428,"ĠĠĠĠĠ":1429,"Ġac":1430,"Ġoff":1431,"ĠString":1432,"Ġglob":1433,"ible":1434,"Ġchar":1435,"Ġopen":1436,"Logger":1437,"alette":1438,"ync":1439,"::<":1440,"SD":1441,"TML":1442,"ox":1443,"tle":1444,"word":1445,"ret":1446,"Ġimplement":1447,"als":1448,"ssl":1449,"Ġdate":1450,"isc":1451,"riter":1452,"ign":1453,"--------------------------------":1454,"Ġscript":1455,"Ġoper":1456,"packages":1457,"Ch":1458,"vert":1459,"ĠRE":1460,"requests":1461,"unk":1462,"come":1463,"ĠNew":1464,"ĠDe":1465,"ĠFor":1466,"Ġallow":1467,"tribute":1468,"ĠLabel":1469,"\".":1470,").<":1471,"ULT":1472,"ns":1473,"ost":1474,"per":1475,"rc":1476,"Ġunder":1477,"Ġ!=":1478,"request":1479,"arget":1480,"exceptions":1481,"raw":1482,"Ġevent":1483,"split":1484,"Ġdoing":1485,"Ġdoes":1486,"10":1487,"=(":1488,"eg":1489,"obj":1490,"sf":1491,"sole":1492,"Ġio":1493,"Ġplease":1494,"Ġcreate":1495,"Ġdir":1496,"ĠCon":1497,"Ġdet":1498,"roperti":1499,"ous":1500,"ference":1501,"compat":1502,"roperties":1503,"CT":1504,"Implement":1505,"RI":1506,"Time":1507,"VER":1508,"center":1509,"dict":1510,"imple":1511,"sys":1512,"Ġ6":1513,"Ġtwo":1514,"Ġcall":1515,"method":1516,"unc":1517,"ĠSt":1518,"ĠImaging":1519,"opup":1520,"Ġexist":1521,"Ġgiven":1522,"view":1523,"append":1524,"button":1525,"ĠObjectProperty":1526,"$<":1527,"CE":1528,"To":1529,"gro":1530,"new":1531,"ĠJ":1532,"Ġurl":1533,"ite":1534,"Ġdiv":1535,"unt":1536,"rapp":1537,"ĠWindow":1538,"Ġtranslation":1539,"tributes":1540,"EXT":1541,"gistry":1542,"scription":1543,"08":1544,"Base":1545,"Pro":1546,"SC":1547,"True":1548,"Widget":1549,"ved":1550,"Ġav":1551,"encode":1552,"ant":1553,"getLogger":1554,"endenc":1555,"ĠDav":1556,"filename":1557,"Ġencoding":1558,"ĠVersion":1559,"Ġfunctions":1560,"Ġtranslated":1561,"loatLayout":1562,"ocket":1563,"Ġcurrent":1564,"FAULT":1565,"']<":1566,"Test":1567,"You":1568,"`<":1569,"event":1570,"pip":1571,"use":1572,"Ġcase":1573,"idth":1574,"Ġstate":1575,"umer":1576,"present":1577,"Ġimages":1578,"howto":1579,"rypto":1580,"ĠDavid":1581,"For":1582,"False":1583,"IO":1584,"ie":1585,"ide":1586,"no":1587,"sing":1588,"wh":1589,"with":1590,"zer":1591,"input":1592,"rep":1593,"lements":1594,"Ġpkg":1595,"Ġsystem":1596,"Ġinto":1597,"Ġvec":1598,"ĠPEP":1599,"ash":1600,"Ġexp":1601,"ĠBefore":1602,"Ġstat":1603,"Ġgener":1604,"lower":1605,"Ġtexture":1606,"compile":1607,"binary":1608,"ADME":1609,"Ġbackend":1610,"Ġwelcome":1611,"Ġmappings":1612,"']":1613,"25":1614,"Str":1615,"[\"":1616,"els":1617,"gth":1618,"ld":1619,"oft":1620,"properties":1621,"sub":1622,"system":1623,"Ġtra":1624,"hed":1625,"Ġbo":1626,"ĠTwo":1627,"iler":1628,"istory":1629,"Ġyour":1630,"ĠGoodger":1631,"Ġprefix":1632,"Command":1633,"ailable":1634,"Ġ1997":1635,"items":1636,"ĠREADME":1637,"Python":1638,"kv":1639,"link":1640,"ning":1641,"platform":1642,"ted":1643,"user":1644,"window":1645,"rect":1646,"allable":1647,"Ġwas":1648,"Ġdif":1649,"utable":1650,"logger":1651,"andard":1652,"icense":1653,"ull":1654,"irst":1655,"ĠLIC":1656,"ENSE":1657,"ustom":1658,"Ġoutput":1659,"lugin":1660,"Ġvalues":1661,"ĠNotImplement":1662,"Ġdatetime":1663,"ĠLICENSE":1664,"ĠNotImplemented":1665,"):":1666,"04":1667,"05":1668,">========":1669,"Tr":1670,"Tree":1671,"min":1672,"nect":1673,"support":1674,"ves":1675,"Ġfound":1676,"Ġresponse":1677,"mail":1678,"Ġtoken":1679,"setup":1680,"ĠButton":1681,"Ġnamespace":1682,"Ġheader":1683,"context":1684,"ffset":1685,"oxLayout":1686,"Ġdetails":1687,"distutils":1688,"func":1689,"iew":1690,"lang":1691,"atter":1692,"Ġsp":1693,"Ġredistribution":1694,"Ġany":1695,"Ġhere":1696,"ĠLicense":1697,"Ġ[<":1698,"Ġcontent":1699,"Info":1700,"ĠInvalid":1701,"graphy":1702,"uctured":1703,"Ġ'''<":1704,"Ġdivision":1705,"ryptography":1706,"PIL":1707,"Ġdis":1708,"rid":1709,"turns":1710,"ĠSec":1711,"ectangle":1712,"Requirement":1713,"ĠFred":1714,"Ġorig":1715,"ific":1716,"Ġcanvas":1717,"State":1718,"roll":1719,"Parser":1720,"Structured":1721,"StructuredText":1722,"())<":1723,"Create":1724,"LS":1725,"])":1726,"cre":1727,"goodger":1728,"sl":1729,"types":1730,"vt":1731,"ynt":1732,"{}":1733,"Ġla":1734,"Ġitem":1735,"enti":1736,"Ġfr":1737,"Ġspec":1738,"Ġwork":1739,"loc":1740,"rik":1741,"ĠLund":1742,"ĠBase":1743,"Ġnames":1744,"Ġyield":1745,"Ġprocess":1746,"dered":1747,"ĠInstall":1748,"Ġtransform":1749,"arent":1750,"Ġhttps":1751,"ĠCommand":1752,"ĠFredrik":1753,"yntax":1754,"ĠLundh":1755,").__":1756,"FI":1757,"ID":1758,"[:":1759,"gn":1760,"ozer":1761,"pkg":1762,"ined":1763,"index":1764,"ery":1765,"stract":1766,"det":1767,"Ġclasses":1768,"its":1769,"lose":1770,"lif":1771,"ĠTo":1772,"Ġms":1773,"ics":1774,"ĠĠĠĠĠĠĠĠĠĠĠĠĠĠĠĠĠĠĠ":1775,"irecti":1776,"Ġ+=":1777,"Ġmake":1778,"ĠValueError":1779,"Ġhel":1780,"ĠAny":1781,"Ġfollowing":1782,"\"]<":1783,"'.":1784,"':<":1785,"An":1786,"LE":1787,"af":1788,"element":1789,"property":1790,"print":1791,"write":1792,"lect":1793,"dep":1794,"title":1795,"Ġfin":1796,"Ġfind":1797,"Ġplatform":1798,"Ġrepresent":1799,"Ġover":1800,"uration":1801,"iter":1802,"ceback":1803,"Ġinstance":1804,"lip":1805,"Ġload":1806,"licy":1807,"Ġ{<":1808,"ĠUnion":1809,"clude":1810,"(*":1811,"ait":1812,"ĠEx":1813,"ĠEn":1814,"ssion":1815,"default":1816,"lso":1817,"ĠClock":1818,"ations":1819,"ĠAB":1820,"Ġcomple":1821,"bug":1822,"Ġline":1823,"apping":1824,"Ġpackages":1825,"Comp":1826,"DEFAULT":1827,"ĠLabs":1828,"Ġ\\<":1829,"ĠSecret":1830,"([":1831,"23":1832,"NA":1833,"OW":1834,"aise":1835,"cmd":1836,"do":1837,"gra":1838,"manager":1839,"node":1840,"we":1841,"Ġqu":1842,"environ":1843,"Ġdict":1844,"Ġtouch":1845,"ilt":1846,"Ġthread":1847,"Ġrange":1848,"Ġwhile":1849,"Ġcanonic":1850,"Ġhash":1851,"script":1852,"stants":1853,"https":1854,"Ġerrors":1855,":`~":1856,"bytes":1857,"gui":1858,"AR":1859,"BA":1860,"face":1861,"handler":1862,"nown":1863,"tree":1864,"wd":1865,"Ġlike":1866,"reStructuredText":1867,"env":1868,"hes":1869,"Ġprereleases":1870,"Ġssl":1871,"Ġdistribution":1872,"Ġmore":1873,"ĠPy":1874,"Ġlook":1875,"Ġelif":1876,"files":1877,"Ġ['":1878,"box":1879,"Ġcolor":1880,"Ġargs":1881,"actory":1882,"DD":1883,"HTTP":1884,"Ser":1885,"`.<":1886,"ne":1887,"Ġ--":1888,"Ġlabel":1889,"Ġter":1890,"ating":1891,"roid":1892,"Ġpool":1893,"__.":1894,"Ġ'.":1895,"Ġmatch":1896,"docformat":1897,"liter":1898,"ĠIterator":1899,"issing":1900,"Ġoptions":1901,"Ġoffset":1902,");<":1903,"03":1904,">''":1905,"Res":1906,"function":1907,"gb":1908,"ient":1909,"rdered":1910,"sure":1911,"wn":1912,"headers":1913,"Ġfield":1914,"gest":1915,"Ġwrit":1916,"copy":1917,"ĠCallable":1918,"update":1919,"Ġshutil":1920,"ĠUR":1921,"ferent":1922,"Ġ{'":1923,"ainer":1924,"Ġcompat":1925,"color":1926,"canvas":1927,"Ġmsg":1928,"AS":1929,"Distribution":1930,"Py":1931,"Write":1932,"du":1933,"ome":1934,"play":1935,"ting":1936,"ww":1937,"Ġlicense":1938,"inter":1939,"store":1940,"header":1941,"Ġfirst":1942,"ari":1943,"Ġman":1944,"Ġhook":1945,"ints":1946,"keys":1947,"Ġmay":1948,"Ġparts":1949,"Ġits":1950,"Ġjson":1951,"ĠIterable":1952,"Ġzip":1953,"alized":1954,"ĠStringProperty":1955,"ĠURL":1956,"44":1957,"II":1958,"UN":1959,"ci":1960,"dis":1961,"directory":1962,"oid":1963,"offset":1964,"the":1965,"ren":1966,"ative":1967,"stat":1968,"Ġcor":1969,"Ġdist":1970,"ĠTest":1971,"Ġmin":1972,"Ġmulti":1973,"Ġ\"__":1974,"icro":1975,"000":1976,"qual":1977,"Ġwhere":1978,"Ġ[\"":1979,"Ġmetadata":1980,"content":1981,"ffect":1982,"havi":1983,"literals":1984,"21":1985,"ION":1986,"Key":1987,"String":1988,"ake":1989,"cls":1990,"ds":1991,"late":1992,"mon":1993,"ution":1994,"ĠYou":1995,"Ġtuple":1996,"alker":1997,"arch":1998,"Ġwhe":1999,"Ġ\"<":2000,"ĠPro":2001,"ĠPIL":2002,"Ġ202":2003,"Ġasync":2004,"buffer":2005,"Ġstart":2006,"Ġmain":2007,"Ġconvert":2008,"().":2009,"Ġshow":2010,"Ġgetattr":2011,"match":2012,"imation":2013,"Ġarg":2014,"Ġcontains":2015,"Ġextension":2016,"Ġinstalled":2017,"Ġimplementation":2018,"VERSION":2019,"Ġavailable":2020,"umeric":2021,"Ġdifferent":2022,"ĠNotImplementedError":2023,"33":2024,"AP":2025,"KE":2026,"Not":2027,"ause":2028,"be":2029,"ball":2030,"dt":2031,"find":2032,"ial":2033,"og":2034,"Ġlib":2035,"err":2036,"Ġfp":2037,"Ġwrite":2038,"lient":2039,"unct":2040,"ody":2041,"ERR":2042,"ĠĠĠĠĠĠĠĠĠĠĠĠĠĠĠĠĠĠ":2043,"Ġheaders":2044,"Ġextra":2045,"Ġvalid":2046,"rapper":2047,"06":2048,"AC":2049,"Builder":2050,"DI":2051,"ED":2052,"OL":2053,"TH":2054,"da":2055,"ead":2056,"gh":2057,"ume":2058,"ware":2059,"ĠX":2060,"Ġalso":2061,"Ġimportlib":2062,"Ġwidget":2063,"uto":2064,"Ġiniti":2065,"Ġindex":2066,"lags":2067,"ĠType":2068,"ility":2069,"ĠSyntax":2070,"etree":2071,"ĠDistribution":2072,"transform":2073,"Ġwind":2074,"Ġstandard":2075,"ify":2076,"ĠHistory":2077,"ĠWidget":2078,"ONT":2079,"...":2080,"Connection":2081,"Ġnodes":2082,"Ġoperator":2083,"At":2084,"PY":2085,"`,":2086,"catter":2087,"hash":2088,"ools":2089,"wheel":2090,"width":2091,"inner":2092,"res":2093,"lete":2094,"Ġfunct":2095,"ces":2096,"Ġinvalid":2097,"Ġ'__":2098,"Ġhandl":2099,"ĠAd":2100,"ick":2101,"ected":2102,"touch":2103,"ĠBSD":2104,"ĠBoxLayout":2105,"quence":2106,"ĠMy":2107,"precation":2108,"ĠRequests":2109,"ape":2110,"apter":2111,"acters":2112,"notes":2113,"olean":2114,"gister":2115,"graphics":2116,"Ġitertools":2117,"Ġ>=":2118,"Ġtempfile":2119,"Ġcontextlib":2120,"nsiti":2121,"supported":2122,"havior":2123,"Ġfunctools":2124,"FloatLayout":2125,"LI":2126,"NO":2127,"Option":2128,"cul":2129,"json":2130,"misc":2131,"zen":2132,"zip":2133,"Ġend":2134,"onent":2135,"reg":2136,"sensiti":2137,"mpty":2138,"Ġim":2139,"Ġimp":2140,"start":2141,"rozen":2142,"decode":2143,"ann":2144,"Ġsimple":2145,"Ġour":2146,"__\",<":2147,"Ġ(\"":2148,"acy":2149,"ĠTh":2150,"ĠTime":2151,"Ġvari":2152,"Ġ10":2153,"abc":2154,"output":2155,"mmon":2156,"Ġrand":2157,"Ġlink":2158,"Ġbytes":2159,">>>>":2160,"Ġ{}<":2161,"values":2162,"Ġcodecs":2163,"Context":2164,"Timeout":2165,"ERROR":2166,"'):<":2167,")):<":2168,"BU":2169,"CUR":2170,"List":2171,"ail":2172,"sk":2173,"Ġjoin":2174,"reen":2175,"response":2176,"encoding":2177,"Ġcryptography":2178,"Ġsocket":2179,"Ġrequests":2180,"edit":2181,"ĠTr":2182,"ids":2183,"Ġhow":2184,"Ġthan":2185,"ĠOpen":2186,"ĠOrdered":2187,"Ġstream":2188,"Ġproxy":2189,"Ġhasattr":2190,"builder":2191,"andidates":2192,"ragment":2193,"Ġprovides":2194,"endency":2195,"afe":2196,"Ġcanonicalize":2197,"ĠSyntaxError":2198,"Ġwindow":2199,"\":<":2200,"\"):<":2201,"\"),<":2202,"**":2203,">:<":2204,"Ad":2205,"Event":2206,"Open":2207,"].":2208,"amp":2209,"close":2210,"eat":2211,"evt":2212,"gments":2213,"host":2214,"qa":2215,"sv":2216,"soft":2217,"see":2218,"Ġtable":2219,"roject":2220,"description":2221,"ance":2222,"Ġthem":2223,"itory":2224,"Ġbet":2225,"Ġdirect":2226,"esc":2227,"ĠCont":2228,"ĠCreated":2229,"Ġreturns":2230,"ĠSe":2231,"struct":2232,"ĠIt":2233,"Ġthen":2234,"Ġthere":2235,"Ġcover":2236,"Ġrgb":2237,"Ġmodules":2238,"preter":2239,"ĠHTML":2240,"Install":2241,"Ġproject":2242,"Ġprogra":2243,"ĠRectangle":2244,"ibility":2245,"Ġchange":2246,"Ġnoqa":2247,"pository":2248,"ormalized":2249,"client":2250,"Ġchardet":2251,"group":2252,"ientation":2253,"Ġwhether":2254,"umericProperty":2255,"(_":2256,"27":2257,"Handler":2258,"HTML":2259,"IG":2260,"MENT":2261,"Po":2262,"Qu":2263,"RG":2264,"author":2265,"ia":2266,"ius":2267,"jor":2268,"ose":2269,"spath":2270,"Ġ\"\"":2271,"remove":2272,"Ġtri":2273,"Ġauto":2274,"Ġcalled":2275,"metadata":2276,"Ġresol":2277,"Ġwant":2278,"idd":2279,"ĠSS":2280,"ĠSpecifier":2281,"Ġhandler":2282,"Ġke":2283,"ĠNumericProperty":2284,"icate":2285,"allback":2286,"Ġlocal":2287,"Ġnote":2288,"Ġexception":2289,"ĠOS":2290,"Ġorientation":2291,"Ġ*<":2292,"Ġensure":2293,"Ġunpack":2294,"INE":2295,"Environment":2296,"board":2297,"moved":2298,"Ġ2006":2299,"Control":2300,"Ġiterable":2301,"RequestException":2302,"Ġallowed":2303,"repr":2304,"subprocess":2305,"cii":2306,"15":2307,"Cache":2308,"ES":2309,"Elements":2310,"LA":2311,"PRO":2312,"ValueError":2313,"multi":2314,"Ġerr":2315,"reak":2316,"stri":2317,"orted":2318,"Ġali":2319,"ties":2320,"ingle":2321,"Ġspecifi":2322,"Ġbin":2323,"etry":2324,"ircle":2325,"Ġ12":2326,"token":2327,"Ġ...":2328,"settings":2329,"server":2330,"Ġwithin":2331,"Ġparame":2332,"dirname":2333,"(),":2334,"ĠWe":2335,"``,":2336,"``.<":2337,"ĠRes":2338,"buildozer":2339,"Ġattribute":2340,"Ġtypes":2341,"Ġsubprocess":2342,"tempdir":2343,"models":2344,"Ġjust":2345,"mbda":2346,"Ġinstead":2347,"CESS":2348,"Ġtraceback":2349,"setuptools":2350,"Ġorigin":2351,"icrosoft":2352,"evtlog":2353,"ET":2354,"KER":2355,"MP":2356,"OCK":2357,"Raise":2358,"Specifier":2359,"Val":2360,"eader":2361,"kan":2362,"mit":2363,"ten":2364,"work":2365,"Ġper":2366,"ansp":2367,"ark":2368,"Ġsu":2369,"Ġred":2370,"Ġresource":2371,"Ġdon":2372,"exc":2373,"count":2374,"riv":2375,"ĠCheck":2376,"Ġhandle":2377,"opt":2378,"Ġ25":2379,"toml":2380,"Ġelement":2381,"Ġexc":2382,"intypes":2383,"mplements":2384,"codes":2385,"Ġuses":2386,"Information":2387,"Ġenv":2388,"scheme":2389,"Ġ{\"":2390,"Encoder":2391,"Ġrunning":2392,"Ġobjects":2393,"Log":2394,"Ġmethods":2395,"ĠComp":2396,"akes":2397,"Ġserver":2398,"Ġhelp":2399,"Ġcomplete":2400,"transforms":2401,"20":2402,"=<":2403,">*":2404,">~~~~~~~~":2405,"?<":2406,"FIL":2407,"NI":2408,"Pool":2409,"TO":2410,"block":2411,"case":2412,"down":2413,"float":2414,"gith":2415,"pache":2416,"popup":2417,"parent":2418,"sd":2419,"sid":2420,"six":2421,"typ":2422,"wintypes":2423,"Ġutil":2424,"attern":2425,"Ġcreated":2426,"Ġckan":2427,"Ġsame":2428,"Ġobj":2429,"__,":2430,"ittest":2431,"thing":2432,"ĠĠĠĠĠĠĠĠĠĠ":2433,"ecause":2434,"Ġ20":2435,"chine":2436,"paths":2437,"ĠFile":2438,"ĠBuild":2439,"ĠRequest":2440,"Ġattributes":2441,"Ġchunk":2442,"ORM":2443,"HEAD":2444,"ITY":2445,"Ġlength":2446,"Ġnumbers":2447,"Ġinterface":2448,"RIB":2449,">================":2450,"irectives":2451,">'''":2452,"Ġzipfile":2453,"Ġhandling":2454,"Ġrandom":2455,"Ġkeys":2456,"github":2457,"\")":2458,"\"\\":2459,"\"]":2460,"(?":2461,"*)":2462,"517":2463,">]<":2464,"Candidate":2465,"ECT":2466,"Mapping":2467,"RA":2468,"View":2469,"ays":2470,"bar":2471,"bed":2472,"finit":2473,"ng":2474,"save":2475,"Ġent":2476,"orld":2477,"select":2478,"Ġtag":2479,"state":2480,"level":2481,"Ġprag":2482,"Ġcls":2483,"Ġrequirement":2484,"Ġrepository":2485,"uri":2486,">##":2487,"exp":2488,"Ġnow":2489,"Ġdefined":2490,"Ġmod":2491,"term":2492,"Ġ16":2493,"Ġemail":2494,"Ġexec":2495,"ixel":2496,"()`":2497,"Ġencode":2498,"Ġ45":2499,"Ġscheme":2500,"Ġapplication":2501,"argv":2502,"Char":2503,"Ġdoesn":2504,"ferences":2505,"Ġexists":2506,"Transform":2507,"Ġlast":2508,"KEY":2509,"sensitive":2510,"Policy":2511,"ĠOSError":2512,"typing":2513,"Ġpragma":2514,"'),<":2515,"((":2516,"::":2517,"Code":2518,"Data":2519,"LL":2520,"bool":2521,"clock":2522,"classes":2523,"fc":2524,"fbo":2525,"imp":2526,"lan":2527,"lus":2528,"lines":2529,"rtype":2530,"ters":2531,"Ġutils":2532,"Ġtakes":2533,"star":2534,"roup":2535,"height":2536,"Ġfloat":2537,"Ġpalette":2538,"gex":2539,"Ġsix":2540,"Ġremoved":2541,"__':<":2542,"ssible":2543,"Ġbutton":2544,"Ġbreak":2545,"Ġtop":2546,"accept":2547,"Ġmk":2548,"pped":2549,"mental":2550,"ĠApache":2551,"iction":2552,"etc":2553,"Ġempty":2554,"Ġstrings":2555,"Ġstruct":2556,"Ġstri":2557,"verti":2558,"assert":2559,"labels":2560,"oken":2561,"okie":2562,"ĠRo":2563,"Ġadded":2564,"ords":2565,"actor":2566,"Ġsupported":2567,"specific":2568,"ITE":2569,"openssl":2570,"requires":2571,"requirements":2572,"Ġrequired":2573,"udio":2574,"Ġaccess":2575,"egacy":2576,"SCII":2577,"locity":2578,"lipse":2579,"monstr":2580,"ĠOrderedDict":2581,"seek":2582,"07":2583,"22":2584,"42":2585,"Color":2586,"Directory":2587,"Filter":2588,"FORM":2589,"Me":2590,"OD":2591,"Se":2592,"bind":2593,"check":2594,"igest":2595,"man":2596,"of":2597,"png":2598,"target":2599,"wist":2600,"xx":2601,"yle":2602,"zone":2603,"ĠException":2604,"stream":2605,"head":2606,"Ġfn":2607,"Ġplugin":2608,"aris":2609,"Ġind":2610,"lities":2611,"----<":2612,"android":2613,"ĠAt":2614,"ector":2615,"ĠLine":2616,"ildren":2617,"0000":2618,"serve":2619,"Ġdest":2620,"Ġdescription":2621,"Ġdemonstr":2622,"console":2623,"Ġmax":2624,"Invalid":2625,"Ġenvironment":2626,"ĠUse":2627,"Ġsettings":2628,"uppress":2629,"Ġraised":2630,"Application":2631,"Ġcomponent":2632,"Ġruntime":2633,"Ġbased":2634,"Ġpywin":2635,"Ġ1996":2636,"guments":2637,"Ġprovided":2638,"Ġrequirements":2639,"Ġbuilt":2640,"ĠDef":2641,"ground":2642,"ĠWindows":2643,"256":2644,"Ġboth":2645,"Ġfront":2646,"Ġtransforms":2647,"ween":2648,"Ġthreading":2649,"Service":2650,"Ġterms":2651,"status":2652,"ĠTransform":2653,"HEADER":2654,"finity":2655,">\"\"\"":2656,"BO":2657,"Header":2658,"TYPE":2659,"Window":2660,"cy":2661,"fter":2662,"ful":2663,"gor":2664,"gine":2665,"hen":2666,"ik":2667,"iform":2668,"ked":2669,"ways":2670,"ĉĉ":2671,"ref":2672,"less":2673,"debug":2674,"Ġpyp":2675,"arker":2676,"Ġssp":2677,"Ġreq":2678,"Ġregistry":2679,"Ġopt":2680,"Ġway":2681,"Ġbecause":2682,"Ġdt":2683,"Ġdu":2684,"extern":2685,"local":2686,"ote":2687,"ĠAPI":2688,"parts":2689,"Ġelements":2690,"ĠFound":2691,"ĠBy":2692,"Ġwinreg":2693,"Ġ<=":2694,"constants":2695,"ĠReturns":2696,"assword":2697,"Ġ{}":2698,"Ġpaths":2699,"tswith":2700,"Ġarguments":2701,"Ġxml":2702,"Ġcontaining":2703,"Ġ2012":2704,"ALL":2705,"Ġrole":2706,"Toml":2707,"endencies":2708,"Ġstatus":2709,"eature":2710,"Ġbetween":2711,"OCKS":2712,"startswith":2713,">..":2714,"Element":2715,"HAS":2716,"Path":2717,"Retry":2718,"RKER":2719,"Tag":2720,"`:":2721,"alen":2722,"br":2723,"bstract":2724,"ccur":2725,"candidate":2726,"fd":2727,"filter":2728,"kens":2729,"mory":2730,"norm":2731,"page":2732,"palette":2733,"top":2734,"Ġ&":2735,"ero":2736,"std":2737,"rou":2738,"row":2739,"Ġcre":2740,"Ġcopy":2741,"Ġcmd":2742,"anel":2743,"Ġsuch":2744,"Ġthey":2745,"Ġretri":2746,"Ġoccur":2747,"__<":2748,"Ġdown":2749,"lop":2750,"Ġnext":2751,"acti":2752,"Ġ'-":2753,"names":2754,"ĠPar":2755,"ĠPong":2756,"icon":2757,"etadata":2758,"ason":2759,"abspath":2760,"Ġlow":2761,"Ġloop":2762,"Read":2763,"part":2764,"ĠFloatLayout":2765,"Ġenum":2766,"Ext":2767,"users":2768,"compiler":2769,"control":2770,"document":2771,"Ġscreen":2772,"Ġabout":2773,"ĠImageFile":2774,"Ġlogic":2775,"note":2776,"post":2777,"bins":2778,"Ġcontainer":2779,"ĠNote":2780,"Parse":2781,"Ġrow":2782,"Ġpoint":2783,"Ġservice":2784,"MARKER":2785,"ĠConfig":2786,"Any":2787,"Ġhooks":2788,"Ġspecified":2789,"Raised":2790,")]<":2791,"/<":2792,"67":2793,">:":2794,"Do":2795,"FF":2796,"Find":2797,"Hel":2798,"JECT":2799,"Token":2800,"Walker":2801,"[-":2802,"]:<":2803,"]]<":2804,"fn":2805,"known":2806,"llipse":2807,"now":2808,"ple":2809,"prereleases":2810,"rame":2811,"sign":2812,"src":2813,"vid":2814,"wise":2815,"wrap":2816,"Ġ//":2817,"Ġ}<":2818,"section":2819,"Ġtar":2820,"Ġign":2821,"Ġact":2822,"titem":2823,"allow":2824,"Ġcal":2825,"Ġcustom":2826,"Ġcwd":2827,"aries":2828,"Ġretry":2829,"Ġremove":2830,"itle":2831,"Ġdiction":2832,"Ġinte":2833,"Ġnorm":2834,"Ġtoml":2835,"ĠCONT":2836,"ray":2837,"forge":2838,"Ġview":2839,"irt":2840,"ĠLink":2841,"abbed":2842,"ending":2843,"Ġcom":2844,"ĠDE":2845,"Return":2846,"ything":2847,"Ġwinerror":2848,"Ġorder":2849,"Ġwithout":2850,"press":2851,"Ġprob":2852,"icture":2853,"ĠRequirement":2854,"sourceforge":2855,"ĠĠĠĠĠĠĠĠĠĠĠĠĠĠĠĠĠĠĠĠĠĠĠĠ":2856,"prog":2857,"proxy":2858,"eep":2859,"Ġapply":2860,"backend":2861,"Ġtimeout":2862,"pose":2863,"Ġpywintypes":2864,"porter":2865,"Ġbuffer":2866,"roller":2867,"Ġframe":2868,"NAME":2869,"Ġlookup":2870,"boxlayout":2871,"Ġlibrary":2872,"Ġprogram":2873,"RGB":2874,"Ġparameter":2875,"ansport":2876,"Ġ4564":2877,"'))<":2878,")))<":2879,".,":2880,">`":2881,">}<":2882,"Ac":2883,"API":2884,"Build":2885,"CF":2886,"CH":2887,"CM":2888,"FO":2889,"HT":2890,"Kivy":2891,"PT":2892,"SU":2893,"TE":2894,"TR":2895,"TLS":2896,"VE":2897,"Zone":2898,"auth":2899,"aded":2900,"cwd":2901,"eq":2902,"handle":2903,"iem":2904,"jp":2905,"na":2906,"ponse":2907,"patch":2908,"side":2909,"uffer":2910,"ĠZ":2911,"rev":2912,"resh":2913,"Ġtarget":2914,"atab":2915,"lear":2916,"Ġafter":2917,"round":2918,"hel":2919,"tial":2920,"Ġcast":2921,"ars":2922,"Ġsave":2923,"Ġspecifier":2924,"Ġsingle":2925,"Ġthese":2926,"Ġrep":2927,"Ġwidth":2928,"__,<":2929,"Ġdual":2930,">##<":2931,"defined":2932,"unded":2933,"ish":2934,"Ġ\"_":2935,"force":2936,"Ġver":2937,"namespace":2938,"ationError":2939,"ically":2940,"ask":2941,"Ġ13":2942,"Ġ100":2943,"ĠDocutils":2944,"Ġegg":2945,"__(**":2946,"velop":2947,"Ġgroup":2948,"licit":2949,"Ġlong":2950,"Ġ<<":2951,"ansition":2952,"umn":2953,"dirs":2954,"ouch":2955,"Ġconstruct":2956,"ENSION":2957,"Ġalways":2958,"``<":2959,"IND":2960,"Ġlogger":2961,"container":2962,"Ġarch":2963,"umber":2964,"ĠListProperty":2965,"ATION":2966,"ertif":2967,"Ġlevel":2968,"AND":2969,"EXTENSION":2970,"oftware":2971,"copyright":2972,"Ġlicensed":2973,"CURITY":2974,"ĠOpenSSL":2975,"ĠSequence":2976,"ormalizedName":2977,"iddle":2978,"Ġoriginal":2979,"floatlayout":2980,"RIBUT":2981,"Ġoptparse":2982,"iemann":2983,"atabase":2984,"+)":2985,":%":2986,"AB":2987,"Button":2988,"DO":2989,"Equal":2990,"IS":2991,"Link":2992,"Manager":2993,"Missing":2994,"Node":2995,"PRE":2996,"Rec":2997,"TER":2998,"US":2999,"Wait":3000,"air":3001,"aint":3002,"create":3003,"fin":3004,"fli":3005,"hat":3006,"ice":3007,"rfc":3008,"sa":3009,"su":3010,"warn":3011,"wik":3012,"xml":3013,"Ġ--------------------------------":3014,"ored":3015,"orig":3016,"only":3017,"Ġpur":3018,"Ġpage":3019,"Ġpack":3020,"Ġreg":3021,"Ġwarning":3022,"Ġbits":3023,"exec":3024,"adius":3025,"ride":3026,"action":3027,"Ġanother":3028,"ĠCreate":3029,"ĠSOCKS":3030,"Ġkwargs":3031,"ell":3032,"ĠPY":3033,"ĠName":3034,"ascii":3035,"Ġ15":3036,"ized":3037,"abel":3038,"tocol":3039,"ĠDD":3040,"ĠDem":3041,"spon":3042,"Ġmachine":3043,"Ġcontin":3044,"Ġconnection":3045,"Ġconsole":3046,"Ġconnect":3047,"Ġcannot":3048,"Input":3049,"Ġsecon":3050,"ains":3051,"imum":3052,"Ġversions":3053,"joy":3054,"METH":3055,"Ġadapter":3056,"Ġhtml":3057,"msg":3058,"empDirectory":3059,"Ġ2011":3060,"udit":3061,"COL":3062,"------------------------------------<":3063,"Ġdirname":3064,"Format":3065,"Ġexpected":3066,">============":3067,"Ġdisplay":3068,"ĠInstallRequirement":3069,"irective":3070,"Ġdistributions":3071,"Ġfields":3072,"www":3073,"Ġminor":3074,"Ġ2020":3075,"Ġinitial":3076,"precationWarning":3077,"escape":3078,"Ġrgba":3079,"Message":3080,"flict":3081,"METHOD":3082,"').":3083,"-%":3084,">(":3085,">/":3086,"IX":3087,"OS":3088,"PA":3089,"Popup":3090,"Sub":3091,"bit":3092,"bits":3093,"cated":3094,"dll":3095,"nd":3096,"suppress":3097,"ually":3098,"vc":3099,"vers":3100,"}\".":3101,"~<":3102,"Ġ):<":3103,"Ġli":3104,"Ġ]<":3105,"Ġetc":3106,"Ġlabels":3107,"inst":3108,"returns":3109,"atc":3110,"alk":3111,"Ġpatch":3112,"Ġsk":3113,"Ġsample":3114,"Ġtheir":3115,"Ġrelease":3116,"Ġold":3117,"Ġdraw":3118,"max":3119,"Ġ((":3120,"rix":3121,"Ġmissing":3122,"isual":3123,"extension":3124,"ĠSU":3125,"ĠSh":3126,"ĠScatter":3127,"ĠSoftware":3128,"Ġvendor":3129,"ĠIS":3130,"olution":3131,"classmethod":3132,"ases":3133,"ender":3134,"Reg":3135,"ĠFbo":3136,"quare":3137,"Ġdebug":3138,"Ġsysconfig":3139,"Ġtrue":3140,"ĠMapping":3141,"ixin":3142,"vides":3143,"vious":3144,"Ġshader":3145,"esture":3146,"Example":3147,"ĠReturn":3148,"okup":3149,"ready":3150,"Ġusers":3151,"SECURITY":3152,"validate":3153,"ORT":3154,"specifi":3155,"Ġ1995":3156,"ependency":3157,"Ġlet":3158,"datetime":3159,"itional":3160,"ports":3161,"Ġmessages":3162,"Ġconfiguration":3163,"tags":3164,"2003":3165,"Ġavoid":3166,"hedule":3167,"utableMapping":3168,"ridLayout":3169,"cremental":3170,"Ġprocessing":3171,"Ġfinally":3172,"Compiler":3173,"HTTPError":3174,"Ġcompatibility":3175,"Ġmany":3176,"Ġ2021":3177,"dtuple":3178,"Attributes":3179,"IGHT":3180,"ĠSSL":3181,"Ġerrno":3182,"termine":3183,"wisted":3184,"rough":3185,"irtual":3186,"Ġ--------------------------------------------------------------------<":3187,"Ġcontinue":3188,"!<":3189,"\").":3190,"(\\":3191,")[":3192,"201":3193,"=[":3194,"Clip":3195,"CCESS":3196,"Factory":3197,"GE":3198,"LO":3199,"PAT":3200,"Rectangle":3201,"Sec":3202,"TI":3203,"Touch":3204,"ags":3205,"cf":3206,"here":3207,"implement":3208,"largs":3209,"miss":3210,"tn":3211,"tra":3212,"uff":3213,"writ":3214,"ward":3215,"zz":3216,"Ġright":3217,"Ġedit":3218,"ories":3219,"ination":3220,"release":3221,"registry":3222,"sec":3223,"atrix":3224,"style":3225,"Ġaround":3226,"hema":3227,"Ġfont":3228,"Ġflags":3229,"Ġpattern":3230,"Ġclient":3231,"Ġimported":3232,"Ġsquare":3233,"Ġrect":3234,"Ġwheel":3235,"Ġworld":3236,"Ġwiemann":3237,"Ġdirectives":3238,"location":3239,"uniform":3240,"iled":3241,"ersal":3242,"rib":3243,"ribut":3244,"ĠText":3245,"Ġ''<":3246,"Ġmo":3247,"ypy":3248,"otto":3249,"ĠCache":3250,"iversal":3251,"asic":3252,"ĠLo":3253,"char":3254,"Reader":3255,"sert":3256,"service":3257,"tems":3258,"ĠBack":3259,"Ġstructure":3260,"Ġgot":3261,"Ġradius":3262,"Ġwhat":3263,"appen":3264,"foo":3265,"Ġcontrol":3266,"Ġshort":3267,"ĠWriter":3268,"Ġattemp":3269,"Ġheight":3270,"Ġpassword":3271,"Enum":3272,"PEP":3273,"ORS":3274,"parsed":3275,"Ġformats":3276,"points":3277,"Ġextract":3278,"Ġ2013":3279,"Ġidenti":3280,"Ġfilenames":3281,"Ġcommands":3282,"ĠHTTPError":3283,"Ġtempdir":3284,"ĠKivy":3285,"alizer":3286,"Ġinterpre":3287,"URL":3288,"TimeZone":3289,"replace":3290,"Ġtrail":3291,"Ġboolean":3292,"ĠExample":3293,"domain":3294,"web":3295,"Ġhashlib":3296,"LIST":3297,"Ġvariable":3298,"hostname":3299,"Ġredirect":3300,"TOCOL":3301,"Characters":3302,"egacyVersion":3303,"Ġdemonstrates":3304,"gorith":3305,"Ġpyproject":3306,"ĠFoundation":3307,"Ġlower":3308,"Ġdictionary":3309,"ertificate":3310,"Clipboard":3311,"ottom":3312,"26":3313,"28":3314,"=',":3315,">@":3316,"Be":3317,"BoxLayout":3318,"Case":3319,"Import":3320,"Implements":3321,"Metadata":3322,"Object":3323,"Panel":3324,"Scatter":3325,"WS":3326,"az":3327,"bdist":3328,"call":3329,"cord":3330,"dot":3331,"ever":3332,"gr":3333,"glob":3334,"hook":3335,"lt":3336,"ob":3337,"rp":3338,"tag":3339,"venv":3340,"wait":3341,"})":3342,"Ġ32":3343,"orary":3344,"era":3345,"regex":3346,"sep":3347,"Ġiss":3348,"Ġitems":3349,"Ġauth":3350,"ensh":3351,"Ġfilter":3352,"Ġfragment":3353,"Ġcenter":3354,"Ġcircle":3355,"Ġsav":3356,"Ġreco":3357,"Ġreferences":3358,"Ġreason":3359,"Ġwid":3360,"Ġwrapper":3361,"Ġbody":3362,"Ġinclu":3363,"Ġinclude":3364,"lied":3365,"unter":3366,"comple":3367,"coord":3368,"Ġmath":3369,"ĠCH":3370,"ĠCh":3371,"ĠST":3372,"Ġvia":3373,"Ġkeep":3374,"upload":3375,"ĠPool":3376,"ĠAbstract":3377,"ĠĠĠĠĠĠĠĠĠ":3378,"ĠLIGHT":3379,"Ġ11":3380,"Ġbefore":3381,"Ġbehavior":3382,"Ġcount":3383,"chop":3384,"Ġequal":3385,"ĠFIX":3386,"Ġdel":3387,"Ġdelete":3388,"gging":3389,"ĠOn":3390,"Ġgl":3391,"connect":3392,"Ġmajor":3393,"Ġpart":3394,"Ġconstants":3395,"ERSION":3396,"amera":3397,"END":3398,"ferred":3399,"ush":3400,"ĠVERSION":3401,"compare":3402,"timezone":3403,"Ġsomething":3404,"Ġ...<":3405,"ocks":3406,"ĠHTTPS":3407,"Ġpossible":3408,"Def":3409,"MAP":3410,"COM":3411,"Ġcharacters":3412,"tributeError":3413,"Ġurlparse":3414,"contextmanager":3415,"Ġrepresents":3416,"scripts":3417,"Ġwritten":3418,"interpreter":3419,"UND":3420,"ialog":3421,"ampl":3422,"InstallRequirement":3423,">~~~~~~~~~~~~":3424,"vertical":3425,"ĠBytes":3426,"Ġignore":3427,"Ġinteger":3428,"abbedPanel":3429,"enshi":3430,"ĠFIXME":3431,"'re":3432,"({":3433,"-<":3434,"86":3435,"AME":3436,"Buffer":3437,"Call":3438,"Effect":3439,"Found":3440,"Hook":3441,"IF":3442,"Imp":3443,"MO":3444,"Mem":3445,"No":3446,"Optional":3447,"PF":3448,"PH":3449,"Pre":3450,"Package":3451,"Plugin":3452,"Run":3453,"SNI":3454,"URE":3455,"With":3456,"]*)":3457,"cryptography":3458,"got":3459,"iet":3460,"ializer":3461,"lated":3462,"next":3463,"pool":3464,"pace":3465,"pep":3466,"password":3467,"sync":3468,"tuple":3469,"ux":3470,"void":3471,"yy":3472,"ors":3473,"Ġtz":3474,"Ġaction":3475,"rot":3476,"ross":3477,"dev":3478,"til":3479,"Ġfull":3480,"ality":3481,"Ġpixel":3482,"Ġcandidate":3483,"Ġsorted":3484,"Ġregister":3485,"ites":3486,"Ġdp":3487,"losed":3488,"lish":3489,"thread":3490,"ries":3491,"ĠTempDirectory":3492,"Ġmight":3493,"Ġform":3494,"ĠCustom":3495,"extra":3496,"Ġreturned":3497,"Ġkind":3498,"oper":3499,"opic":3500,"asy":3501,"ashes":3502,"Ġ18":3503,"abi":3504,"abstract":3505,"ither":3506,"spinner":3507,"Ġdecode":3508,"('.":3509,"codeError":3510,"ĠMA":3511,"ĠMicrosoft":3512,"Ġmap":3513,"precated":3514,"application":3515,"Ġconsid":3516,"Ġencoder":3517,"ĠRead":3518,"Ġalready":3519,"Ġunittest":3520,"schedule":3521,"ĠGet":3522,"ĠGener":3523,"ĠRun":3524,"ĠRaise":3525,"derr":3526,"project":3527,"ImagePlugin":3528,"eeded":3529,"current":3530,"PEG":3531,"Ġtranslate":3532,"Ġ2004":3533,"Ġpygments":3534,"commands":3535,"Ġtests":3536,"Ġsubclass":3537,"Ġ517":3538,"ĠUnicode":3539,"testutil":3540,"Ġupload":3541,"issues":3542,"Ġpoints":3543,"Ġneeds":3544,"Decoder":3545,"Ġwell":3546,"Ġ711":3547,"Ġbuf":3548,"Ġdependencies":3549,"Ġexisting":3550,"Ġgenerated":3551,"Ġcontents":3552,"Ġlambda":3553,"Ġspecific":3554,"Ġhelper":3555,"BASE":3556,"ĠPyPI":3557,"Server":3558,"dump":3559,"Ġcorrect":3560,"Ġargparse":3561,"cular":3562,"ĠTimeout":3563,"TimeoutError":3564,"Ġdirectories":3565,"ĠRounded":3566,"arison":3567,"ĠAttributeError":3568,"Ġretries":3569,"allowed":3570,"ĠCONTRIBUT":3571,"ependencyWarning":3572,"Ġrectangle":3573,"gorithm":3574,"Memory":3575,"Ġconsider":3576,"Ġ7119":3577,"ĠRoundedRectangle":3578,"ĠCONTRIBUTORS":3579,"('''<":3580,"*.":3581,"-.":3582,"14":3583,"100":3584,"By":3585,"Back":3586,"CC":3587,"GS":3588,"IP":3589,"If":3590,"Len":3591,"Lsa":3592,"Label":3593,"More":3594,"OF":3595,"OP":3596,"Oper":3597,"Paint":3598,"Sc":3599,"UM":3600,"Writer":3601,"bz":3602,"cast":3603,"go":3604,"ier":3605,"lta":3606,"mod":3607,"pop":3608,"pinner":3609,"tk":3610,"ualen":3611,"vg":3612,"ven":3613,"ycle":3614,"ern":3615,"left":3616,"delete":3617,"delta":3618,"Ġfree":3619,"Ġfuture":3620,"Ġfeature":3621,"ali":3622,"alone":3623,"Ġparent":3624,"Ġpick":3625,"meta":3626,"Ġsupp":3627,"Ġref":3628,"utput":3629,"lambda":3630,"major":3631,"common":3632,"ĠTLS":3633,"Ġ'_":3634,"Ġmip":3635,"Ġ\"%":3636,"ĠSer":3637,"Ġvirtual":3638,"andalone":3639,"ĠID":3640,"opts":3641,"och":3642,"Ġbelow":3643,"Ġbegin":3644,"fied":3645,"ĠData":3646,"Ġloader":3647,"Ġeither":3648,"ĠBo":3649,"Ġuseful":3650,"ĠHow":3651,"Ġcontribut":3652,"Infinity":3653,"Ġmesh":3654,"ĠThese":3655,"Ġsepar":3656,"Ġ36":3657,"ĠRec":3658,"cessary":3659,"ĠVal":3660,"formatter":3661,"compress":3662,"Ġotherwise":3663,"stant":3664,"igh":3665,"Ġchild":3666,"contrib":3667,"show":3668,"Ġcolumn":3669,"Ġbuildozer":3670,"Ġscale":3671,"ILD":3672,"Stream":3673,"Ġsupports":3674,"EXP":3675,"ĠAnimation":3676,"policy":3677,"Ġbackground":3678,"distributions":3679,"Ġ85":3680,"Console":3681,"ĠDistutilsOption":3682,"Ġupdate":3683,"runner":3684,"running":3685,"canonic":3686,"Ġprovide":3687,"pyproject":3688,"Ġinterpreter":3689,"Ġpythoncom":3690,"Ġglobal":3691,"Ġoperations":3692,"TestCase":3693,"255":3694,"FIX":3695,"([^":3696,"BACK":3697,"DDS":3698,"Result":3699,"Ġshows":3700,"ĠMyPaint":3701,"BUG":3702,"Query":3703,"FILEN":3704,"Ġstrict":3705,"Ġfnmatch":3706,"Ġfrontend":3707,"Ġdump":3708,"Hello":3709,"Ġcalcul":3710,"ĠDemo":3711,"PATH":3712,"appengine":3713,"parsedVersion":3714,"ualenv":3715,"ĠDistutilsOptionError":3716,"'ll":3717,"19":3718,">``":3719,"CU":3720,"Circle":3721,"DF":3722,"Det":3723,"Item":3724,"Module":3725,"Matrix":3726,"Or":3727,"PM":3728,"PO":3729,"Palette":3730,"QU":3731,"System":3732,"TEXT":3733,"Value":3734,"],<":3735,"_.":3736,"ber":3737,"cert":3738,"card":3739,"dings":3740,"dated":3741,"droid":3742,"digest":3743,"fname":3744,"factory":3745,"flags":3746,"frame":3747,"ialize":3748,"lor":3749,"lin":3750,"mote":3751,"number":3752,"over":3753,"rl":3754,"rt":3755,"slo":3756,"safe":3757,"uv":3758,"used":3759,"Ġlayout":3760,"ĠERROR":3761,"real":3762,"return":3763,"reader":3764,"resol":3765,"register":3766,"atis":3767,"les":3768,"Ġag":3769,"ended":3770,"dest":3771,"ticular":3772,"Ġfail":3773,"Ġpas":3774,"anch":3775,"med":3776,"getitem":3777,"Ġsli":3778,"Ġside":3779,"Ġreader":3780,"Ġoptional":3781,"Ġwould":3782,"Ġwriter":3783,"Ġwords":3784,"cel":3785,"Ġinv":3786,"Ġinfo":3787,"Ġinternal":3788,"exit":3789,"example":3790,"Ġnon":3791,"unce":3792,"codings":3793,"rie":3794,"ĠTag":3795,"Ġ'%":3796,"Ġdefin":3797,"Ġmypy":3798,"otal":3799,"Ġ\".":3800,"==<":3801,"ĠCase":3802,"ived":3803,"Ġisn":3804,"aged":3805,"Ġhistory":3806,"olume":3807,"Ġthings":3808,"Ġthrough":3809,"ely":3810,"ĠPip":3811,"ĠPRO":3812,"ĠNode":3813,"ĠAl":3814,"ĠASCII":3815,"ĠLoc":3816,"Ġbeing":3817,"ends":3818,"Ġcould":3819,"Ġcommon":3820,"ĠDo":3821,"Ġloc":3822,"Ġlocation":3823,"trs":3824,"ĠFrozen":3825,"Ġexceptions":3826,"libc":3827,"velocity":3828,"Ġstored":3829,"mmy":3830,"Ġgraph":3831,"codecs":3832,"Ġlat":3833,"Ġlar":3834,"connection":3835,"ropri":3836,"Ġnamedtuple":3837,"Ġmak":3838,"Ġparsing":3839,"pression":3840,"Ġconn":3841,"Insensitive":3842,"RED":3843,"REN":3844,"Ġtextwrap":3845,"usr":3846,"ĠGridLayout":3847,"ayload":3848,"ĠVS":3849,"ĠVisual":3850,"ĠĠĠĠĠĠĠĠĠĠĠĠĠĠĠĠĠĠĠĠĠĠĠĠĠĠĠĠĠĠĠĠĠĠ":3851,"builders":3852,"imer":3853,"Ġcho":3854,"lative":3855,"PEC":3856,"Ġprints":3857,"Ġlanguages":3858,"Com":3859,"point":3860,"securitycon":3861,"itialize":3862,"Ġusername":3863,"Ġidna":3864,"SSLv":3865,"ENTI":3866,"clear":3867,"Ġmodel":3868,"pypa":3869,"messages":3870,"Ġ90":3871,"ĠStringIO":3872,"ĠFormat":3873,"Ġcallback":3874,"Provides":3875,"links":3876,"Ġspace":3877,"Ġoverride":3878,"ĠExt":3879,"wnd":3880,"Ġwriters":3881,"APP":3882,"APS":3883,"NotFound":3884,"ĠTypeError":3885,"result":3886,"ĠAdd":3887,"ĠAdded":3888,"Ġvarious":3889,"svn":3890,"Ġresolution":3891,"strip":3892,"Ġalias":3893,"Ġbinary":3894,">========================":3895,"assertEqual":3896,"ĠDefault":3897,"branch":3898,"Extension":3899,"Ġarchive":3900,"ĠShader":3901,"ĠISAPI":3902,"implementation":3903,"TimeZoneInfo":3904,"Ġtrailing":3905,"complete":3906,"ĠBytesIO":3907,"Caller":3908,"HookCaller":3909,"itespace":3910,"abstractmethod":3911,"Ġbuflen":3912,"Length":3913,"slots":3914,"ĠCaseInsensitive":3915,"ĠFrozenSet":3916,"ĠCaseInsensitiveDict":3917,"\"><":3918,"\".<":3919,"'),":3920,").\"\"\"<":3921,"+--------":3922,"30":3923,"40":3924,"98":3925,"Ar":3926,"Auth":3927,"ASCII":3928,"CD":3929,"Check":3930,"Doc":3931,"EV":3932,"Evt":3933,"Field":3934,"Gener":3935,"HKEY":3936,"HITE":3937,"My":3938,"RC":3939,"Source":3940,"SPEC":3941,"Te":3942,"Topic":3943,"Using":3944,"[[":3945,"css":3946,"candidates":3947,"eed":3948,"email":3949,"elocity":3950,"fsize":3951,"ian":3952,"long":3953,"mk":3954,"ps":3955,"pare":3956,"pha":3957,"range":3958,"sound":3959,"socks":3960,"tmp":3961,"tell":3962,"vity":3963,"ymb":3964,"Ġ}":3965,"Ġuti":3966,"requirement":3967,"respon":3968,"Ġtd":3969,"Ġtex":3970,"stamp":3971,"Ġauthor":3972,"tile":3973,"Ġfs":3974,"Ġctypes":3975,"Ġcandidates":3976,"Ġclear":3977,"anti":3978,"meth":3979,"Ġsm":3980,"Ġsin":3981,"Ġsafe":3982,"Ġrefer":3983,"Ġreport":3984,"Ġrelated":3985,"uring":3986,"urls":3987,"urity":3988,"__()<":3989,"Ġbise":3990,"lake":3991,"loop":3992,"logging":3993,"Ġneeded":3994,"edia":3995,"unittest":3996,"acity":3997,"Ġ'\\":3998,"Ġ#<":3999,"illow":4000,"Ġdefines":4001,"Ġanimation":4002,"stru":4003,"Ġvelocity":4004,"ateg":4005,"Ġkv":4006,"Ġknow":4007,"ĠPackage":4008,"ĠPep":4009,"ĠPopup":4010,"ĠNormalizedName":4011,"ocus":4012,"ĠAll":4013,"'''":4014,"irc":4015,"ĠĠĠĠĠĠĠĠĠĠĠĠĠ":4016,"ĠLegacyVersion":4017,"ization":4018,"cho":4019,"child":4020,"children":4021,"Ġ.-.":4022,"Ġever":4023,"ĠFilter":4024,"','":4025,"Ġ`-":4026,"__(<":4027,"Ġdec":4028,"uble":4029,"Ġstep":4030,"mmary":4031,"Ġwhole":4032,"Ġnamed":4033,"ixed":4034,"ckan":4035,"ĠHel":4036,"Ġmemory":4037,"REQU":4038,"Ġenc":4039,"ĠReader":4040,"Ġsess":4041,"Ġsequence":4042,"Ġpathlib":4043,"bose":4044,"moves":4045,"ĠImagePalette":4046,"achine":4047,"virt":4048,"SIZ":4049,"Ġappropri":4050,"Start":4051,"Ġ2001":4052,"Ġ2005":4053,"STR":4054,"redirect":4055,"ATA":4056,"template":4057,"ĠEllipse":4058,"available":4059,"Ġleft":4060,"Ġinstalling":4061,"Ġinstallation":4062,"Unsupported":4063,"UnparsedVersion":4064,"byte":4065,"Ġtemporary":4066,"Ġrequires":4067,"Ġmapping":4068,"Ġdependency":4069,"pypi":4070,"Ġaccept":4071,"Child":4072,"Ġallows":4073,"ĠStream":4074,"ĠStandard":4075,"TreeWalker":4076,"minor":4077,"Ġsplit":4078,"ĠInvalidSpecifier":4079,"Ġdisable":4080,"Ġspecify":4081,"ĠInstallationError":4082,"FIER":4083,"Ġfinal":4084,"Ġrepresentation":4085,"ĠEnvironment":4086,"OWN":4087,"nodes":4088,"ilters":4089,">''')<":4090,"duce":4091,"Ġmultiple":4092,"archive":4093,"ĠProxy":4094,"Ġargument":4095,"ogle":4096,"Ġvalidate":4097,"ACCESS":4098,"DIR":4099,"Add":4100,"Adapter":4101,"OpenSSL":4102,"INESE":4103,"PROJECT":4104,"strict":4105,"arkup":4106,"sdk":4107,"ĠBuildEnvironment":4108,"Codec":4109,"eroOr":4110,"Ġoccurred":4111,"vider":4112,"Ġcomment":4113,"jpg":4114,"EXTENSIONS":4115,"enderContext":4116,"specifiers":4117,"TouchApp":4118,"ĠBackend":4119,"Ġinterpreted":4120,"Ġvariables":4121,"Behavior":4122,"ĠCHINESE":4123,">~~~~~~~~~~~~~~":4124,"syncImage":4125,"operator":4126,"ĠValues":4127,"Ġpassed":4128,"ENTIFIER":4129,"EVENT":4130,"Ġbisect":4131,"Ġappropriate":4132,"eroOrMore":4133,"\"])<":4134,")?":4135,"++":4136,",'":4137,",)<":4138,"36":4139,"39":4140,"48":4141,">'":4142,"BE":4143,"CA":4144,"Can":4145,"Client":4146,"GRO":4147,"IMP":4148,"Lib":4149,"NS":4150,"OK":4151,"On":4152,"Priv":4153,"PCF":4154,"PORT":4155,"SH":4156,"SON":4157,"We":4158,"Wrapper":4159,"]))<":4160,"aw":4161,"awn":4162,"bio":4163,"before":4164,"cp":4165,"db":4166,"dit":4167,"ffix":4168,"first":4169,"grid":4170,"hot":4171,"ices":4172,"ipped":4173,"middle":4174,"oot":4175,"plugin":4176,"si":4177,"site":4178,"tal":4179,"ving":4180,"wrapp":4181,"zation":4182,"into":4183,"insert":4184,"session":4185,"Ġtitle":4186,"ster":4187,"hell":4188,"tilities":4189,"Ġfilters":4190,"Ġput":4191,"Ġcatch":4192,"animation":4193,"met":4194,"Ġsign":4195,"Ġsite":4196,"Ġsyntax":4197,"Ġrec":4198,"Ġreal":4199,"urrent":4200,"itz":4201,"Ġbit":4202,"Ġdone":4203,"Ġdigest":4204,"Ġduring":4205,"Ġinside":4206,"exe":4207,"Ġtokens":4208,"Ġtotal":4209,"ading":4210,"counter":4211,"ilar":4212,"pping":4213,"Ġ\"\\":4214,"===<":4215,"ĠCan":4216,"ĠSub":4217,"ĠSystem":4218,"ĠSNI":4219,"structure":4220,"fork":4221,"olver":4222,"Ġthose":4223,"ĠNo":4224,"ular":4225,"etch":4226,"ĠLook":4227,"Ġ22":4228,"Ġ23":4229,"tokens":4230,"ildcard":4231,"chr":4232,"Ġascii":4233,"partial":4234,"buf":4235,"Ġest":4236,"trans":4237,"ĠFactory":4238,"Ġexit":4239,"Ġexclude":4240,"Ġexpression":4241,"Ġdemo":4242,"Ġdescri":4243,"Ġdetermine":4244,"Ġdeprecated":4245,"Ġstates":4246,"Ġstick":4247,"Ġ*/<":4248,"Ġgo":4249,"Ġgenshi":4250,"Ġrc":4251,"Ġlines":4252,"ĠMutableMapping":4253,"Ġparticular":4254,"ough":4255,"Inter":4256,"agraph":4257,"ĠWhen":4258,"Ġitself":4259,"ĠUT":4260,"Ġsent":4261,"matically":4262,"Ġalgorithm":4263,"Ġuniversal":4264,"INFORM":4265,"scatter":4266,"scroll":4267,"Ġ30":4268,"ĠVector":4269,"formats":4270,"length":4271,"imilar":4272,"Ġweb":4273,"Ġ40":4274,"should":4275,"most":4276,"Ġprevent":4277,"Ġpreserve":4278,"Ġprevious":4279,"Ġfunctionality":4280,"ĠApplication":4281,"acter":4282,"ĠAndroid":4283,"ĠAnsi":4284,"Ġpyopenssl":4285,"Ġcontained":4286,"DES":4287,"Ġ50":4288,"ĠAuthors":4289,"ĠElement":4290,"Ġnecessary":4291,"Ġleast":4292,"argument":4293,"ĠDistutilsError":4294,"Ġresults":4295,"Ġadditional":4296,"DeprecationWarning":4297,"GetMemory":4298,"tail":4299,"Ġcontextmanager":4300,"iscri":4301,"Ġscripts":4302,"unknown":4303,"ĠConvert":4304,"methods":4305,"Process":4306,"SCAPS":4307,"pipe":4308,"Ġstatic":4309,"Ġnamespaces":4310,"StateWS":4311,"creen":4312,"{}.":4313,"Ġworks":4314,"ĠToml":4315,"Ġrepresenting":4316,"Ġcanonical":4317,"DDSCAPS":4318,"neth":4319,"gesture":4320,"dismiss":4321,"Ġcorrespon":4322,"Ġasyncio":4323,"ĠThere":4324,"Ġwindows":4325,"Ġdirectly":4326,"HTMLElements":4327,"multipart":4328,"Ġbinaries":4329,"ĠResponse":4330,"HEADERS":4331,"signed":4332,"ĠDEFAULT":4333,"Ġproble":4334,"installed":4335,"atched":4336,"ĠSUCCESS":4337,"Security":4338,"cfg":4339,"writers":4340,"Ġissue":4341,"Ġsaved":4342,"Ġfeatures":4343,"ĠRecycle":4344,"lorer":4345,"atisfied":4346,"Ġlater":4347,"virtualenv":4348,"SIZE":4349,"gridlayout":4350,"INFORMATION":4351,"#!":4352,"-(?":4353,"102":4354,"29":4355,"35":4356,"509":4357,"68":4358,"Acti":4359,"Cla":4360,"CAL":4361,"CONT":4362,"DK":4363,"Date":4364,"Distutils":4365,"Dem":4366,"Dialog":4367,"EL":4368,"FC":4369,"Game":4370,"GET":4371,"IRE":4372,"LY":4373,"Machine":4374,"Platform":4375,"POL":4376,"PPORT":4377,"SV":4378,"See":4379,"Th":4380,"Temp":4381,"TabbedPanel":4382,"User":4383,"WHITE":4384,"]])":4385,"`.":4386,"apt":4387,"body":4388,"btn":4389,"ca":4390,"cise":4391,"dtemp":4392,"effect":4393,"fs":4394,"fy":4395,"frozen":4396,"gic":4397,"hin":4398,"just":4399,"kind":4400,"none":4401,"native":4402,"pi":4403,"sist":4404,"satisfied":4405,"tar":4406,"uid":4407,"vs":4408,"warning":4409,"warnings":4410,"xis":4411,"yg":4412,"Ġ)":4413,"Ġetree":4414,"order":4415,"secon":4416,"search":4417,"Ġide":4418,"attribute":4419,"states":4420,"Ġawait":4421,"environment":4422,"encodings":4423,"develop":4424,"tim":4425,"Ġfrozen":4426,"Ġfallback":4427,"arsing":4428,"memory":4429,"Ġimports":4430,"Ġsure":4431,"Ġsrc":4432,"Ġrece":4433,"Ġremote":4434,"Ġown":4435,"__.__":4436,">#:":4437,"Ġnt":4438,"make":4439,"unch":4440,"unpack":4441,"Ġtoo":4442,"that":4443,"erson":4444,"esh":4445,"Ġ'/":4446,"ily":4447,"istlib":4448,"Ġmost":4449,"uess":4450,"ĠSpinner":4451,"Ġhal":4452,"Ġvs":4453,"Ġvert":4454,"Ġvery":4455,"old":4456,"ĠNO":4457,"ĠAc":4458,"ects":4459,"irs":4460,"Ġud":4461,"izer":4462,"ably":4463,"Ġ24":4464,"chunk":4465,"Ġloaded":4466,"Require":4467,"Requests":4468,"Registry":4469,"Reporter":4470,"ower":4471,"served":4472,"Ġep":4473,"Ġdecoder":4474,"pty":4475,"ublish":4476,"ternet":4477,"(\"_":4478,"ĠMe":4479,"ĠModule":4480,"ĠMulti":4481,"Ġmagic":4482,"iff":4483,"Index":4484,"ested":4485,"Exec":4486,"ĠReg":4487,"Ġuntil":4488,"okies":4489,"textinput":4490,"datastore":4491,"ĠInfinity":4492,"ĠĠĠĠĠĠĠĠĠĠĠĠĠĠĠĠĠĠĠĠ":4493,"ĠĠĠĠĠĠĠĠĠĠĠĠĠĠĠĠĠĠĠĠĠĠĠĠĠĠĠ":4494,"times":4495,"FileName":4496,"trigger":4497,"trics":4498,"curs":4499,"controller":4500,"End":4501,"shader":4502,"Ġcodes":4503,"Ġpresent":4504,"Ġcompile":4505,"Ġcompress":4506,"Ġruns":4507,"...<":4508,"Lookup":4509,"Ġ2002":4510,"Ġ2003":4511,"optional":4512,"oman":4513,"poses":4514,"Ġhttplib":4515,"msvc":4516,"Ġ867":4517,"Ġassume":4518,"Conflict":4519,"Ġidx":4520,"Ġdocumentation":4521,"modules":4522,"ALPH":4523,"Ġunicodedata":4524,"Ġposix":4525,"Ġconfigparser":4526,"Ġrequested":4527,"UTF":4528,"tingsWith":4529,"Ġdepth":4530,"2001":4531,"vely":4532,"riterion":4533,"Ġ60":4534,"Ġcalling":4535,"Ġcurrently":4536,"where":4537,"which":4538,"username":4539,"windows":4540,"Transport":4541,"after":4542,"Ġcomplex":4543,"NAError":4544,"OWS":4545,"Ġquery":4546,"Ġtermin":4547,"Ġcompatible":4548,"ConnectionError":4549,"oleanProperty":4550,"BUILD":4551,"OpenKey":4552,"Ġtables":4553,"Ġ\"\"<":4554,"idden":4555,"LACK":4556,"Valid":4557,"Ġperform":4558,"Ġ256":4559,">~~~~~~~~~~~~~~~~":4560,"parents":4561,"Ġutility":4562,"Ġexecutable":4563,"lusion":4564,"Ġmkdir":4565,"Session":4566,"managed":4567,"Ġindent":4568,"Ġbuiltin":4569,"stdout":4570,"Ġcreating":4571,"Ġdownload":4572,"ĠPongGame":4573,"Finder":4574,"CMS":4575,"TLSv":4576,"ĠZeroOrMore":4577,"help":4578,"Ġreplace":4579,"licitly":4580,"INDOWS":4581,"Waitable":4582,"Ġpackaging":4583,"executable":4584,"Ġsecond":4585,"Ġvendored":4586,"Ġletter":4587,"secure":4588,"Ġauthenti":4589,"Default":4590,"ampling":4591,"Ġconsidered":4592,"OPEN":4593,"ĠBooleanProperty":4594,"Ġ360":4595,"EXPR":4596,"Ġgraphics":4597,"Ġlarge":4598,"Ġmaking":4599,"Ġchoice":4600,"antization":4601,"ategory":4602,"structures":4603,"ĠLookup":4604,"Ġstickid":4605,"ĠUTF":4606,"Ġfrozenset":4607,"istlibException":4608,"##":4609,"'.<":4610,"(.":4611,")),":4612,"401":4613,"51":4614,"52":4615,"75":4616,">;":4617,">):<":4618,"Action":4619,"CL":4620,"Cre":4621,"Current":4622,"EM":4623,"Ellipse":4624,"Gesture":4625,"KV":4626,"Line":4627,"Man":4628,"MAN":4629,"Mixin":4630,"OUT":4631,"PS":4632,"Pos":4633,"Simple":4634,"Single":4635,"Var":4636,"WR":4637,"]+":4638,"`_":4639,"`,<":4640,"aj":4641,"audit":4642,"dar":4643,"fail":4644,"gt":4645,"gmail":4646,"has":4647,"mt":4648,"num":4649,"off":4650,"ph":4651,"payload":4652,"rus":4653,"rgb":4654,"sdist":4655,"sax":4656,"sorted":4657,"sampling":4658,"vcs":4659,"vision":4660,"wrapper":4661,"{<":4662,"ĠError":4663,"ercise":4664,"onstr":4665,"rees":4666,"separ":4667,"seud":4668,"stderr":4669,"lex":4670,"lection":4671,"leep":4672,"leted":4673,"Ġaxis":4674,"Ġfa":4675,"Ġfrag":4676,"Ġport":4677,"Ġpla":4678,"Ġpjoin":4679,"Ġpty":4680,"Ġca":4681,"Ġcap":4682,"Ġcore":4683,"ane":4684,"roman":4685,"Ġsimp":4686,"Ġret":4687,"Ġrelative":4688,"urs":4689,"urser":4690,"Ġword":4691,"Ġwait":4692,"Ġwalker":4693,"Ġwildcard":4694,"Ġbottom":4695,"---<":4696,"Ġinstru":4697,"last":4698,"entry":4699,"maked":4700,"Ġtool":4701,"cookie":4702,"aclass":4703,"ĠTree":4704,"Ġ',":4705,"Ġ'<":4706,"Ġ'--":4707,"Ġdefine":4708,"istic":4709,"Ġmisc":4710,"Ġmiddle":4711,"pper":4712,"Ġanything":4713,"Ġ\"{":4714,"Ġ\"\\\\":4715,"idual":4716,"ĠCandidate":4717,"ĠCCompiler":4718,"ĠCertificate":4719,"ives":4720,"ividual":4721,"extend":4722,"extract":4723,"raise":4724,"ĠSc":4725,"Ġhome":4726,"andbox":4727,"Ġthree":4728,"Ġknown":4729,"ĠPath":4730,"ĠNeg":4731,"ĠAr":4732,"ĠLa":4733,"ĠLanguage":4734,"ireq":4735,"pathname":4736,"Ġeasy":4737,"ĠFixed":4738,"Ġexact":4739,"Ġdeprecation":4740,"ĠOption":4741,"ĠOther":4742,"Ġstd":4743,"mmended":4744,"('%":4745,"Ġglibc":4746,"(\"-":4747,"(\".":4748,"indent":4749,"undle":4750,"Ġarea":4751,"vict":4752,"Ġdoct":4753,"ĠHashes":4754,"Ġconstant":4755,"Incremental":4756,"(),<":4757,"().__":4758,"REEN":4759,"RECT":4760,"REDI":4761,"Ġenviron":4762,"Ġencounter":4763,"ĠWin":4764,"ĠURI":4765,"Ġhashes":4766,"INTER":4767,"ĠGesture":4768,"ONE":4769,"ĠRenderContext":4770,"ĠRFC":4771,"Ġtransition":4772,"ared":4773,"Ġhead":4774,"sha":4775,"shape":4776,"ardware":4777,"Ġfilesystem":4778,"Ġcompiler":4779,"Ġarray":4780,"Ġabstract":4781,"SIT":4782,"ORD":4783,"Ġkeyword":4784,"Ġnewer":4785,"based":4786,"ATE":4787,"DEBUG":4788,"ĠEach":4789,"ĠEcho":4790,"ĠUnpack":4791,"ĠUnsupported":4792,"itial":4793,"Content":4794,"Ġ2019":4795,"ertifi":4796,"ICY":4797,"configuration":4798,"Config":4799,"Connect":4800,"callable":4801,"SSLContext":4802,"logo":4803,"Ġrot":4804,"Ġneedle":4805,"ĠKey":4806,"pyparsing":4807,"ĠDictCache":4808,"COMP":4809,"Ġoperation":4810,"peri":4811,"requested":4812,"Ġdirs":4813,"ĠConnection":4814,"newbuffer":4815,"umerate":4816,"TreeBuilder":4817,"contextlib":4818,"ĠBaseEnvironment":4819,"ART":4820,"Response":4821,"Ġmanage":4822,"static":4823,"Ġtuples":4824,"3339":4825,"THON":4826,"Ġinitialize":4827,"ĠTypeVar":4828,"ConnectionPool":4829,"RGBA":4830,"Ġtrio":4831,"Ġautomatically":4832,"Values":4833,"Ġhelpers":4834,"Ġentries":4835,"explorer":4836,"vertices":4837,"Ġdestination":4838,"Ġcomponents":4839,"BOM":4840,"ElementTree":4841,"Ġtarfile":4842,"Ġactual":4843,"Ġactually":4844,"Ġnormalize":4845,"hello":4846,"ABLE":4847,"USER":4848,"summary":4849,"wiki":4850,"Ġpurposes":4851,"ĠNameError":4852,"Ġ150":4853,"ĠDDPF":4854,"Ġseconds":4855,"Ġlimit":4856,"Ġskip":4857,"traceback":4858,"Ġmove":4859,"ĠCacheControl":4860,"Imperson":4861,"rotate":4862,"extras":4863,"ĠMAX":4864,"ĠRuntime":4865,"Operator":4866,"bzr":4867,"Ġsupplied":4868,"Ġmipmap":4869,"canonical":4870,"resolve":4871,"Ġagree":4872,"Ġdefinition":4873,"ĠPROTOCOL":4874,"ĠLocation":4875,"Ġlocale":4876,"NotFoundError":4877,"completeRead":4878,"Ġutilities":4879,"GROUND":4880,"wrappers":4881,"Interface":4882,"ĠElementTree":4883,"1024":4884,"Clause":4885,"POLICY":4886,"Ġvertex":4887,"Ġposixpath":4888,"ursery":4889,"makedirs":4890,"ĠCertificateError":4891,"REDIRECT":4892,"\"'.":4893,"'])<":4894,"(-":4895,"(''":4896,"+?":4897,".*":4898,".)<":4899,".\"<":4900,"13":4901,"37":4902,"38":4903,"512":4904,"95":4905,">--------":4906,">----------------":4907,"Audit":4908,"BL":4909,"BRA":4910,"BJECT":4911,"CCompiler":4912,"Desc":4913,"Database":4914,"DependencyWarning":4915,"EG":4916,"Fragment":4917,"FLA":4918,"Given":4919,"Handle":4920,"Iter":4921,"KN":4922,"Mode":4923,"NormalizedName":4924,"Ordered":4925,"Output":4926,"Pip":4927,"Pred":4928,"Que":4929,"RAS":4930,"SY":4931,"Sk":4932,"Size":4933,"Title":4934,"UST":4935,"VS":4936,"Win":4937,"XX":4938,"[/":4939,"ccompiler":4940,"direct":4941,"git":4942,"gment":4943,"gener":4944,"hg":4945,"her":4946,"jection":4947,"ks":4948,"mtree":4949,"microsoft":4950,"nor":4951,"pd":4952,"pg":4953,"plat":4954,"public":4955,"priv":4956,"pattern":4957,"picture":4958,"sin":4959,"socket":4960,"sume":4961,"td":4962,"tz":4963,"table":4964,"tty":4965,"twisted":4966,"vec":4967,"ym":4968,"ze":4969,"}\"<":4970,"Ġur":4971,"Ġjo":4972,"ores":4973,"inal":4974,"inject":4975,"erber":4976,"ones":4977,"onkey":4978,"reset":4979,"report":4980,"sen":4981,"setitem":4982,"Ġturn":4983,"Ġtake":4984,"Ġtask":4985,"Ġtags":4986,"Ġicon":4987,"Ġimplements":4988,"attributes":4989,"ley":4990,"enu":4991,"enneth":4992,"heels":4993,"tic":4994,"tif":4995,"Ġpol":4996,"Ġprop":4997,"Ġpending":4998,"Ġcra":4999,"Ġcop":5000,"Ġcamera":5001,"anis":5002,"array":5003,"Ġsort":5004,"Ġsid":5005,"Ġsdist":5006,"uristic":5007,"Ġwrap":5008,"Ġbc":5009,"Ġbar":5010,"Ġbdist":5011,"Ġdde":5012,"Ġdid":5013,"Ġdim":5014,"utc":5015,"uted":5016,"utes":5017,"lopen":5018,"lookup":5019,"lis":5020,"lide":5021,"lies":5022,"Ġnet":5023,"Ġnursery":5024,"machine":5025,"mapping":5026,"unicode":5027,"Ġ(...":5028,"cookies":5029,"rior":5030,"ĠTok":5031,"ĠTarget":5032,"Ġ'\"":5033,"Ġ##":5034,"ists":5035,"Ġ\",":5036,"termin":5037,"ĠCSI":5038,"Ġisdir":5039,"----+--------":5040,"ĠSupport":5041,"ĠSpec":5042,"ĠSimple":5043,"ĠSome":5044,"getattr":5045,"getcwd":5046,"Ġhand":5047,"Ġhack":5048,"Ġhigh":5049,"ĠIN":5050,"ĠIs":5051,"olation":5052,"ĠPo":5053,"ĠPer":5054,"ĠPack":5055,"ĠPlease":5056,"ĠPixel":5057,"ipedia":5058,"ical":5059,"eta":5060,"etags":5061,"async":5062,"Ġcookie":5063,"chard":5064,"chanis":5065,"ĠDB":5066,"ĠDLL":5067,"Ġeffect":5068,"Ġevict":5069,"Ġexercise":5070,"Ġdevice":5071,"ubImageFile":5072,"Ġstack":5073,"Ġrv":5074,"lick":5075,"Ġwhite":5076,"conn":5077,"ĠMo":5078,"ĠMar":5079,"ĠMap":5080,"ĠMixin":5081,"ĠMesh":5082,"uman":5083,"Ġmac":5084,"Ġpartial":5085,"Ġconven":5086,"Internal":5087,"()))<":5088,"Ġsha":5089,"Ġenti":5090,"ERT":5091,"ĠWheel":5092,"ĠWINDOWS":5093,"ĠUsed":5094,"ĠRegex":5095,"ĠReitz":5096,"Ġsegment":5097,"Ġunless":5098,"Ġraw":5099,"Ġsetting":5100,"``:":5101,"arned":5102,"INFO":5103,"screen":5104,"ĠGiven":5105,"ĠRG":5106,"readline":5107,"ibly":5108,"ĠĠĠĠĠĠĠĠĠĠĠĠĠĠĠĠĠĠĠĠĠ":5109,"Ġatt":5110,"Filename":5111,"Ġchildren":5112,"share":5113,"packager":5114,"Ġbuilding":5115,"Ġcomparison":5116,"ified":5117,"CKET":5118,"Cookie":5119,"StubImageFile":5120,"layer":5121,"Ġ2008":5122,"Ġdefaults":5123,"network":5124,"Ġtesting":5125,"Container":5126,"Unknown":5127,"aste":5128,"ANCE":5129,"ANUM":5130,"Ġposition":5131,"Ġ|=":5132,"Ġtreebuilder":5133,"Ġfolder":5134,"ĠSettingsWith":5135,"MAG":5136,"pypy":5137,"pypirc":5138,"alization":5139,">.+?":5140,"Ġ96":5141,"Ġfollows":5142,"Ġoffs":5143,"ignore":5144,"ĠDeprecationWarning":5145,"Ġevents":5146,"ĠeventLog":5147,"ĠJPEG":5148,"EXTRA":5149,"EXTRAS":5150,"Provider":5151,"whl":5152,"rects":5153,"ĠnamespaceHTMLElements":5154,"StateMachine":5155,"rolling":5156,"FIRE":5157,"IDENTIFIER":5158,"dependencies":5159,"Ġplatforms":5160,"ĠEnsure":5161,"DDSD":5162,"need":5163,"Ġmatching":5164,"Resolver":5165,"ĠCallableOperator":5166,"Ġmsgpack":5167,"interval":5168,"440":5169,"display":5170,"dispose":5171,"ativeInfinity":5172,"ĠTestApp":5173,"contents":5174,"ACL":5175,"DIST":5176,"ressed":5177,"ĠRequestsDependencyWarning":5178,"Ġbetter":5179,"Installation":5180,"Ġchanges":5181,"ĠSpecifierSet":5182,"PROTOCOL":5183,"Ġaliases":5184,"Ġparameters":5185,"FILE":5186,"Ġchunksize":5187,"Ġentry":5188,"expected":5189,"Ġschemes":5190,"lanchard":5191,"Ġmkdtemp":5192,"ĠTransformError":5193,"Windows":5194,"ĉĉĉ":5195,"Ġdummy":5196,"ĠParse":5197,"ĠPongApp":5198,"ParseError":5199,"ĠConfigParser":5200,"ĠĠĠĠĠĠĠĠĠĠĠĠĠĠĠĠĠĠĠĠĠĠĠĠĠĠĠĠ":5201,">`_":5202,"PTC":5203,"PTION":5204,"Ġverbose":5205,"airs":5206,"wikipedia":5207,"tocolError":5208,"ĠDDSD":5209,">============<":5210,">/*":5211,"PAREN":5212,"Ġdrawing":5213,"LOCAL":5214,"TIME":5215,"ĠLoad":5216,"cordion":5217,"hooks":5218,"Ġrecommended":5219,"Preserve":5220,"ĠRaises":5221,"alias":5222,"Ġseparate":5223,"BACKEND":5224,"ĠMyPaintWidget":5225,"Details":5226,"certs":5227,"Comment":5228,"RCCommand":5229,"TeX":5230,"Ġsmall":5231,"REQUIRE":5232,"Ġdisabled":5233,">~~~~~~~~~~~~~~<":5234,"metaclass":5235,"Ġwebencodings":5236,"Ġproblem":5237,"ĠRecycleView":5238,"#!/":5239,"PlatformError":5240,"PPORTED":5241,"WaitableT":5242,"Ġauthentication":5243,"OPENSSL":5244,"separated":5245,"ĠTreeWalker":5246,"ĠNegativeInfinity":5247,"resolvelib":5248,"BRACKET":5249,"KNOWN":5250,"Predicate":5251,"ĠTokens":5252,"REQUIREMENT":5253,"!\")<":5254,"\"))<":5255,"'*":5256,"'\\":5257,"'}<":5258,")\"<":5259,")\"),<":5260,"+<":5261,".')<":5262,".\")<":5263,"199":5264,"223":5265,"300":5266,"400":5267,"50":5268,"55":5269,"59":5270,"88":5271,":\\":5272,"Basic":5273,"BLACK":5274,"CRE":5275,"Custom":5276,"Category":5277,"ELL":5278,"Edit":5279,"FR":5280,"Font":5281,"Fore":5282,"Fbo":5283,"Frag":5284,"Grid":5285,"HO":5286,"IST":5287,"KAN":5288,"Le":5289,"Map":5290,"Marker":5291,"MutableMapping":5292,"Page":5293,"PUT":5294,"Raw":5295,"Root":5296,"SER":5297,"Spec":5298,"Socket":5299,"Some":5300,"Screen":5301,"Target":5302,"Use":5303,"When":5304,"YK":5305,"YELL":5306,"bad":5307,"clib":5308,"custom":5309,"dan":5310,"ders":5311,"drop":5312,"dImageFile":5313,"draw":5314,"database":5315,"fh":5316,"fre":5317,"ftime":5318,"fres":5319,"feature":5320,"fetch":5321,"gers":5322,"gument":5323,"gzip":5324,"gacy":5325,"hal":5326,"hwnd":5327,"ike":5328,"imat":5329,"imaging":5330,"kw":5331,"ky":5332,"kit":5333,"lder":5334,"nad":5335,"ners":5336,"nos":5337,"oma":5338,"pat":5339,"pull":5340,"patched":5341,"racti":5342,"tract":5343,"total":5344,"uc":5345,"ug":5346,"uments":5347,"uses":5348,"var":5349,"vate":5350,"vant":5351,"volume":5352,"wind":5353,"way":5354,"will":5355,"writer":5356,"xz":5357,"zA":5358,"}{":5359,"Ġ,<":5360,"ĠQu":5361,"ornad":5362,"inay":5363,"inery":5364,"insensitive":5365,"erver":5366,"erome":5367,"mpath":5368,"Ġireq":5369,"stit":5370,"stra":5371,"stalled":5372,"let":5373,"Ġam":5374,"role":5375,"ename":5376,"hex":5377,"desc":5378,"Ġfd":5379,"Ġflo":5380,"Ġfname":5381,"Ġfew":5382,"Ġfast":5383,"Ġfunc":5384,"Ġpot":5385,"Ġproperty":5386,"Ġpep":5387,"Ġcause":5388,"Ġcertificate":5389,"anim":5390,"ancy":5391,"arc":5392,"ges":5393,"Ġimporting":5394,"Ġsw":5395,"Ġsimilar":5396,"Ġreactor":5397,"Ġrespon":5398,"Ġreserved":5399,"Ġrecurs":5400,"Ġow":5401,"Ġolder":5402,"Ġwere":5403,"Ġwarn":5404,"Ġwrapp":5405,"Ġwish":5406,"Ġwalk":5407,"ittle":5408,"Ġbla":5409,"Ġbig":5410,"Ġbound":5411,"Ġblock":5412,"Ġbtn":5413,"Ġbasic":5414,"Ġdst":5415,"Ġdry":5416,"Ġdirective":5417,"ctVersion":5418,"exer":5419,"exclude":5420,"lag":5421,"lier":5422,"Ġnum":5423,"Ġnative":5424,"Ġnormalized":5425,"master":5426,"uninstall":5427,"this":5428,"rim":5429,"ĠTra":5430,"ilers":5431,"Ġmuch":5432,"Ġmanager":5433,"isdir":5434,"isible":5435,"iserver":5436,"idna":5437,"ĠClear":5438,"ĠCKAN":5439,"Ġisapi":5440,"ĠSocket":5441,"ĠSaj":5442,"strftime":5443,"getTreeBuilder":5444,"Ġhue":5445,"Ġhost":5446,"ĠIO":5447,"ather":5448,"ĠPillow":5449,"ĠNAME":5450,"oci":5451,"ĠAlso":5452,"ĠAsyncImage":5453,"ipFile":5454,"Ġ-=":5455,"ĠĠĠĠĠĠĠĠĠĠĠĠĠĠ":5456,"asp":5457,"ecnos":5458,"Ġupper":5459,"Ġ14":5460,"Ġ1000":5461,"Ġ21":5462,"endent":5463,"tool":5464,"chinery":5465,"field":5466,"ĠDec":5467,"ĠDirective":5468,"ĠDependencyWarning":5469,"Returns":5470,"pathsep":5471,"~~~<":5472,"transport":5473,"transition":5474,"',)<":5475,"spect":5476,"Ġstill":5477,"Ġstandalone":5478,"queue":5479,"Ġ*=":5480,"Ġgu":5481,"Ġgame":5482,"Ġgrid":5483,"Ġwhitespace":5484,"Ġ[]":5485,"ĠMax":5486,"ĠMarker":5487,"Ġmade":5488,"osx":5489,"Ġparsers":5490,"ĠHe":5491,"ĠHandle":5492,"ĠHidden":5493,"Ġconflict":5494,"()]<":5495,"Ġgetp":5496,"Ġmemb":5497,"Ġmechanis":5498,"REG":5499,"ests":5500,"ĠThey":5501,"ĠUN":5502,"ENCO":5503,"Ġhashed":5504,"ĠRequire":5505,"ĠReference":5506,"Ġsen":5507,"Ġsection":5508,"Ġsecurity":5509,"Ġselect":5510,"Ġsegments":5511,"Ġsend":5512,"matter":5513,"lists":5514,"Ġtextinput":5515,"imetypes":5516,"ĠGIMP":5517,"ĠRetry":5518,"ĠVinay":5519,"dataexplorer":5520,"readers":5521,"ĠIncremental":5522,"Ġ``.":5523,"FileError":5524,"FileAttributes":5525,"Ġchann":5526,"trictVersion":5527,"Ġhex":5528,"Ġ400":5529,"mount":5530,"SET":5531,"Ġadding":5532,"Ġadjust":5533,"Ġbuildsys":5534,"Ġreads":5535,"Ġpreset":5536,"Ġschema":5537,"Ġabspath":5538,"Ġopacity":5539,"umbn":5540,"Ġ2009":5541,"Ġtimedelta":5542,"omb":5543,"STEM":5544,"netloc":5545,"Ġpyl":5546,"Ġ508":5547,"tempfile":5548,"images":5549,"aving":5550,"ITS":5551,"epoch":5552,"Contains":5553,"Ġ2016":5554,"Ġchecking":5555,"Ġless":5556,"Ġassoci":5557,"Ġiterator":5558,"ĠDistutilsExec":5559,"ĠDistutilsPlatformError":5560,"Ġupdated":5561,"Unless":5562,"Unavailable":5563,"reqs":5564,"CHEME":5565,"Ġround":5566,"cachecontrol":5567,"rypo":5568,"Ġserialize":5569,"GetTemp":5570,"Ġcached":5571,"')[":5572,"')):<":5573,"MACH":5574,"\\\\%":5575,"Ġ97":5576,"Ġ98":5577,"Ġacross":5578,"Ġcharacter":5579,"Ġimplementing":5580,"rcparser":5581,"compatibility":5582,"VERBO":5583,"sysconfig":5584,"Too":5585,"Based":5586,"SCRI":5587,"events":5588,"Ġgeneral":5589,"Ġbounce":5590,"Ġdifference":5591,"Transition":5592,"minimum":5593,"ĠLicensed":5594,"ĠCommandError":5595,"[:-":5596,"gnized":5597,"Ġfinding":5598,"iteral":5599,"ARN":5600,"IIS":5601,"UNKNOWN":5602,"ĠProtocolError":5603,"Ġextensions":5604,"Note":5605,"finder":5606,"ACY":5607,"OLD":5608,"PYOPENSSL":5609,"Ġhandlers":5610,"NODE":5611,"Options":5612,"Ġlinks":5613,"ListProperty":5614,"ski":5615,"ĠOrderedSet":5616,"EventLog":5617,"ĠHTMLParser":5618,"Ġ\"\".":5619,"Ġautoclass":5620,"Ġalign":5621,"ĠResolution":5622,"arkers":5623,"Ġsuffix":5624,"Ġresources":5625,"Ġhandles":5626,"InformationPolicy":5627,"selected":5628,"FORMAT":5629,"xxxx":5630,"ĠDefine":5631,"HeaderDict":5632,"Ġsspiserver":5633,"ALLOW":5634,"normalize":5635,"Ġcreates":5636,"Ġretrie":5637,"active":5638,"Ġlogical":5639,"Ġrows":5640,"Domain":5641,"Ġcalls":5642,"Ġprobably":5643,"Ġframework":5644,"NAMES":5645,"Access":5646,"Account":5647,"Ġgroups":5648,"DOUT":5649,"Nodes":5650,"WaitFor":5651,"Ġpurpose":5652,"Formatter":5653,"versation":5654,"atches":5655,"ĠtrueColor":5656,"2017":5657,"zzzz":5658,"Ġpatterns":5659,"ĠTextInput":5660,"Ġattempting":5661,"Ġidentifi":5662,"rpm":5663,"Ġincluded":5664,"ĠPoolManager":5665,"MODES":5666,"yyyy":5667,"ĠCustomError":5668,"Ġ180":5669,"ĠPyPIRCCommand":5670,"LsaQuery":5671,"google":5672,"Ġpickle":5673,"ĠHowever":5674,"Ġcontributor":5675,"FILENO":5676,"FILENAME":5677,"Ġcalculate":5678,"CUBE":5679,"liner":5680,"realpath":5681,"Ġsliders":5682,"ĠspaceCharacters":5683,"ĠExtension":5684,"ymbol":5685,"Ġauthority":5686,"Ġsince":5687,"ĠPackageFinder":5688,"Ġeverything":5689,"ckanext":5690,"Privile":5691,"hotos":5692,"plugins":5693,"Ġbitmap":5694,"chron":5695,"Ġcorresponding":5696,"Thread":5697,"sistent":5698,"ygon":5699,"Ġidea":5700,"Ġntsecuritycon":5701,"ublisher":5702,"OpenKeyEx":5703,"Creates":5704,"MANY":5705,"failUnless":5706,"aneous":5707,"Ġsimply":5708,"Ġencountered":5709,"ĠCacheControlAdapter":5710,"ĠRuntimeError":5711,"Ġagreement":5712,"FLAGS":5713,"SYSTEM":5714,"normpath":5715,"Ġjob":5716,"tific":5717,"Ġpolygon":5718,"Ġproper":5719,"Ġcrash":5720,"Ġ(...)":5721,"riority":5722,"ĠmacOS":5723,"WaitableTimer":5724,"FboFloatLayout":5725,"YELLOW":5726,"omas":5727,"ornado":5728,"straint":5729,"Ġfloor":5730,"Ġpotenti":5731,"ĠTraceback":5732,"ĠSajip":5733,"ĠReferenceListProperty":5734,"ĠDistutilsExecError":5735,"MACHINE":5736,"VERBOSE":5737,"LsaQueryInformationPolicy":5738,"CUBEMAP":5739,"#]*)":5740,"'m":5741,")\"":5742,"))":5743,")+":5744,")(\"":5745,")')<":5746,")-(?":5747,".),<":5748,"/#":5749,"41":5750,"45":5751,"467":5752,"74":5753,":]":5754,":]<":5755,"=.":5756,"={":5757,">\".":5758,"AU":5759,"As":5760,"ATT":5761,"Abstract":5762,"Before":5763,"Body":5764,"Copyright":5765,"Called":5766,"Close":5767,"Candidates":5768,"Dis":5769,"DIT":5770,"Directives":5771,"DLL":5772,"EB":5773,"ETT":5774,"Fa":5775,"From":5776,"Function":5777,"FFIX":5778,"GA":5779,"GACY":5780,"How":5781,"HOLD":5782,"IME":5783,"IVE":5784,"Language":5785,"Like":5786,"Multi":5787,"Microsoft":5788,"Net":5789,"Null":5790,"OM":5791,"Other":5792,"Offset":5793,"Pack":5794,"Print":5795,"Password":5796,"SK":5797,"TD":5798,"TL":5799,"Table":5800,"Take":5801,"UE":5802,"Up":5803,"Url":5804,"Utilities":5805,"WA":5806,"Warned":5807,"[^":5808,"][":5809,"`.\"\"\"<":5810,"aken":5811,"bing":5812,"bul":5813,"bottom":5814,"baz":5815,"cl":5816,"cId":5817,"cms":5818,"closed":5819,"duct":5820,"dom":5821,"ear":5822,"eli":5823,"fr":5824,"font":5825,"gate":5826,"gress":5827,"hl":5828,"hkey":5829,"hood":5830,"high":5831,"ied":5832,"ience":5833,"lings":5834,"math":5835,"mtexture":5836,"nam":5837,"neg":5838,"null":5839,"pure":5840,"pairs":5841,"qrt":5842,"ring":5843,"rup":5844,"raries":5845,"raction":5846,"sm":5847,"sli":5848,"simple":5849,"tex":5850,"tls":5851,"task":5852,"uhl":5853,"vary":5854,"walk":5855,"wheels":5856,"zier":5857,"},":5858,"}}<":5859,"}({":5860,"ĠQ":5861,"Ġ~":5862,"Ġel":5863,"Ġ~~~~~~~~":5864,"Ġescape":5865,"ining":5866,"initialize":5867,"onath":5868,"rec":5869,"reew":5870,"reference":5871,"reactor":5872,"seq":5873,"Ġtk":5874,"Ġtimer":5875,"Ġtaken":5876,"Ġie":5877,"Ġix":5878,"standalone":5879,"Ġabo":5880,"Ġacti":5881,"enum":5882,"heet":5883,"deprecation":5884,"Ġffi":5885,"Ġfix":5886,"Ġfails":5887,"Ġpad":5888,"Ġpop":5889,"Ġproperties":5890,"Ġpseud":5891,"Ġpracti":5892,"Ġcla":5893,"Ġcent":5894,"Ġcid":5895,"Ġcross":5896,"metrics":5897,"Ġsolution":5898,"Ġsampl":5899,"Ġsvg":5900,"Ġsleep":5901,"Ġsqrt":5902,"Ġreally":5903,"ĠreStructuredText":5904,"Ġob":5905,"Ġomit":5906,"__)":5907,"__):<":5908,"ssibly":5909,"Ġball":5910,"Ġbind":5911,"Ġbox":5912,"Ġdialog":5913,"Ġdiscri":5914,"cell":5915,"utco":5916,"Ġinit":5917,"Ġinser":5918,"Ġinstan":5919,"Ġincre":5920,"Ġinher":5921,"lot":5922,"lias":5923,"light":5924,"lihood":5925,"Ġnie":5926,"Ġnested":5927,"mac":5928,"machinery":5929,"lsl":5930,"Ġ(``":5931,"Ġ({}":5932,"adient":5933,"riend":5934,"ĠTabbedPanel":5935,"ĠTrie":5936,"Ġ'{":5937,"Ġ'')<":5938,"Ġmy":5939,"Ġmimetypes":5940,"iso":5941,"ished":5942,"iscell":5943,"yph":5944,"oted":5945,"idx":5946,"Ġfork":5947,"ĠCA":5948,"ĠCode":5949,"ĠCallback":5950,"ĠComb":5951,"ĠSch":5952,"ĠSap":5953,"ĠSim":5954,"ĠSafe":5955,"ĠSvg":5956,"Ġhapp":5957,"Ġhwnd":5958,"Ġvcs":5959,"named":5960,"ĠIPTC":5961,"olds":5962,"olaris":5963,"ategor":5964,"Ġthresh":5965,"opMatrix":5966,"optim":5967,"uptools":5968,"updated":5969,"ĠPO":5970,"ĠPty":5971,"ĠPush":5972,"ĠPopMatrix":5973,"ĠAN":5974,"ĠAs":5975,"ĠAuth":5976,"icates":5977,"ird":5978,"ĠLexer":5979,"ech":5980,"Ġuv":5981,"Ġuid":5982,"Ġbest":5983,"formance":5984,"abon":5985,"Ġcoord":5986,"ysize":5987,"ĠDirect":5988,"ĠDistlibException":5989,"Represent":5990,"setter":5991,"setting":5992,"setParse":5993,"pathitems":5994,"Ġask":5995,"parti":5996,"paragraph":5997,"Ġei":5998,"Ġear":5999,"Ġeval":6000,"true":6001,"Ġexternal":6002,"Ġexperi":6003,"ĠBU":6004,"ĠBad":6005,"library":6006,"spawn":6007,"__(*":6008,"Ġdecoding":6009,"Ġdeleted":6010,"ĠOP":6011,"ĠOver":6012,"ĠOutput":6013,"Ġstub":6014,"Ġstore":6015,"Ġstuff":6016,"Ġgr":6017,"Ġguess":6018,"licate":6019,"licked":6020,"pyvenv":6021,"Ġlxml":6022,"Ġlittle":6023,"Ġtransp":6024,"Ġ[('":6025,"ĠMan":6026,"ĠMac":6027,"ĠMart":6028,"ĠMAR":6029,"ĠMetadata":6030,"indices":6031,"Ġmaint":6032,"Ġmask":6033,"Ġpardir":6034,"vie":6035,"prep":6036,"ouse":6037,"ĠHart":6038,"ntsecuritycon":6039,"Ġcancel":6040,"Ind":6041,"IncompleteRead":6042,"Installed":6043,"()`,":6044,"()``,":6045,"Ġproduce":6046,"Ġshape":6047,"ĠgetLogger":6048,"READ":6049,"Ġenable":6050,"ĠWord":6051,"ĠWork":6052,"ĠUsing":6053,"ĠRegistry":6054,"ĠReporter":6055,"Ġsec":6056,"Ġsearch":6057,"apes":6058,"Ġuniform":6059,"``,<":6060,"winerror":6061,"schema":6062,"using":6063,"Ġ{!":6064,"ĠGD":6065,"ONG":6066,"readthe":6067,"ĠIndex":6068,"ĠInternet":6069,"iblings":6070,"areMixin":6071,"ĠĠĠĠĠĠĠĠĠĠĠĠĠĠĠĠĠ":6072,"Ġattr":6073,"Ġattrs":6074,"proc":6075,"timeout":6076,"timedelta":6077,"============":6078,"loads":6079,"Ġsound":6080,"contains":6081,"Encoding":6082,"boolean":6083,"Ġ%(":6084,"ĠstringStart":6085,"ĠstringEnd":6086,"Ġlists":6087,"ardless":6088,"packed":6089,"Ġbuilder":6090,"Ġreading":6091,"Ġpress":6092,"Ġpreferred":6093,"Ġprepare":6094,"Ġable":6095,"ĠrunTouchApp":6096,"validator":6097,"Ġapplied":6098,"Std":6099,"Stack":6100,"Store":6101,"Ġsupporting":6102,"Loop":6103,"Ġkeycode":6104,"anges":6105,"Ġsubclasses":6106,"tempt":6107,"ĠEvent":6108,"Ġ2014":6109,"Ġ2015":6110,"Ġ86":6111,"column":6112,"Ġids":6113,"model":6114,"ALETT":6115,"arguments":6116,"ĠDistutilsFileError":6117,"processing":6118,"TextFor":6119,"Unpack":6120,"Unicode":6121,"runTouchApp":6122,"Ġadds":6123,"Ġcollect":6124,"spaceCharacters":6125,"ynam":6126,"ynchron":6127,"ROL":6128,"ROID":6129,"widgets":6130,"sedVersion":6131,"lineView":6132,"Ġzlib":6133,"Ġzero":6134,"Ġpost":6135,"1252":6136,"mbed":6137,"rypt":6138,"Ġserializer":6139,"DecodeError":6140,"')]<":6141,"ĠKenneth":6142,"Ġbug":6143,"Ġdepend":6144,"URI":6145,"Ġglobally":6146,"Ġglobals":6147,"Chunk":6148,"Ġallownone":6149,"ĠConnect":6150,"ĠConstraint":6151,"compatible":6152,"Implementation":6153,"ĠStudio":6154,"ĠJo":6155,"ĠJonath":6156,"Proxy":6157,"ĠVersionPredicate":6158,"Ġstatemachine":6159,"umeral":6160,"ideo":6161,"while":6162,"whitespace":6163,"Ġgenerator":6164,"'],<":6165,"Trans":6166,"ĠInvalidHeader":6167,"Ġworking":6168,"[:]":6169,"ĠTools":6170,"And":6171,"LEGACY":6172,"dependent":6173,"Ġfinalize":6174,"iteritems":6175,"Comparison":6176,"CompareMixin":6177,"NAA":6178,"gram":6179,"scriptor":6180,":`~.":6181,"DDPF":6182,"Ġterm":6183,"Ġwriting":6184,"PyGetMemory":6185,"player":6186,"disable":6187,"Ġwheels":6188,"behavior":6189,"errno":6190,"ĠXV":6191,"ĠXPM":6192,"ĠXXX":6193,"Ġwidgets":6194,"PYTHON":6195,"sensitively":6196,"Ġimg":6197,"Ġrandint":6198,"editable":6199,"svc":6200,"anced":6201,"Ġtrigger":6202,"Ġtriangle":6203,"Ġresolve":6204,"Ġ128":6205,"ĠWeb":6206,"Ġoriginally":6207,"Raises":6208,"Ġsuc":6209,"exclusion":6210,"Ġ255":6211,"cased":6212,"ĠFileNotFoundError":6213,"Ġchunks":6214,">====================":6215,"termines":6216,"Ġencoded":6217,"Transforms":6218,"Ġmkpath":6219,"Ġaccessible":6220,"Select":6221,"wistd":6222,"Ġindividual":6223,"cycle":6224,"fully":6225,"refresh":6226,"Ġsspicon":6227,"TomlPreserve":6228,"ElementInterface":6229,"HASH":6230,"alendar":6231,"stdin":6232,"stdlib":6233,"Ġloops":6234,"usersite":6235,"ĠConfiguration":6236,"progress":6237,"CMYK":6238,"SUCCESS":6239,"SUFFIX":6240,"TRUST":6241,"ANDROID":6242,"ĠoriginalTextFor":6243,"DOCU":6244,"ReclineView":6245,"Ġregular":6246,"Ġregardless":6247,"METHODS":6248,"bitbuffer":6249,"Ġreleased":6250,"maxsize":6251,"EnumKey":6252,"EnumValue":6253,"Ġidentify":6254,"webp":6255,"Importer":6256,"azabon":6257,"ĠSTART":6258,"ĠAbstractDistribution":6259,"ĠOnly":6260,"COMMA":6261,"Ġtzinfo":6262,"threading":6263,"('.')":6264,"dumps":6265,"Ġcorrectly":6266,"Byte":6267,"Scheme":6268,"ĠIDNAError":6269,"Ġbeginning":6270,"Ġcontributed":6271,"ĠMyPaintApp":6272,"TEXTURE":6273,"Ġinvok":6274,"Ġ`-'":6275,"Ġsteps":6276,"ĠHelper":6277,"Ġmemoryview":6278,"Ġencbuf":6279,"STRING":6280,"ĠBackendInvalid":6281,"ĠBackendUnavailable":6282,"CACHE":6283,"Ġestdt":6284,"translate":6285,"ProcessError":6286,"CONTENT":6287,"DistutilsError":6288,"seconds":6289,"ĠNOT":6290,"ĠAccordion":6291,"chunks":6292,"ĠInfinityType":6293,"(.*)":6294,"raises":6295,"ĠOtherwise":6296,"ĠConnectionError":6297,"staticmethod":6298,"Impersonate":6299,"pdh":6300,"sumed":6301,"Ġurlopen":6302,"reporting":6303,"Ġnetloc":6304,"Ġhandled":6305,"Ġentire":6306,"Ġrawmode":6307,"MAGIC":6308,">.+?)-(?":6309,"needle":6310,"FragColor":6311,"gumentParser":6312,"halfres":6313,"imated":6314,"stitute":6315,"fields":6316,"ĠHiddenText":6317,"umbnail":6318,"Ġassociated":6319,"BasedCompareMixin":6320,"ALLOWED":6321,"failUnlessEqual":6322,"Ġpotentially":6323,"AUDIT":6324,"bulky":6325,"cIdas":6326,"purelib":6327,"uhlman":6328,"varying":6329,"Ġabove":6330,"Ġcentre":6331,"utcoffset":6332,"Ġinstanti":6333,"Ġ({})":6334,"riendly":6335,"iscellaneous":6336,"ĠCombine":6337,"ĠSapin":6338,"ĠSimon":6339,"Ġhappens":6340,"ategories":6341,"uptoolsDeprecationWarning":6342,"ĠPushMatrix":6343,"Ġcoordin":6344,"setParseAction":6345,"ĠMARKER":6346,"ĠHartley":6347,"readthedocs":6348,"ALETTE":6349,"ĠJonathan":6350,"SUFFIXES":6351,"DOCUMENT":6352,"!)<":6353,"\"^":6354,"\"}<":6355,"\"],":6356,"'%":6357,"'^":6358,"(%":6359,"(('":6360,")'":6361,")*":6362,")'<":6363,")).":6364,",))<":6365,"-]":6366,"/',":6367,"1000":6368,"24":6369,"31":6370,"56":6371,"500":6372,":\"":6373,":',":6374,"</":6375,"=\",":6376,"=['":6377,"='''":6378,">\"":6379,">=":6380,">\\":6381,">|":6382,">.<":6383,"AF":6384,"AG":6385,"Al":6386,"Author":6387,"All":6388,"AsyncImage":6389,"BY":6390,"Bar":6391,"Col":6392,"Docutils":6393,"DING":6394,"Draw":6395,"EE":6396,"ELS":6397,"EOF":6398,"FIN":6399,"Full":6400,"Frame":6401,"GC":6402,"GridLayout":6403,"IR":6404,"It":6405,"IFF":6406,"JSON":6407,"KG":6408,"KEN":6409,"LP":6410,"La":6411,"Loc":6412,"LINE":6413,"LegacyVersion":6414,"LUM":6415,"Mo":6416,"Mod":6417,"MIN":6418,"Markup":6419,"Of":6420,"OBJECT":6421,"PL":6422,"PER":6423,"PRI":6424,"Picture":6425,"Publisher":6426,"Roman":6427,"Sh":6428,"Show":6429,"TC":6430,"Tuple":6431,"Try":6432,"Types":6433,"Then":6434,"There":6435,"Util":6436,"VP":6437,"VIL":6438,"VAL":6439,"Will":6440,"Wheel":6441,"What":6442,"WARN":6443,"WEB":6444,"XIO":6445,"YAN":6446,"]=":6447,"]):<":6448,"]),":6449,"ama":6450,"audio":6451,"bl":6452,"ble":6453,"border":6454,"cor":6455,"cer":6456,"cut":6457,"cid":6458,"crypto":6459,"crt":6460,"criterion":6461,"certifi":6462,"clicked":6463,"dm":6464,"dn":6465,"dif":6466,"dns":6467,"discri":6468,"eof":6469,"ears":6470,"fragment":6471,"fallback":6472,"factor":6473,"fsrc":6474,"fish":6475,"flake":6476,"focus":6477,"gz":6478,"hop":6479,"hind":6480,"hashes":6481,"ico":6482,"ka":6483,"ler":6484,"lar":6485,"mmap":6486,"markers":6487,"oser":6488,"oke":6489,"oses":6490,"pe":6491,"pl":6492,"prop":6493,"ply":6494,"pboard":6495,"priority":6496,"rb":6497,"rac":6498,"rong":6499,"sval":6500,"such":6501,"sheet":6502,"theme":6503,"ump":6504,"ued":6505,"vin":6506,"vector":6507,"vanced":6508,"wg":6509,"xpt":6510,"xies":6511,"yml":6512,"})<":6513,"Ġed":6514,"Ġes":6515,"Ġet":6516,"ĠEXTENSION":6517,"Ġroman":6518,"ĠEXTRA":6519,"inux":6520,"ertion":6521,"erred":6522,"erify":6523,"reco":6524,"retri":6525,"repository":6526,"references":6527,"Ġtb":6528,"Ġtwisted":6529,"Ġtrees":6530,"Ġima":6531,"Ġimm":6532,"atur":6533,"atus":6534,"aturation":6535,"stand":6536,"stop":6537,"Ġast":6538,"Ġaug":6539,"Ġfall":6540,"Ġfactor":6541,"Ġflag":6542,"alys":6543,"alpha":6544,"Ġpi":6545,"Ġpat":6546,"Ġpriv":6547,"Ġpsd":6548,"Ġplt":6549,"Ġpower":6550,"Ġcare":6551,"Ġcallable":6552,"Ġclosed":6553,"Ġcriterion":6554,"Ġcalendar":6555,"ank":6556,"memb":6557,"ged":6558,"gether":6559,"Ġsuppress":6560,"Ġreset":6561,"Ġwrong":6562,"__))<":6563,"__),":6564,"itch":6565,"itStack":6566,"Ġbrow":6567,"Ġbundle":6568,"Ġder":6569,"Ġday":6570,"Ġdatabase":6571,"---":6572,"celed":6573,"uter":6574,"Ġinject":6575,"Ġinsert":6576,"ctxt":6577,"laep":6578,"lapped":6579,"loader":6580,"loaded":6581,"Ġnr":6582,"mask":6583,"mapped":6584,"unpatched":6585,"Ġ(.":6586,"Ġ(_":6587,"ileError":6588,"Ġtogether":6589,"adow":6590,"adapt":6591,"adler":6592,"through":6593,"though":6594,"rich":6595,"ĠTAR":6596,"ĠTOK":6597,"ĠTGA":6598,"ĠTIFF":6599,"Ġ'{}":6600,"Ġdeferred":6601,"Ġmat":6602,"Ġmar":6603,"Ġmicro":6604,"Ġmarkup":6605,"Ġmenu":6606,"Ġanalys":6607,"otst":6608,"Ġ\"{}":6609,"ĠClose":6610,"ĠCamera":6611,"ĠCOM":6612,"ivale":6613,"raft":6614,"-------<":6615,"ĠStr":6616,"ĠSource":6617,"ĠSection":6618,"ĠSuper":6619,"ĠStrictVersion":6620,"ĠSolaris":6621,"strVal":6622,"getype":6623,"getopt":6624,"Ġhard":6625,"Ġhide":6626,"Ġhaving":6627,"Ġvel":6628,"Ġvolume":6629,"namedtuple":6630,"ands":6631,"anduser":6632,"ĠIP":6633,"ĠInt":6634,"olated":6635,"ateway":6636,"Ġthink":6637,"Errors":6638,"uplicate":6639,"ĠPlatform":6640,"ĠPSD":6641,"ĠPost":6642,"ĠAudio":6643,"ĠAlias":6644,"ipul":6645,"ipmap":6646,"''',<":6647,"iclient":6648,"Ġ-<":6649,"ĠĠĠĠĠĠĠĠĠĠĠĠĠĠĠĠĠĠĠĠĠĠĠ":6650,"Ġ17":6651,"Ġ111":6652,"Ġbehind":6653,"formdata":6654,"ires":6655,"irection":6656,"Ġcols":6657,"change":6658,"Ġ.__":6659,"ĠDoc":6660,"setopt":6661,"ureTransport":6662,"Ġasked":6663,"serializer":6664,"teger":6665,"Ġpipes":6666,"ĠBar":6667,"ĠBuffer":6668,"Ġ_,":6669,"quivale":6670,"=====<":6671,"__('":6672,"Ġdeb":6673,"Ġdesk":6674,"Ġdevelop":6675,"Ġones":6676,"ertain":6677,"filelist":6678,"vels":6679,"ours":6680,"Ġstars":6681,"Ġgen":6682,"Ġgood":6683,"Ġrst":6684,"pyc":6685,"pyopenssl":6686,"versions":6687,"versioncontrol":6688,"Ġlon":6689,"Ġlang":6690,"(\"/":6691,"constant":6692,"conversation":6693,"consistent":6694,"ĠMust":6695,"ĠMain":6696,"ĠMilde":6697,"ĠMutable":6698,"ĠMark":6699,"ĠMaint":6700,"ĠMcIdas":6701,"ropag":6702,"lying":6703,"ableGrid":6704,"Ġbyte":6705,"Ġparagraph":6706,"vide":6707,"preferred":6708,"prepare":6709,"veral":6710,"Ġ::":6711,"Ġdouble":6712,"ĠHeader":6713,"ĠHardware":6714,"Ġcontroller":6715,"Ġcontrolling":6716,"Ġconf":6717,"Ġcanceled":6718,"Initialize":6719,"()'":6720,"()):<":6721,"().<":6722,"Ġprotocol":6723,"Ġprogress":6724,"Ġshadow":6725,"Ġgets":6726,"Ġgetopt":6727,"agent":6728,"Ġmeans":6729,"RES":6730,"REPO":6731,"RECA":6732,"estination":6733,"Ġenumerate":6734,"ĠWith":6735,"ĠWrit":6736,"ĠUtilities":6737,"ĠUeli":6738,"ENGE":6739,"ENABLE":6740,"ENXIO":6741,"ĠRemove":6742,"ĠRemoved":6743,"Ġseem":6744,"Ġsession":6745,"Ġsearc":6746,"Ġalpha":6747,"imezone":6748,"INT":6749,"INANCE":6750,"textbox":6751,"winxpt":6752,"istribut":6753,"ĠGtk":6754,"ĠGateway":6755,"ĠRoman":6756,"dataElements":6757,"ĠInitial":6758,"igits":6759,"imal":6760,"provid":6761,"Ġheuristic":6762,"Ġpassing":6763,"Env":6764,"EncodeError":6765,"short":6766,"Ġlisted":6767,"SEC":6768,"latin":6769,"Ġreaders":6770,"Ġcompute":6771,"Ġcompiled":6772,"Ġarm":6773,"Ġabi":6774,"Ġabs":6775,"ifiers":6776,"Ġrunner":6777,"acher":6778,"SIMP":6779,"SITI":6780,"ORY":6781,"Ġoutfile":6782,"Ġoutfiles":6783,"HEEL":6784,"Ġnothing":6785,"Loader":6786,"Ġlogin":6787,"keyname":6788,"Ġ2000":6789,"Ġdefaultdict":6790,"Ġtimes":6791,"STD":6792,"STGC":6793,"installer":6794,"Ġpytoml":6795,"bining":6796,"Theme":6797,"ADATA":6798,"tesTrans":6799,"Ġsubkey":6800,"Ġ1999":6801,"owner":6802,"Ġvals":6803,"ĠEmpty":6804,"ĠEOF":6805,"atching":6806,"ITION":6807,"Ġsources":6808,"Ġnever":6809,"addr":6810,"Controller":6811,"Ġchecks":6812,"Ġparsed":6813,"Setup":6814,"SetConsole":6815,"Ġlegacy":6816,":`.":6817,"Ġsomehow":6818,"tests":6819,"required":6820,"TextInput":6821,"Ġaddr":6822,"cannot":6823,"encil":6824,"encache":6825,"login":6826,"ĠHTTPResponse":6827,"ressing":6828,"ENTA":6829,"axis":6830,"Ġtreebuilders":6831,"aking":6832,"Ġzone":6833,"Ġrout":6834,"Ġpolicy":6835,"ĠSetuptoolsDeprecationWarning":6836,"clipboard":6837,"Ġsuperclass":6838,"2000":6839,"2005":6840,"FAIL":6841,"Ġ95":6842,"Ġ\\\"":6843,"ĠStringBuilder":6844,"Ġimplemented":6845,"ignAttributes":6846,"ĠNewType":6847,"ĠDetermine":6848,"Ġunderstand":6849,"Ġunderlying":6850,"Ġdirurl":6851,"CTYPE":6852,"ĠStart":6853,"TestService":6854,"Ġcases":6855,"IOError":6856,"ieadler":6857,"what":6858,"Ġpkgutil":6859,"Ġexpect":6860,"Ġexpects":6861,"Ġexplicitly":6862,"Ġgenerate":6863,"Ġgeneration":6864,"Ġgeneric":6865,"Ġgenerates":6866,"CommandError":6867,"Ġspawn":6868,"ĠInvalidVersion":6869,"ĠInvalidRequirement":6870,"Ġspecial":6871,"Ġmsvc":6872,"LETE":6873,"Ġloading":6874,"(**":6875,"Compat":6876,"double":6877,"Ġquad":6878,"Ġquote":6879,"iltin":6880,"treebuilders":6881,"ĠPyOpenSSL":6882,"ĠPyGetMemory":6883,"Ġcolorama":6884,"Ġlabelled":6885,"Ġ'.'<":6886,"Resource":6887,"IIs":6888,"render":6889,"Ġcorner":6890,"Ġdistance":6891,"ĠTestSk":6892,"Ġmultiprocessing":6893,"latest":6894,"monition":6895,"Ġ\"<{":6896,"ĠProcess":6897,"Ġasyncpg":6898,"Ġstarting":6899,"Ġconverted":6900,"Ġlibraries":6901,"Ġextras":6902,"Attribute":6903,"Attrs":6904,"ĠMyApp":6905,"NOT":6906,"NORECA":6907,"OptionParser":6908,"zipfile":6909,"Ġimplicitly":6910,"ĠThread":6911,"ĠThomas":6912,"ĠTimestamp":6913,"CURREN":6914,"Ġstreams":6915,"Events":6916,"ĠContainer":6917,"ĠContains":6918,"Ġprogramm":6919,"IGNORECA":6920,"authorized":6921,"ĠSSPI":6922,"Ġlocals":6923,"Ġunpackb":6924,"Ġunpacked":6925,"multiple":6926,"ĠCompare":6927,"ĠComponent":6928,"PoolError":6929,"TOKEN":6930,"ĠFileMode":6931,"ĠRequestException":6932,"ĠRequestHandler":6933,"(?:":6934,"Ġenters":6935,"Ġmodify":6936,"Ġexecuted":6937,"imposes":6938,"Ġbuttons":6939,"assertRaises":6940,"Method":6941,"ĠExceptions":6942,"000000":6943,"ApplicationError":6944,"Services":6945,"Ġsspi":6946,"Ġsspiclient":6947,"Ġreqs":6948,"ALLENGE":6949,"TomlEncoder":6950,"RetryError":6951,"normal":6952,"rows":6953,"ĠParser":6954,"Helper":6955,"nowflake":6956,"Ġtarinfo":6957,"Ġignored":6958,"Ġcustomization":6959,"Ġintegers":6960,"ĠDEBUG":6961,"ĠRequirementSet":6962,"Ġframes":6963,"Accept":6964,"TEST":6965,"jpeg":6966,"ĠZIP":6967,"forcelist":6968,"Ġconstructor":6969,"INDENT":6970,"RIBUTES":6971,"Links":6972,"PREFIX":6973,"original":6974,"Ġpages":6975,"ĠDemonstr":6976,"Ġconnecting":6977,">==============<":6978,"Messages":6979,"extensions":6980,"ĠSUPPORTED":6981,"specifier":6982,"ĠSSLError":6983,"LOG":6984,"wards":6985,"Ġeditable":6986,"stylesheet":6987,"ĠTexture":6988,"Ġmoving":6989,"ĠLogger":6990,"chardet":6991,"serviceutil":6992,"ImportError":6993,"cording":6994,"dots":6995,"global":6996,"obecnos":6997,"rpc":6998,"})>\".":6999,"Ġissues":7000,"Ġincluding":7001,"ĠHTTPSConnection":7002,"RunAny":7003,"Ġregistered":7004,"('.')<":7005,"ĠReadTimeoutError":7006,"ĠGeneral":7007,"Ġspecifically":7008,"BytesTrans":7009,"Background":7010,"aliases":7011,"Ġmipmapped":7012,"ĠService":7013,"ĠDataError":7014,"canonicalize":7015,"BACKGROUND":7016,"Ġdumps":7017,"frames":7018,"medi":7019,"ĠFormatControl":7020,"EvtR":7021,"longopt":7022,"mkdir":7023,"Ġ},<":7024,"ĠProxyScheme":7025,"SHORT":7026,"Web":7027,"Ġrecent":7028,"Ġdigests":7029,"ĠCanvas":7030,"ĠApplicationError":7031,"ĠConverts":7032,"Activity":7033,"Demo":7034,"WHITELIST":7035,"ĠMethod":7036,"ĠMultitexture":7037,"Ġ8671":7038,"Ġbuiltins":7039,"Ġreplacement":7040,"SingleObject":7041,"WRITE":7042,"ĠErrorOutput":7043,"ursor":7044,"Ġwildcards":7045,"Ġinstruction":7046,"ĠLaTeX":7047,"Ġenvironments":7048,"INTERPRE":7049,"SITORY":7050,"ĠLocationParseError":7051,"EGAT":7052,"Iterable":7053,"Pipe":7054,"Queue":7055,"erberos":7056,"Ġwraps":7057,"ĠPoint":7058,"ĠPacker":7059,"Ġevicted":7060,"ĠMovie":7061,"Ġconvenience":7062,"ĠSettingsWithS":7063,"2231":7064,"BLACKLIST":7065,"ForeignAttributes":7066,"Level":7067,"dropfile":7068,"letters":7069,"Ġfaster":7070,"Ġswitch":7071,"Ġrecursive":7072,"Ġblack":7073,"toolkit":7074,"Ġmember":7075,"ENCODING":7076,"rypoints":7077,"WaitForSingleObject":7078,"ĠtrueColorOffset":7079,"Privileges":7080,"ATTRIBUTES":7081,"TLM":7082,"front":7083,"Ġ~~~~~~~~~~~~~~~~":7084,"Ġpadding":7085,"Ġpseudo":7086,"Ġclamp":7087,"Ġomitted":7088,"Ġnieobecnos":7089,"ĠSchlaep":7090,"Represents":7091,"ynamic":7092,"behaviors":7093,"Ġsuccess":7094,"Ġinvoked":7095,"LUMINANCE":7096,"PRIVIL":7097,"Utility":7098,"dmg":7099,"umpy":7100,"ymlink":7101,"Ġimagetype":7102,"Ġimmutable":7103,"members":7104,"richieadler":7105,"ĠTOKEN":7106,"Ġanalysis":7107,"ĠSuperimposes":7108,"quivalent":7109,"Ġdesktop":7110,"ĠMaintainer":7111,"REPOSITORY":7112,"ĠRemovedCommandError":7113,"winxptheme":7114,"ĠTestSkipped":7115,"CURRENT":7116,"IGNORECASE":7117,"BytesTransferred":7118,"ĠProxySchemeUnsupported":7119,"Ġnieobecnosc":7120,"ĠSchlaepfer":7121,"!\".":7122,"\"/":7123,"\"}":7124,"\"')<":7125,"\"].":7126,"$')<":7127,"'\"":7128,"'],":7129,"({}":7130,");":7131,")==":7132,"+':":7133,",.":7134,"-)<":7135,".:":7136,".'<":7137,".',":7138,".\",<":7139,".;<":7140,".);<":7141,"/'":7142,"46":7143,"49":7144,"425":7145,"58":7146,"627":7147,"78":7148,"800":7149,"97":7150,"901":7151,":\",":7152,":')<":7153,"=$":7154,"=('":7155,">[":7156,">+--------":7157,"?#]*)":7158,"@@":7159,"AGS":7160,"BG":7161,"Class":7162,"Classes":7163,"Callback":7164,"CERT":7165,"DH":7166,"Did":7167,"Dir":7168,"Directive":7169,"DistlibException":7170,"ESE":7171,"EEX":7172,"EST":7173,"ELE":7174,"EGE":7175,"FL":7176,"FS":7177,"Flags":7178,"FONT":7179,"FBO":7180,"GRE":7181,"GRIB":7182,"GREEN":7183,"He":7184,"History":7185,"HDF":7186,"Is":7187,"Int":7188,"JK":7189,"Jar":7190,"Lock":7191,"LOW":7192,"Legacy":7193,"LPH":7194,"LPAREN":7195,"LBRACKET":7196,"MD":7197,"MS":7198,"MT":7199,"Make":7200,"MIP":7201,"Media":7202,"Miscellaneous":7203,"NF":7204,"Norm":7205,"Number":7206,"NDK":7207,"ORE":7208,"OUR":7209,"OPTION":7210,"PAR":7211,"PUN":7212,"Plan":7213,"Pillow":7214,"PKG":7215,"Round":7216,"Support":7217,"Save":7218,"SOCKS":7219,"SCHEME":7220,"TX":7221,"TempDirectory":7222,"UES":7223,"UATION":7224,"Virtual":7225,"WM":7226,"Work":7227,"WID":7228,"World":7229,"WORD":7230,"\\'":7231,"\\.":7232,"\\<":7233,"\\\"'.":7234,"]{":7235,"]+)":7236,"_*":7237,"ammon":7238,"aux":7239,"bi":7240,"bla":7241,"bes":7242,"bert":7243,"bzip":7244,"bundle":7245,"blanchard":7246,"cing":7247,"clo":7248,"created":7249,"dk":7250,"dat":7251,"den":7252,"div":7253,"directives":7254,"ei":7255,"fers":7256,"free":7257,"flus":7258,"fancy":7259,"friendly":7260,"gl":7261,"gle":7262,"gid":7263,"genshi":7264,"glsl":7265,"gencache":7266,"hue":7267,"happ":7268,"hension":7269,"hren":7270,"human":7271,"iel":7272,"ique":7273,"imap":7274,"ious":7275,"ihat":7276,"jy":7277,"jar":7278,"kes":7279,"kely":7280,"kka":7281,"lg":7282,"ling":7283,"micro":7284,"mypy":7285,"non":7286,"nel":7287,"numb":7288,"ncy":7289,"ograph":7290,"ossible":7291,"pc":7292,"pk":7293,"pm":7294,"pur":7295,"pun":7296,"pem":7297,"peat":7298,"pending":7299,"rv":7300,"ransport":7301,"rmtree":7302,"sla":7303,"sun":7304,"some":7305,"tw":7306,"ttp":7307,"twistd":7308,"ulo":7309,"uert":7310,"vars":7311,"vOptions":7312,"wb":7313,"wer":7314,"you":7315,"yled":7316,"}):":7317,"Ã¼":7318,"âĢ":7319,"ĠY":7320,"Ġq":7321,"Ġenter":7322,"ĠEND":7323,"Ġysize":7324,"Ġ-------<":7325,"oriz":7326,"orow":7327,"ordered":7328,"inc":7329,"inary":7330,"inclu":7331,"incre":7332,"include":7333,"internet":7334,"initial":7335,"inners":7336,"insensitively":7337,"erm":7338,"erce":7339,"></":7340,"ond":7341,"rename":7342,"releases":7343,"reporter":7344,"readed":7345,"relative":7346,"rewind":7347,"rehension":7348,"Ġtty":7349,"Ġtail":7350,"Ġtornado":7351,"Ġtreew":7352,"mpImagePlugin":7353,"stro":7354,"step":7355,"lean":7356,"lefile":7357,"levant":7358,"Ġaest":7359,"Ġaudio":7360,"roles":7361,"delit":7362,"decoder":7363,"\"\".":7364,"\"\"\"\"":7365,"Ġful":7366,"Ġfsize":7367,"Ġfash":7368,"Ġfmt":7369,"aly":7370,"alog":7371,"alius":7372,"algorithm":7373,"Ġplay":7374,"Ġported":7375,"Ġpayload":7376,"Ġcar":7377,"Ġclo":7378,"Ġclose":7379,"Ġcsv":7380,"Ġcertifi":7381,"Ġclick":7382,"Ġcategories":7383,"Ġcertain":7384,"ano":7385,"any":7386,"arm":7387,"Ġsile":7388,"Ġsco":7389,"Ġsum":7390,"Ġsiblings":7391,"Ġsnowflake":7392,"Ġtheme":7393,"Ġremain":7394,"Ġrepo":7395,"Ġreference":7396,"Ġrestri":7397,"Ġreports":7398,"Ġrevision":7399,"Ġremembers":7400,"Ġrelevant":7401,"Ġoth":7402,"Ġolefile":7403,"urro":7404,"Ġwparam":7405,"itect":7406,"itable":7407,"ssh":7408,"ssue":7409,"ssertion":7410,"Ġdy":7411,"Ġdrag":7412,"Ġdbi":7413,">#.":7414,"ced":7415,"celo":7416,"uting":7417,"utOf":7418,"Ġinve":7419,"ctrl":7420,"exml":7421,"exception":7422,"exports":7423,"exists":7424,"ions":7425,"entries":7426,"lid":7427,"lider":7428,"Ġnumeric":7429,"mads":7430,"edirect":7431,"edAsyncImage":7432,"uname":7433,"unused":7434,"Ġ(-":7435,"Ġ(/":7436,"coords":7437,"coerce":7438,"thumb":7439,"third":7440,"ric":7441,"acl":7442,"ĠTry":7443,"ĠToken":7444,"ĠTOD":7445,"ĠTwisted":7446,"ĠTotal":7447,"ĠTAGS":7448,"Ġ'#":7449,"Ġ'(":7450,"Ġ'\\\\":7451,"illi":7452,"Ġmi":7453,"Ġmon":7454,"Ġmtexture":7455,"Ġmonkey":7456,"Ġmatches":7457,"isit":7458,"isinstance":7459,"isolation":7460,"otes":7461,"otonic":7462,"Ġ\"$":7463,"Ġ\"'":7464,"Ġ\"-":7465,"Ġ\"/":7466,"Ġ\"--":7467,"idence":7468,"Ġforward":7469,"ĠCF":7470,"ĠCython":7471,"ĠCopy":7472,"ĠCould":7473,"ĠCPython":7474,"ĠCursor":7475,"ras":7476,"odorow":7477,"Ġisap":7478,"Ġisolated":7479,"agement":7480,"ĠSE":7481,"ĠSan":7482,"ĠShow":7483,"ĠSha":7484,"ĠScreen":7485,"ĠSDK":7486,"formed":7487,"getTreeWalker":7488,"Ġhi":7489,"Ġhr":7490,"Ġhuman":7491,"Ġvi":7492,"Ġvoid":7493,"ĠImplements":7494,"ĠIIS":7495,"ately":7496,"atePassword":7497,"Ġthus":7498,"Ġthumbnail":7499,"Ġkill":7500,"Ġkern":7501,"Ġandroid":7502,"opacity":7503,"ĠPre":7504,"ĠPlace":7505,"ĠPAT":7506,"ĠPicture":7507,"ĠNet":7508,"ĠNorm":7509,"ĠNull":7510,"ĠALPH":7511,"ipes":7512,"icName":7513,"irks":7514,"asing":7515,"ĠLO":7516,"ĠLe":7517,"ĠLegacy":7518,"ĠLiteral":7519,"327":7520,"htrac":7521,"Ġbehavi":7522,"abs":7523,"Ġ26":7524,"Ġ275":7525,"Ġcos":7526,"Ġcome":7527,"Ġcouple":7528,"Ġcounter":7529,"Ġ.._":7530,"ĠDan":7531,"ĠDNS":7532,"owano":7533,"0001":7534,"bugging":7535,"serialize":7536,"Ġeg":7537,"Ġeas":7538,"Ġpipe":7539,"tranges":7540,"ĠFuture":7541,"ĠFLI":7542,"ĠFITS":7543,"ĠBla":7544,"ĠBody":7545,"ĠBlanchard":7546,"libs":7547,"Ġ`__":7548,"intext":7549,"Ġoscrypto":7550,"sphin":7551,"spinners":7552,"quenc":7553,"query":7554,"quiet":7555,"Ġdeg":7556,"Ġdeque":7557,"Ġdesigned":7558,"Ġdetermin":7559,"Ġdescriptor":7560,"Ġdetermines":7561,"mpletion":7562,"Ġonce":7563,"filepost":7564,"outfiles":7565,"Ġ\"\"\"`":7566,"ĠOutOf":7567,"Ġstar":7568,"Ġstop":7569,"Ġstderr":7570,"Ġstencil":7571,"('\\\\":7572,"Ġgi":7573,"Ġgid":7574,"Ġgoodger":7575,"Ġrmtree":7576,"pyd":7577,"pygments":7578,"ternate":7579,"Ġlone":7580,"Ġlparam":7581,"Ġtrack":7582,"(\"%":7583,"(\",":7584,"(\"<":7585,"(\"{":7586,"ĠMi":7587,"ĠMor":7588,"ĠMIC":7589,"ĠMake":7590,"ised":7591,"umns":7592,"Ġmagn":7593,"osite":7594,"dirtools":7595,"ifest":7596,"preset":7597,"very":7598,"verify":7599,"verbose":7600,"oukka":7601,"ĠHandler":7602,"ĠHash":7603,"ĠHKEY":7604,"ĠHDF":7605,"ĠHammon":7606,"ĠHuert":7607,"Ġconsumed":7608,"Ġyiel":7609,"Inv":7610,"Inline":7611,"())":7612,"()==":7613,"()``":7614,"()),<":7615,"Ġprovid":7616,"Ġproduct":7617,"Ġproxies":7618,"Ġgetgr":7619,"Ġgetnext":7620,"Ġmetrics":7621,"REC":7622,"REMO":7623,"REGROUND":7624,"ĠWAL":7625,"ĠWhat":7626,"amd":7627,"ĠUS":7628,"ĠUp":7629,"ĠUses":7630,"ENV":7631,"ENSIT":7632,"Exp":7633,"Exists":7634,"ĠRevOptions":7635,"matic":7636,"listdir":7637,"Ġunich":7638,"Ġunsupported":7639,"Ġundefined":7640,"Ġunsigned":7641,"``:<":7642,"``)<":7643,"ached":7644,"mentsConflict":7645,"INTR":7646,"Ġraises":7647,"textedit":7648,"wininst":7649,"scale":7650,"Ġ37":7651,"Ġ38":7652,"Ġ39":7653,"Ġ302":7654,"ĠGL":7655,"ĠGraph":7656,"vendored":7657,"://\",":7658,"://...":7659,"ĠInput":7660,"ĠInclude":7661,"ĠInsecure":7662,"compass":7663,"compressed":7664,"lend":7665,"lencode":7666,"area":7667,"arency":7668,"ĠĠĠĠĠĠĠĠĠĠĠĠĠĠĠĠĠĠĠĠĠĠ":7669,"igure":7670,"igner":7671,"protocol":7672,"projection":7673,"Files":7674,"Ġchr":7675,"Ġchain":7676,"loading":7677,"Ġ42":7678,"Ġ44":7679,"Ġ48":7680,"Enc":7681,"Engine":7682,"Ġcollis":7683,"motion":7684,"docinfo":7685,"SEM":7686,"SEPAR":7687,"Ġadapt":7688,"Ġbuilds":7689,"lates":7690,"ILON":7691,"Ġcompare":7692,"Ġcompared":7693,"Ġcompressed":7694,"Ġcomprehension":7695,"ĠImageColor":7696,"SItem":7697,"ffine":7698,"ĠAppEngine":7699,"Ġappdirs":7700,"Completion":7701,"ĠclassDict":7702,"Studio":7703,"Status":7704,"pythoncom":7705,"Ġoutside":7706,"Ġtrying":7707,"HES":7708,"Ġshouldn":7709,"little":7710,"Ġbasestring":7711,"Ġintro":7712,"Ġnotific":7713,"Load":7714,"Ġlogo":7715,"keyword":7716,"combining":7717,"Ġtimed":7718,"Ġkeyval":7719,"STOP":7720,"riptor":7721,"ĠpyCMS":7722,"posix":7723,"Ġxy":7724,"Ġxsize":7725,"anged":7726,"VersionError":7727,"VersionControl":7728,"basename":7729,"ATOR":7730,"ADITION":7731,"Ġsubsampling":7732,"Ġ1998":7733,"Ġ500":7734,"Ġ512":7735,"ĠEdit":7736,"Ġbackoff":7737,"ĠUndefined":7738,"address":7739,"Ġ2017":7740,"Ġcheckers":7741,"ĠparseFragment":7742,"Ġflush":7743,"ICE":7744,"ICO":7745,"ICOL":7746,"Ġlevels":7747,"fps":7748,"enteredAsyncImage":7749,"Ġsomefile":7750,"Ġsomeother":7751,"portable":7752,"ĠNotes":7753,"ĠDistutilsInternal":7754,"Texture":7755,"csv":7756,"Ġupgr":7757,"ensions":7758,"SSLError":7759,"Undefined":7760,"asting":7761,"astern":7762,"astimezone":7763,"cancel":7764,"encing":7765,"ĠHTTPHeaderDict":7766,"ANG":7767,"ANESE":7768,"Ġexamples":7769,"Ġ|-":7770,"Ġ|<":7771,"Ġzh":7772,"Ġtemplate":7773,"128":7774,"clean":7775,"cachestr":7776,"cachepoints":7777,"Ġmodels":7778,"GetString":7779,"GetToken":7780,"Ġcacheable":7781,"ĠLibError":7782,"MAX":7783,"hah":7784,"Ġ768":7785,"ĠKORE":7786,"TypeRegistry":7787,"Ġcurve":7788,"Ġdepending":7789,"Ġdepends":7790,"2002":7791,"2004":7792,"2007":7793,"onicalize":7794,"175":7795,"CODE":7796,"LTransport":7797,"EPT":7798,"Ġaccording":7799,"Ġopened":7800,"Ġimplementations":7801,"Children":7802,"ĠDecodeError":7803,"rcname":7804,"CTL":7805,"CTUATION":7806,"Timestamp":7807,"VERIF":7808,"ĠStore":7809,"viewer":7810,"ToWin":7811,"ĠJAP":7812,"ĠJSON":7813,"Ġdivisible":7814,"BaseVersion":7815,"ĠVersionControl":7816,"Tests":7817,"TestApp":7818,"Ġstatement":7819,"idebar":7820,"nounce":7821,"when":7822,"zero":7823,"Ġexplicit":7824,"Ġexpires":7825,"Ġstats":7826,"Ġstatuses":7827,"Ġgenerating":7828,"lowerkey":7829,"'][":7830,"subdirectory":7831,"048":7832,"minator":7833,"Ġspinner":7834,"Ġsphere":7835,"Ġspeed":7836,"ĠInvalidWheel":7837,"Ġdispatch":7838,"ridden":7839,"StateError":7840,"{}\\\"'.":7841,"ĠBaseDistribution":7842,"ĠBaseCache":7843,"ĠBaseHTTPError":7844,"ĠBaseReporter":7845,"ĠInstallation":7846,"FIED":7847,"IDS":7848,"IDNAError":7849,"details":7850,"lify":7851,"deps":7852,"Ġfinished":7853,"Ġoverridden":7854,"Ġloads":7855,"ĠExitStack":7856,"ĠEnum":7857,"ĠEngine":7858,"Ġcompletion":7859,"doct":7860,"doTest":7861,"Ġquiet":7862,"Ġquality":7863,"Ġquantization":7864,"Ġthreads":7865,"Ġlikelihood":7866,"envbuild":7867,"ĠPyPy":7868,"Ġlooks":7869,"HTTPS":7870,"functions":7871,"wnam":7872,"Ġwrites":7873,"ĠmsgDLL":7874,"PyGetString":7875,"dummy":7876,"interpre":7877,"Ġcorout":7878,"Ġmultiline":7879,"Ġmultipart":7880,"21467":7881,"KELY":7882,"Ġvalidation":7883,"ĠXP":7884,"...')<":7885,"cessed":7886,"LIFIED":7887,"culate":7888,"Ġsimplejson":7889,"ĠThat":7890,"Ġlinking":7891,"BUFR":7892,"ĠOpenClipboard":7893,"svg":7894,"ĠContent":7895,"ĠContext":7896,"ĠControl":7897,"structs":7898,"Ġprograms":7899,"groups":7900,"2728":7901,"MENTS":7902,"Quantization":7903,"Ġ\"\"),<":7904,"Ġtrick":7905,"Ġresolved":7906,"ĠSSLTransport":7907,"EnvironmentName":7908,"Ġiterables":7909,"Ġspecifiers":7910,"Ġbins":7911,"ĠResult":7912,"Ġsuite":7913,"ĠChecks":7914,"InformationPopup":7915,"schemes":7916,"ĠComposer":7917,"ĠCompileError":7918,"ĠFileExists":7919,"ĠRequestError":7920,"Ġchunked":7921,">================<":7922,"Viewer":7923,"Ġmodern":7924,"Ġmodified":7925,"KEYS":7926,"lanet":7927,"Ġbuttonid":7928,"Ġstrip":7929,"Ġstrips":7930,"224":7931,"ĠAttempt":7932,"Ġdemonstration":7933,"ApplicationRun":7934,"Ġfrontmatter":7935,"externally":7936,"localhost":7937,"Ġ{})<":7938,"HASHES":7939,"normals":7940,"normcase":7941,"Ġcreation":7942,"Ġcmdoptions":7943,"Ġoccurs":7944,"activity":7945,"activate":7946,"ĠParsedVersion":7947,"Extra":7948,"FFSET":7949,"Ġdictionaries":7950,"Ġnormal":7951,"Ġnormally":7952,"ĠCONTROL":7953,"ĠLinkError":7954,"pressure":7955,"CHALLENGE":7956,"FOREGROUND":7957,"TRADITION":7958,"ĠZipFile":7959,"revision":7960,"Ġrepr":7961,"Ġverify":7962,"asko":7963,"velopment":7964,"Ġconstructing":7965,"Ġconstructed":7966,"INDEX":7967,"Record":7968,"finalize":7969,"finalized":7970,"suffix":7971,"Ġregion":7972,"Formats":7973,">=============<":7974,"PACE":7975,"ndk":7976,"Ġskipped":7977,"ĠScatterPlan":7978,"ĠFboFloatLayout":7979,"FactoryFactory":7980,"Ġrights":7981,"Ġsquares":7982,"ĠCacheController":7983,"iversalDet":7984,"charmap":7985,"Ġshortcut":7986,"Ġattempt":7987,"Ġattempted":7988,"Ġredirects":7989,"Ġlowercase":7990,"Ġincludes":7991,"ĠChar":7992,"ĠSTD":7993,"ĠSTDOUT":7994,"Define":7995,"COMM":7996,"COMMENT":7997,"Impossible":7998,"ieters":7999,"rotli":8000,"abilities":8001,"ĠUnicodeEncodeError":8002,"Backend":8003,"Operation":8004,"Script":8005,"Schema":8006,"modulo":8007,"tkinter":8008,"Ġrefresh":8009,"commons":8010,"ĠServer":8011,"ĠIDENTIFIER":8012,"Ġseparator":8013,"compression":8014,"StreamReader":8015,"StreamWriter":8016,"Results":8017,"Ġcalculation":8018,"linux":8019,"Ġagain":8020,"Ġslice":8021,"Ġdefining":8022,"ĠPipError":8023,"ĠPipSession":8024,"ĠAllow":8025,"endswith":8026,"connectionpool":8027,"ArgumentParser":8028,"Document":8029,"Fields":8030,"Generate":8031,"Generates":8032,"Teacher":8033,"Ġ})<":8034,"ocusBehavior":8035,"Ġevery":8036,"ĠProxyError":8037,">~~~~~~~~~~~~~~~<":8038,"operators":8039,"EVENTLOG":8040,"Canonicalize":8041,"Private":8042,"sessions":8043,"Ġrealpath":8044,"Ġdescribed":8045,"ĠAnsiToWin":8046,"ĠTomlError":8047,"Ġcorrespond":8048,"SecurityWarning":8049,"Active":8050,"Demonstr":8051,"kinds":8052,"second":8053,"Ġreceived":8054,"Ġhalign":8055,"RequestsWarning":8056,"iffImagePlugin":8057,"msvccompiler":8058,"ALPHANUM":8059,"ValidatePassword":8060,">~~~~~~~~~~~~~~~~~~~<":8061,"helpers":8062,"securetransport":8063,"ĠLookupError":8064,"ĠLookupDict":8065,"GestureDatabase":8066,"LineCircle":8067,"SingleByte":8068,"rgba":8069,"Ġfailed":8070,"Ġportable":8071,"Ġplain":8072,"Ġplaintext":8073,"Ġcapabilities":8074,"Ġinstructions":8075,"cookielib":8076,"Ġexactly":8077,"Ġdoctests":8078,"IncrementalEncoder":8079,"IncrementalDecoder":8080,"ĠGestureDatabase":8081,"ĠEchoServer":8082,"ĠEchoClient":8083,"ĠUnpackException":8084,"ConfigParser":8085,"ĠKeyError":8086,"Ġlimited":8087,"('',":8088,"384":8089,">--------------------":8090,"AuditEvents":8091,"BLOCK":8092,"Descriptor":8093,"VSSItem":8094,"general":8095,"sencode":8096,"Ġturns":8097,"Ġtasks":8098,"Ġcopied":8099,"Ġbcg":8100,"Ġdimensions":8101,"----+------------+--------":8102,"ĠSupports":8103,"ĠSometimes":8104,"ĠMarcelo":8105,"ĠRGBA":8106,"CookieJar":8107,"ĠeventLogFlags":8108,"InstallationCandidate":8109,"ĠParseException":8110,"TIMEOUT":8111,"ĠNegativeInfinityType":8112,"8859":8113,"BasicAuth":8114,"CREAT":8115,"Editor":8116,"SERVER":8117,"SocketHandler":8118,"ScreenBuffer":8119,"freely":8120,"Ġamong":8121,"Ġpeps":8122,"Ġresponses":8123,"Ġowner":8124,"rimary":8125,"ĠSocketError":8126,"ĠMaxRetryError":8127,"ĠHeaders":8128,"Ġgetpwnam":8129,"Ġmechanisms":8130,"REGEX":8131,"Ġchannels":8132,"ĠadjustForeignAttributes":8133,"Ġpylint":8134,"GetTempFileName":8135,"SCRIPT":8136,"Ġidentifier":8137,"hotoshop":8138,"Ġproperly":8139,"Dispatch":8140,"Failed":8141,"Multitexture":8142,"SKIP":8143,"WAIT":8144,"recline":8145,"Ġpractice":8146,"Ġsampler":8147,"Ġincrement":8148,"Ġinherit":8149,"ĠSafeString":8150,"ĠPtyProcessError":8151,"ĠAND":8152,"ĠAuthInfo":8153,"partition":8154,"Ġearlier":8155,"ĠevalEnv":8156,"ĠBadCommand":8157,"ĠManagement":8158,"ĠMartin":8159,"Ġproduced":8160,"ĠIndexError":8161,"ChunkLength":8162,"SelectableGrid":8163,"cycleview":8164,"TomlPreserveComment":8165,"JSONEncoder":8166,"Shader":8167,"mmapfile":8168,"props":8169,"recognized":8170,"Ġderived":8171,"---+<":8172,"ĠinsertBefore":8173,"adapters":8174,"otstrap":8175,"ĠStructure":8176,"ĠIPv":8177,"ĠDocument":8178,"consistentCandidate":8179,"ĠMutableSet":8180,"Ġconfidence":8181,"ĠWritten":8182,"INTENSIT":8183,"providers":8184,"SIMPLIFIED":8185,"SITIVE":8186,"Ġ\\\"{}\\\"'.":8187,"whatwg":8188,"ĠFileModeWarning":8189,"EvtRender":8190,"INTERPRETER":8191,"EGATIVE":8192,"Ġsuccessfully":8193,"PRIVILEGE":8194,"ymlinks":8195,"\"},<":8196,">+------------+------------+--------":8197,"EEXIST":8198,"FLC":8199,"GRESS":8200,"MIPMAP":8201,"MediaStore":8202,"OURCE":8203,"PUNCTUATION":8204,"WIDTH":8205,"flush":8206,"happily":8207,"ihatexml":8208,"numbers":8209,"orizont":8210,"stroke":8211,"Ġaudiobutton":8212,"delitem":8213,"Ġfully":8214,"Ġfashion":8215,"alogowano":8216,"Ġothers":8217,"itecture":8218,"ssertionError":8219,"Ġinvest":8220,"ĠTODO":8221,"odorowski":8222,"Ġisapicon":8223,"ĠShahin":8224,"ĠvoidElements":8225,"ĠNullHandler":8226,"ĠALPHANUM":8227,"htracer":8228,"Ġbehaviour":8229,"sphinx":8230,"quency":8231,"Ġdetermined":8232,"ĠHammond":8233,"ĠHuerta":8234,"Ġproviding":8235,"Ġgetgrnam":8236,"REMOVE":8237,"mentsConflicted":8238,"://...``)<":8239,"SEPARATOR":8240,"ICOLON":8241,"Ġsomeotherfile":8242,"ĠDistutilsInternalError":8243,"Ġupgrading":8244,"GetTokenInformation":8245,"ĠKOREAN":8246,"VERIFY":8247,"ĠJAPANESE":8248,"ĠInvalidWheelFilename":8249,"21467627":8250,"ApplicationRunner":8251,"TRADITIONAL":8252,"ĠScatterPlane":8253,"iversalDetector":8254,"ValidatePasswordPolicy":8255,"SingleByteChar":8256,"AuditEventsInformation":8257,"INTENSITY":8258,">+------------+------------+-----------+<":8259,"\"%":8260,"\"'":8261,"\"(?":8262,"\"(\\":8263,"##<":8264,"'+":8265,"'ve":8266,"'``":8267,"'\".":8268,"(#":8269,"(\"\"\"<":8270,")}<":8271,")),<":8272,")])<":8273,"*(":8274,"*=":8275,"*\\":8276,"*([":8277,"+{":8278,",-":8279,"-{}":8280,"-*.":8281,".%":8282,".{":8283,".',<":8284,"/.":8285,"/'<":8286,"/')<":8287,"/\")<":8288,"34":8289,"344":8290,"53":8291,"57":8292,"65":8293,"66":8294,"71":8295,"723":8296,"96":8297,"9000":8298,":(":8299,":])<":8300,":].":8301,">$":8302,">)":8303,">',":8304,">')<":8305,">\"<":8306,">`.<":8307,">{<":8308,"?([^":8309,"AX":8310,"Av":8311,"ACK":8312,"ACE":8313,"After":8314,"Async":8315,"AssertionError":8316,"BJ":8317,"Bo":8318,"Ble":8319,"Ball":8320,"BIN":8321,"BIT":8322,"Buff":8323,"Core":8324,"CON":8325,"Could":8326,"Coding":8327,"Callable":8328,"Cance":8329,"Down":8330,"Diction":8331,"DATA":8332,"DACL":8333,"EC":8334,"EAD":8335,"Empty":8336,"Embed":8337,"FT":8338,"FFI":8339,"Fetch":8340,"Final":8341,"FITS":8342,"GL":8343,"Go":8344,"Graph":8345,"GINE":8346,"Group":8347,"GdImageFile":8348,"GENTA":8349,"HER":8350,"Host":8351,"Hash":8352,"Io":8353,"Icon":8354,"IVERSION":8355,"Jerome":8356,"LEP":8357,"LUE":8358,"Math":8359,"May":8360,"MAT":8361,"Match":8362,"MULT":8363,"Mutable":8364,"NE":8365,"NU":8366,"Non":8367,"Numeral":8368,"NTLM":8369,"Ob":8370,"OUND":8371,"Ops":8372,"Per":8373,"Port":8374,"PIT":8375,"Press":8376,"PTH":8377,"PLA":8378,"PCD":8379,"Player":8380,"PALETTE":8381,"Row":8382,"Range":8383,"RUN":8384,"Redirect":8385,"Sens":8386,"Section":8387,"Sandbox":8388,"SCODE":8389,"TU":8390,"Tool":8391,"TIN":8392,"TAB":8393,"Trie":8394,"TADATA":8395,"Term":8396,"UC":8397,"UP":8398,"Us":8399,"Uv":8400,"Used":8401,"Vi":8402,"VOR":8403,"VID":8404,"Visual":8405,"VIR":8406,"VICE":8407,"Wrap":8408,"Warnings":8409,"WHEEL":8410,"XELS":8411,"ZipFile":8412,"Zalogowano":8413,"[<":8414,"[]":8415,"]\\":8416,"]'<":8417,"]')<":8418,"_(":8419,"_,":8420,"_'):<":8421,"`).\"\"\"<":8422,"ade":8423,"aut":8424,"aix":8425,"bs":8426,"bro":8427,"band":8428,"break":8429,"blake":8430,"cq":8431,"cz":8432,"cat":8433,"che":8434,"cis":8435,"cython":8436,"cision":8437,"cake":8438,"callback":8439,"clan":8440,"cLength":8441,"cdImageFile":8442,"cazabon":8443,"df":8444,"dent":8445,"dup":8446,"day":8447,"dumb":8448,"dry":8449,"duration":8450,"direction":8451,"distribut":8452,"eel":8453,"eded":8454,"easy":8455,"etic":8456,"evin":8457,"fq":8458,"ffi":8459,"ftp":8460,"flow":8461,"gi":8462,"gm":8463,"gw":8464,"gen":8465,"gwin":8466,"given":8467,"guess":8468,"hn":8469,"hist":8470,"hApp":8471,"hard":8472,"handl":8473,"hsv":8474,"hours":8475,"ili":8476,"ialized":8477,"jh":8478,"jac":8479,"jerome":8480,"ko":8481,"kr":8482,"lv":8483,"lxml":8484,"mos":8485,"marker":8486,"nter":8487,"nder":8488,"nie":8489,"nested":8490,"ov":8491,"oose":8492,"oMan":8493,"ogram":8494,"place":8495,"plit":8496,"peg":8497,"pixel":8498,"panel":8499,"publish":8500,"rd":8501,"ru":8502,"ron":8503,"ransition":8504,"so":8505,"sort":8506,"similar":8507,"sleep":8508,"sandbox":8509,"symbol":8510,"sAttrs":8511,"swer":8512,"surro":8513,"sacl":8514,"signer":8515,"toc":8516,"tabbed":8517,"ui":8518,"uit":8519,"uous":8520,"umask":8521,"vStudio":8522,"wid":8523,"xF":8524,"xhtml":8525,"xFF":8526,"xAF":8527,"yan":8528,"your":8529,"year":8530,"ylinux":8531,"yRedirect":8532,"za":8533,"}/":8534,"}\\":8535,"}\")<":8536,"}'.":8537,"ĉĠĠ":8538,"Ġ,":8539,"Ġ;":8540,"Ġ^":8541,"Ġ00":8542,"ĠEX":8543,"Ġ).":8544,"Ġ64":8545,"Ġuri":8546,"ĠQuery":8547,"Ġ],<":8548,"Ġgesture":8549,"ĠYELLOW":8550,"Ġech":8551,"Ġutcoffset":8552,"orage":8553,"orated":8554,"orator":8555,"ins":8556,"ince":8557,"information":8558,"inline":8559,"erous":8560,"ons":8561,"once":8562,"onym":8563,"rey":8564,"repo":8565,"reason":8566,"reitz":8567,"recurs":8568,"requency":8569,"semb":8570,"send":8571,"Ġtw":8572,"Ġtails":8573,"Ġtie":8574,"Ġtindex":8575,"Ġtiff":8576,"Ġtpl":8577,"Ġia":8578,"Ġiglob":8579,"leine":8580,"learn":8581,"letes":8582,"leclan":8583,"Ġaver":8584,"Ġams":8585,"Ġamount":8586,"Ġaffine":8587,"rols":8588,"roach":8589,"ention":8590,"enable":8591,"enumerate":8592,"heit":8593,"hether":8594,"dec":8595,"deselect":8596,"deleted":8597,"\"\",":8598,"\"\"<":8599,"tive":8600,"ticle":8601,"Ġfi":8602,"Ġfit":8603,"Ġfout":8604,"Ġfinit":8605,"Ġfobj":8606,"Ġfair":8607,"Ġflake":8608,"Ġfixed":8609,"Ġfoot":8610,"Ġfancy":8611,"Ġfigure":8612,"alg":8613,"alls":8614,"alive":8615,"alloc":8616,"Ġpid":8617,"Ġpure":8618,"Ġpicture":8619,"Ġpair":8620,"Ġpush":8621,"Ġcli":8622,"Ġcword":8623,"Ġcirc":8624,"ĠcPos":8625,"Ġcerber":8626,"Ġclean":8627,"aning":8628,"anose":8629,"analy":8630,"announce":8631,"ingSet":8632,"ingHeader":8633,"ingTool":8634,"arily":8635,"Ġimportant":8636,"Ġsv":8637,"Ġsz":8638,"Ġsur":8639,"Ġslow":8640,"Ġsval":8641,"Ġshell":8642,"Ġsandbox":8643,"Ġsymbol":8644,"Ġsaturation":8645,"Ġrest":8646,"Ġresize":8647,"Ġrecord":8648,"Ġrender":8649,"urlencode":8650,"Ġwon":8651,"Ġwar":8652,"__`":8653,"__:<":8654,"__)),":8655,"sspi":8656,"Ġbrotli":8657,"Ġdn":8658,"Ġdx":8659,"Ġdri":8660,"Ġdot":8661,"Ġdue":8662,"Ġdrop":8663,"Ġdunder":8664,"Ġdns":8665,"Ġduration":8666,"Ġdriv":8667,"Ġduplicate":8668,"Ġdynamic":8669,"ceutil":8670,"ceived":8671,"ceeded":8672,"Ġinform":8673,"Ġintern":8674,"Ġinspect":8675,"Ġinliner":8676,"Ġintranges":8677,"ctypes":8678,"exist":8679,"export":8680,"lare":8681,"lains":8682,"defining":8683,"ently":8684,"entOS":8685,"entrypoints":8686,"lim":8687,"limit":8688,"Ġns":8689,"Ġnull":8690,"Ġnice":8691,"Ġnumeral":8692,"Ġnatur":8693,"Ġnumpy":8694,"edGraph":8695,"ameters":8696,"unload":8697,"unts":8698,"unich":8699,"unschedule":8700,"unnamed":8701,"unnel":8702,"Ġ([":8703,"Ġ(('":8704,"Ġtouc":8705,"Ġtoday":8706,"adapter":8707,"rime":8708,"riangle":8709,"rigin":8710,"rides":8711,"acing":8712,"access":8713,"ĠTk":8714,"ĠTer":8715,"ĠTEXT":8716,"ĠTakes":8717,"ĠTouch":8718,"ĠTopic":8719,"ĠTornado":8720,"ĠTiffImagePlugin":8721,"essel":8722,"Ġ'*":8723,"Ġ'',":8724,"Ġ'**":8725,"Ġ'*.":8726,"Ġdefects":8727,"Ġmim":8728,"Ġmarker":8729,"Ġmatrix":8730,"Ġmouse":8731,"isite":8732,"yper":8733,"Ġannot":8734,"Ġangle":8735,"Ġanswer":8736,"Ġanonym":8737,"ots":8738,"Ġ\")<":8739,"Ġ\":\"":8740,"idam":8741,"idom":8742,"identi":8743,"Ġforget":8744,"ĠCC":8745,"ĠCol":8746,"ĠCall":8747,"ĠClient":8748,"ĠCOL":8749,"ĠCazabon":8750,"ĠCYAN":8751,"ĠCatching":8752,"ĠCenteredAsyncImage":8753,"ĠCentOS":8754,"iving":8755,"ivgw":8756,"Ġreturning":8757,"Ġisfile":8758,"ĠSY":8759,"ĠSo":8760,"ĠSun":8761,"ĠSound":8762,"ĠSIG":8763,"ĠSlide":8764,"ĠSCHEME":8765,"ĠSlider":8766,"strings":8767,"gettext":8768,"getroot":8769,"getrgb":8770,"Ġhat":8771,"Ġhis":8772,"Ġhkey":8773,"Ġhappen":8774,"Ġhidden":8775,"Ġverti":8776,"Ġvirt":8777,"Ġvisible":8778,"Ġvideo":8779,"Ġvisit":8780,"andom":8781,"andingHeader":8782,"ĠIM":8783,"ĠId":8784,"ĠIService":8785,"ĠIPS":8786,"ĠIssue":8787,"oll":8788,"olve":8789,"olves":8790,"atever":8791,"Ġthing":8792,"Ġthough":8793,"ĠPlus":8794,"ĠPCF":8795,"ĠPDF":8796,"ĠPPM":8797,"ĠPCD":8798,"ĠPALETTE":8799,"ĠPropag":8800,"ĠPhotoshop":8801,"ĠNT":8802,"ĠNow":8803,"ĠNum":8804,"ĠNumber":8805,"ips":8806,"ipy":8807,"etter":8808,"ĠĠĠĠĠĠĠĠĠĠĠĠ":8809,"allfiles":8810,"assemb":8811,"ĠLet":8812,"ĠLec":8813,"ĠLinux":8814,"ecker":8815,"Ġ19":8816,"Ġbeings":8817,"Ġbecome":8818,"forms":8819,"izing":8820,"izes":8821,"about":8822,"ability":8823,"Ġ27":8824,"Ġ28":8825,"endif":8826,"Ġcost":8827,"Ġcounts":8828,"too":8829,"chive":8830,"chann":8831,"chars":8832,"ĠDis":8833,"ĠDmit":8834,"ĠDestination":8835,"Ref":8836,"Register":8837,"Repeat":8838,"002":8839,"003":8840,"005":8841,"0099":8842,"setdefault":8843,"Ġnotes":8844,"pathlib":8845,"builtin":8846,"servers":8847,"Ġevt":8848,"Ġemit":8849,"tegr":8850,"trust":8851,"ĠFS":8852,"ĠFrom":8853,"ĠFont":8854,"ĠFFI":8855,"ĠFragment":8856,"ĠFeed":8857,"Ġexe":8858,"Ġexpos":8859,"Ġexport":8860,"Ġexha":8861,"Ġexports":8862,"Ġexceeded":8863,"ĠBr":8864,"ĠBu":8865,"ĠBor":8866,"ĠBle":8867,"ĠBit":8868,"ĠBast":8869,"ĠBLACK":8870,"ĠBinary":8871,"ĠBmpImagePlugin":8872,"ĠBLUE":8873,"ĠBecker":8874,"Ġ_)":8875,"Ġ_<":8876,"spn":8877,"quisite":8878,"Ġwincer":8879,"Ġdelay":8880,"Ġdemos":8881,"anging":8882,"angerous":8883,"ptc":8884,"filesystem":8885,"outfile":8886,"outFile":8887,"Ġ08":8888,"Ġ09":8889,"ĠOr":8890,"ĠOur":8891,"ĠOper":8892,"ĠOLE":8893,"ĠOBJ":8894,"Ġord":8895,"Ġorg":8896,"Ġorange":8897,"Ġordered":8898,"ubert":8899,"Ġstyle":8900,"Ġ*,":8901,"Ġ*_":8902,"('\\":8903,"Ġrfc":8904,"Ġrank":8905,"licies":8906,"kepicture":8907,"pywin":8908,"codec":8909,"Ġliteral":8910,"Ġwhose":8911,"Ġwhatever":8912,"(\">":8913,"(\"\\\\":8914,"Ġ</":8915,"const":8916,"conds":8917,"Ġ[(":8918,"Ġ[(\"":8919,"ĠMer":8920,"ĠMST":8921,"ĠMock":8922,"ĠMPEG":8923,"ĠMSV":8924,"anslate":8925,"ĠmoduleFactoryFactory":8926,"inder":8927,"Ġ+<":8928,"undled":8929,"osname":8930,"ableHeader":8931,"ableBody":8932,"Ġparses":8933,"ifdef":8934,"previous":8935,"Ġ::<":8936,"Ġ:)<":8937,"appName":8938,"emero":8939,"fobj":8940,"ĠHere":8941,"ĠHAS":8942,"ĠHell":8943,"ĠHEAD":8944,"Ġconversion":8945,"Ġconcept":8946,"Ġconsist":8947,"Ġyet":8948,"()]":8949,"()[:":8950,"()``<":8951,"Ġprovider":8952,"Ġprocessed":8953,"Ġshaders":8954,"Ġshlex":8955,"Ġgetparent":8956,"Ġgetcwd":8957,"Ġmet":8958,"Ġmeta":8959,"Ġmeant":8960,"Ġmeaning":8961,"REPLA":8962,"Ġencodings":8963,"Ġenough":8964,"ERN":8965,"ERIC":8966,">>>":8967,"ĠWill":8968,"ĠWCK":8969,"ĠWrite":8970,"ĠWorld":8971,"ĠWilli":8972,"ĠWhether":8973,"ĠUser":8974,"ĠUrl":8975,"ĠUSHORT":8976,"ENGINE":8977,"ENERIC":8978,"ĠhasChildren":8979,"ĠRelease":8980,"ĠRemote":8981,"Ġsep":8982,"Ġsections":8983,"Ġsens":8984,"ĠPythons":8985,"ĠPythonVersion":8986,"Ġalg":8987,"Ġalong":8988,"Ġalternate":8989,"aps":8990,"Ġunix":8991,"Ġunlike":8992,"Ġunescape":8993,"Ġuncompressed":8994,"Ġtextsize":8995,"Ġraster":8996,"Ġsetattr":8997,"atedata":8998,"~~~~~<":8999,"INPUT":9000,"textdomain":9001,"score":9002,"Ġ31":9003,"Ġ34":9004,"Ġ35":9005,"Ġ307":9006,"usage":9007,"usko":9008,"ĠGr":9009,"ĠGio":9010,"ĠGET":9011,"ĠGRIB":9012,"ĠGREEN":9013,"ĠGÃ¼":9014,"ĠGNU":9015,"ONLY":9016,"ĠRst":9017,"ĠRot":9018,"ĠRich":9019,"ĠRaw":9020,"ĠRLock":9021,"ĠValue":9022,"ĠVideo":9023,"ĠVerify":9024,"ĠInter":9025,"ĠInformation":9026,"ĠIncompleteRead":9027,"compilers":9028,"ĠĠĠĠĠĠĠĠĠĠĠĠĠĠĠĠĠĠĠĠĠĠĠĠĠĠ":9029,"ĠĠĠĠĠĠĠĠĠĠĠĠĠĠĠĠĠĠĠĠĠĠĠĠĠĠĠĠĠĠĠĠĠĠĠĠĠĠĠĠĠĠĠĠ":9030,"iglob":9031,"procti":9032,"timetuple":9033,"Ġchose":9034,"trip":9035,"Ġweak":9036,"ImageButton":9037,"0100":9038,"Ġtypically":9039,"Ġ47":9040,"Ġ405":9041,"Ġ440":9042,"Enter":9043,"Enable":9044,"bootstrap":9045,"METADATA":9046,"Ġlisting":9047,"AppThe":9048,"SED":9049,"SES":9050,"later":9051,"latten":9052,"httpbin":9053,"Ġpred":9054,"Ġpreference":9055,"Ġpreserved":9056,"Ġprecision":9057,"Ġscen":9058,"Ġscroll":9059,"Ġschedule":9060,"Ġscipy":9061,"ILTIN":9062,"Ġcomputed":9063,"Ġcompilers":9064,"PEER":9065,"Ġabc":9066,"ĠImageDraw":9067,"ifies":9068,"Ġrunpy":9069,"TTERN":9070,"SID":9071,"ORK":9072,"objects":9073,"ffec":9074,"solaris":9075,"Ġappend":9076,"ĠappName":9077,"Ġapplies":9078,"Ġappears":9079,"Ġapproach":9080,"parseFragment":9081,"Ġclassname":9082,"Style":9083,"Stores":9084,"ensure":9085,"backport":9086,"background":9087,"Ġformatter":9088,"Ġformatting":9089,"Ġbasename":9090,"Ġintent":9091,"ĠlogType":9092,"keyboard":9093,"notmp":9094,"comment":9095,"Ġkeyboard":9096,"Ġkeyring":9097,"Ġnewlines":9098,"EXCL":9099,"EXEC":9100,"STS":9101,"STDOUT":9102,"netcon":9103,"possible":9104,"Ġpyinstaller":9105,"position":9106,"Ġxrange":9107,"These":9108,"iveTreeWalker":9109,"Versions":9110,"Ġ**\",":9111,"empty":9112,"Ġextends":9113,"Ġextraction":9114,"DED":9115,"DEFIN":9116,"DELETE":9117,"DEPTH":9118,"Ġsubpackage":9119,"Ġsubcommand":9120,"Ġsubpackages":9121,"Ġsubtract":9122,"Ġ503":9123,"ĠEPS":9124,"ĠEric":9125,"Ġbackports":9126,"ĠUnix":9127,"ĠUnrewind":9128,"itive":9129,"epat":9130,"='.',":9131,"Ġ('**":9132,"=\"%":9133,"distro":9134,"distance":9135,"Ġparsedate":9136,"SetWaitableTimer":9137,"kenneth":9138,"Ġ84":9139,"Ġ837":9140,"Convert":9141,"calculate":9142,"collide":9143,"Ġidc":9144,"Ġsomeone":9145,"Ġsometimes":9146,"Ġdocumented":9147,"dateResource":9148,"Ġinstaller":9149,"ALS":9150,"ragged":9151,"ĠDistutilsSetup":9152,"TextAttribute":9153,"lasma":9154,"Unable":9155,"Unrecognized":9156,"Ġaddition":9157,"Ġcollection":9158,"ANGE":9159,"xyz":9160,"ENTITY":9161,"PIX":9162,"prefixed":9163,"Ġseek":9164,"Ġzf":9165,"Ġzones":9166,"Ġrounded":9167,"Ġpossibly":9168,"magic":9169,"magne":9170,"Ġconfigure":9171,"123":9172,"125":9173,"cacheable":9174,"Ġserve":9175,"ĠSets":9176,"ĠSetFileAttributes":9177,"Ġneedles":9178,"Device":9179,"GetPolicy":9180,"GetUser":9181,"UTC":9182,"takepicture":9183,"Ġmapped":9184,"Ġ79":9185,"ĠKeep":9186,"ĠKerberos":9187,"ĠKevin":9188,"ĠKleine":9189,"\\\\\"":9190,"Ġcurs":9191,"Ġdeps":9192,"20000":9193,"URCC":9194,"COUN":9195,"RequestHandler":9196,"RequestHistory":9197,"Ġfollowed":9198,"Ġaccount":9199,"Ġcharset":9200,"oxml":9201,"iscu":9202,"Chop":9203,"Change":9204,"ĠRED":9205,"ĠDevStudio":9206,"Ġallowing":9207,"ĠLabelBase":9208,"Ġdetect":9209,"Ġ63":9210,"ĠState":9211,"ĠStoll":9212,"appendChild":9213,"CEMENTS":9214,"newFields":9215,"ĠJython":9216,"ĠJemero":9217,"untain":9218,"BaseDistribution":9219,"BaseCache":9220,"encoded":9221,"nothing":9222,"single":9223,"elsius":9224,"Ġdiffers":9225,"Ġoutputs":9226,"supports":9227,"Ġhereby":9228,"Ġdispose":9229,"ĠSecureTransport":9230,"ifically":9231,"CreateEvent":9232,"CreateServer":9233,"CreateWaitableTimer":9234,"CreatePipe":9235,"creating":9236,"creative":9237,"{}'.":9238,"Ġworker":9239,"locale":9240,"ĠBased":9241,"ĠBaseSSLError":9242,"Ġyields":9243,"gnore":9244,"detect":9245,"ĠTooMan":9246,"Ġhello":9247,"'.\"":9248,"LED":9249,"elementTree":9250,"lector":9251,"Ġfinish":9252,"Ġfinds":9253,"Ġfinder":9254,"Ġoverlapped":9255,"iterkeys":9256,"Ġinstances":9257,"ĠEnd":9258,"ĠEncoding":9259,"Ġlinear":9260,"doAuth":9261,"Ġquirks":9262,"Ġranges":9263,"ARY":9264,"ARSIZE":9265,"faces":9266,"treebuilder":9267,"Ġlooked":9268,"HTTPWarning":9269,"HTTPConnectionPool":9270,"HTTPHeaderDict":9271,"necessary":9272,"literal":9273,"Resolution":9274,"ASSES":9275,"Pygments":9276,"PySec":9277,"WriteConsole":9278,"ducing":9279,"ariable":9280,"Ġmanipul":9281,"Ġzipimport":9282,"ĠURLRequire":9283,"UNICO":9284,"dispatch":9285,"Ġcorners":9286,"Ġminimum":9287,"Ġmultiply":9288,"Ġ[\"_":9289,"KeyBasedCompareMixin":9290,"monkey":9291,"ĠProvides":9292,"Ġstarted":9293,"Ġmainly":9294,"Ġargv":9295,"Ġargon":9296,"KEL":9297,"Notes":9298,"dtPygments":9299,"Ġlibrus":9300,"ghter":9301,"ĠXML":9302,"Ġinitialization":9303,"ĠDistributionVersion":9304,"Ġwindll":9305,"...\\":9306,"PYPI":9307,"hasher":9308,"hashlib":9309,"ĠAdam":9310,"ickle":9311,"LIB":9312,"Ġends":9313,"Ġimmedi":9314,"Ġimplicit":9315,"startnode":9316,"ĠTimeZone":9317,"outputs":9318,"Ġlinked":9319,"skip":9320,"ĠTransition":9321,"ĠTranslate":9322,"Admonition":9323,"EventSource":9324,"escapes":9325,"ĠContact":9326,"ĠContribut":9327,"ĠSession":9328,"ĠSeveral":9329,"Ġtherefore":9330,"Ġcovered":9331,"ĠHTMLInput":9332,"HTMLParser":9333,"Point":9334,"Ġ\"\",":9335,"Ġ\"\")<":9336,"Ġtriple":9337,"Ġautocomplete":9338,"Ġresolver":9339,"ControlSet":9340,"LAST":9341,"multiprocess":9342,"multithread":9343,"Ġspecifies":9344,"tokenizer":9345,"Ġ...'<":9346,"Ġ...]<":9347,"Ġ...}<":9348,"ĠResolver":9349,"SpecifierSet":9350,"worker":9351,"Ġsug":9352,"Ġsummary":9353,"Ġredact":9354,"exclus":9355,"Ġexclusion":9356,"Logical":9357,"ĠCompound":9358,">*<":9359,"Ġckanext":9360,"ĠBuildTag":9361,"ĠRequestField":9362,"expanduser":9363,"Ġmodifiers":9364,"Ġexecute":9365,"()`.\"\"\"<":9366,"PolicyChange":9367,"Codes":9368,"Codepoint":9369,"impl":9370,"lanche":9371,"ĠRoot":9372,"ĠRobin":9373,"Ġaccessing":9374,"manylinux":9375,"Ġindicate":9376,"ĠAttributes":9377,"ĠLineCircle":9378,"ĠLineEllipse":9379,"00000000":9380,"Ġmaxsize":9381,"Ġmaximum":9382,"ServiceFrame":9383,"cygwin":9384,"Ġpypa":9385,"ĠFoundCandidates":9386,"ĠFoundLinks":9387,"Ġ{}\".":9388,"Ġxmlrpc":9389,"TomlDecoder":9390,"rousel":9391,"Ġoccurren":9392,"ĠPongBall":9393,"ReadBuffer":9394,"ExtType":9395,"Ġpointsize":9396,"ĠConfigOptionParser":9397,"DoCreate":9398,"TokenImperson":9399,"TokenPrivileges":9400,"Ġviewclass":9401,"Ġcomments":9402,"Ġcombin":9403,"ĠRequirementParseError":9404,"ĠĠĠĠĠĠĠĠĠĠĠĠĠĠĠĠĠĠĠĠĠĠĠĠĠ":9405,"ĠĠĠĠĠĠĠĠĠĠĠĠĠĠĠĠĠĠĠĠĠĠĠĠĠĠĠĠĠĠ":9406,"Ġapplying":9407,"APIXELS":9408,"BuildSystem":9409,"CMeta":9410,"FOUND":9411,"FOURCC":9412,"SUPPORTED":9413,"revctrl":9414,"Ġtargets":9415,"Ġrepeat":9416,"namespaces":9417,"namespaceHTMLElements":9418,"Ġarchives":9419,"Ġarchitecture":9420,"ertificates":9421,"+)_":9422,"+)\"')<":9423,"ABCMeta":9424,"DOCTYPE":9425,"Records":9426,"Recurs":9427,"ĠPYTHON":9428,"ĠNamed":9429,"Ġconnector":9430,"Ġdisplayed":9431,"OSError":9432,"PACK":9433,"PATTERN":9434,"Subst":9435,"SubTitle":9436,"bitmap":9437,"Ġlives":9438,"instead":9439,"alkers":9440,"Ġsklearn":9441,"maximum":9442,"RegSet":9443,"RegOpenKey":9444,"viously":9445,"Ġletters":9446,"Ġavoids":9447,"ĠSSLContext":9448,"2015":9449,"TouchWidget":9450,"mission":9451,"traceutil":9452,"secret":9453,"Ġstructures":9454,"Ġextracting":9455,"Ġextracted":9456,"ĠHTTPErrors":9457,"replacements":9458,"ClipboardData":9459,"2822":9460,"Bezier":9461,"gradient":9462,"regexp":9463,"Ġsaving":9464,"Ġrecogn":9465,"Ġrecognized":9466,"completion":9467,"ĠCHILD":9468,"ĠChri":9469,"ĠChunk":9470,"Ġkeeps":9471,"ĠPoolError":9472,"ĠAbstractProvider":9473,"Ġequality":9474,"Ġglyph":9475,"ĠHTTPSHandler":9476,"ĠHTTPSConnectionPool":9477,"({<":9478,"EffectBase":9479,"MODE":9480,"Notific":9481,"Nomads":9482,"Prefix":9483,"PackageSet":9484,"PackageFinder":9485,"PackageDetails":9486,"Running":9487,"ietf":9488,"ĠMAGENTA":9489,"ĠReadTimeout":9490,"ĠGenerate":9491,"ĠUnicodeDecodeError":9492,"Ġspecification":9493,"CCEPT":9494,"Ġsupply":9495,"Ġrefid":9496,"ĠTLSv":9497,"ĠSerializer":9498,"ĠIDNA":9499,"ĠBoth":9500,"Modules":9501,"SystemTopic":9502,"overwrite":9503,"resolvers":9504,"destination":9505,"Ġfailure":9506,"Ġinvoke":9507,"Ġinvolves":9508,"Ġthroughout":9509,"ĠPipe":9510,"ĠAlthough":9511,"libcVersion":9512,"Ġmakes":9513,"Ġchoices":9514,"Comments":9515,"Ġspaces":9516,"ĠExtType":9517,"APPENGINE":9518,"ĠAdditional":9519,">================================":9520,">=============================<":9521,"ĠDefaultDict":9522,"ĠShaderEditor":9523,"FieldSens":9524,"ymbols":9525,"Ġreporting":9526,"urlsplit":9527,"Ġknows":9528,"childNodes":9529,"Ġdecorator":9530,"ĠHelp":9531,"StartTag":9532,"STRONG":9533,"redirector":9534,"Ġleftmost":9535,"Ġaccepts":9536,"ChildNodes":9537,"Ġspecifying":9538,"AddTopic":9539,")?\"<":9540,"Library":9541,"OnBackground":9542,"hellEmbed":9543,"Ġputting":9544,"Ġsignal":9545,"ĠSystemError":9546,"ĠSystemMessage":9547,"Ġestab":9548,"Ġdescribing":9549,"Ġdescribes":9550,"Ġgoing":9551,"ĠrcdataElements":9552,"Ġparticularly":9553,"Ġproblems":9554,"SecurityDescriptor":9555,"effects":9556,"effectwidget":9557,"makefile":9558,"unchanged":9559,"unpacked":9560,"Ġ'/'":9561,"ĠSpinnerInterface":9562,"ĠNOTE":9563,"ĠAccess":9564,"Ġepoch":9565,"ĠMessage":9566,"ĠModuleType":9567,"Ġcompression":9568,"LookupAccount":9569,"Ġ8676":9570,"Conflicting":9571,"ALPHA":9572,"ALPHAPIXELS":9573,"Ġterminal":9574,"Validator":9575,"Ġperformance":9576,"Ġindented":9577,"CLASSES":9578,"CurrentControlSet":9579,"LineEllipse":9580,"Position":9581,"darwin":9582,"saxutils":9583,"Ġcaption":9584,"Ġ\"\\\\\"":9585,"ĠScheme":9586,"ĠScroll":9587,"ĠknownFileName":9588,"ĠOptionProperty":9589,"Ġstdin":9590,"Ġstdlib":9591,"(\".\"):<":9592,"ORDType":9593,"ĠUnpacker":9594,"ĠUnsupportedExtension":9595,"ĠUnsupportedOperation":9596,"ConnectTimeoutError":9597,"Ġrotate":9598,"Ġrotated":9599,"ĠKeyBasedCompareMixin":9600,"COMPRES":9601,".*?":9602,">------------<":9603,"AuditCategory":9604,"OrderedDict":9605,"Queued":9606,"generated":9607,"platlib":9608,"platdir":9609,"publicdomain":9610,"privatedata":9611,"patterns":9612,"tzinfo":9613,"ticFieldSens":9614,"Ġcopies":9615,"ĠSpecifically":9616,"Ġhacked":9617,"Ġhighp":9618,"Ġhigher":9619,"ĠIsTheme":9620,"ĠPerry":9621,"Ġdevices":9622,"ĠMove":9623,"ĠMarti":9624,"ĠMaps":9625,"Ġconvention":9626,"ĠRGB":9627,"Ġattack":9628,"Ġattached":9629,"ĠSettingsWithTabbedPanel":9630,"StateMachineWS":9631,"ĠConfigParserProperty":9632,">`_.<":9633,"CREATE":9634,"FontFile":9635,"danov":9636,"fetchrow":9637,"imagingcms":9638,"vantage":9639,"Ġfnameout":9640,"Ġrespons":9641,"Ġwrapping":9642,"Ġwrapped":9643,"ĠClearColor":9644,"ĠClearBuff":9645,"ĠSocketTimeout":9646,"ĠhueRound":9647,"aspx":9648,"ĠDecimal":9649,"Ġguar":9650,"ĠMaximum":9651,"Ġconflicting":9652,"Ġgetpass":9653,"Ġmechanism":9654,"Ġsends":9655,"ĠIncrementalEncoder":9656,"ĠIncrementalDecoder":9657,"Ġchannel":9658,"Ġpresets":9659,"Ġpylons":9660,"GetTempPath":9661,"SCRIPTION":9662,"ĠResolutionImpossible":9663,"xxxxxxxx":9664,"Ġretrieving":9665,"DomainInformation":9666,"zzzzzzzz":9667,"yyyyyyyy":9668,"7498":9669,"FromPage":9670,"LanguageImporter":9671,"slides":9672,"simplefilter":9673,"Ġellipse":9674,"Ġpopul":9675,"Ġdiscrim":9676,"Ġinserted":9677,"ĠCodec":9678,"Ġthreshold":9679,"Ġthresholds":9680,"ĠPOST":9681,"ĠLexerError":9682,"ĠDirectedGraph":9683,"Ġexperimental":9684,"ĠBUFR":9685,"ĠOutputs":9686,"Ġtransparent":9687,"Ġtransparency":9688,"Ġmaintain":9689,"Individual":9690,"modelview":9691,"ynchronous":9692,"mbedded":9693,"ĠConnectTimeout":9694,"ĠConnectTimeoutError":9695,"ĠJohn":9696,"Ġtriggered":9697,"ĠWebSocketHandler":9698,"exclusions":9699,"ĠConfigurationError":9700,"('.')))<":9701,"(.*)\")<":9702,"pdhutil":9703,"stituteIn":9704,"Ġcoordinate":9705,"Ġcoordinates":9706,"-]*":9707,"Alloc":9708,"Collection":9709,"LaTeX":9710,"LINEARSIZE":9711,"Mountain":9712,"Modal":9713,"MINIVERSION":9714,"MarkupError":9715,"RomanError":9716,"VALUES":9717,"WARNING":9718,"WEBP":9719,"correct":9720,"discrims":9721,"eofs":9722,"factoringTool":9723,"themes":9724,"vancedEffectBase":9725,"Ġedge":9726,"retries":9727,"Ġbrowser":9728,"Ġmarsh":9729,"ĠCloseClipboard":9730,"ĠCOMMENT":9731,"ĠSourceDistribution":9732,"Ġlonger":9733,"Ġparagraphs":9734,"ENABLED":9735,"Ġseems":9736,"Ġsearches":9737,"ĠGatewayOps":9738,"ĠEOFError":9739,"Ġroutines":9740,"FAILURE":9741,"Compatible":9742,"IIsWeb":9743,"Ġprogramming":9744,"Methods":9745,"ĠDemonstrates":9746,"ĠSettingsWithSpinner":9747,"frontmatter":9748,"BGR":9749,"Didnt":9750,"ELEMENT":9751,"MSG":9752,"Normal":9753,"TXFS":9754,"cloud":9755,"glyph":9756,"hrenheit":9757,"pkgs":9758,"}):(\\":9759,"including":9760,"Ġtreewalker":9761,"Ġclosing":9762,"Ġnumerical":9763,"ĠTotalBytesTransferred":9764,"32768":9765,"Ġeasier":9766,"Ġmagnetic":9767,"Ġunichr":9768,"Encrypt":9769,"Ġcollision":9770,"ĠAppEngineManager":9771,"CompletionStatus":9772,"littlecms":9773,"Ġintroduce":9774,"Ġnotifications":9775,"Ġdispatcher":9776,"doctests":9777,"doTestImpersonate":9778,"ExtraData":9779,"INDEXED":9780,"ĠCharacter":9781,"PrivateData":9782,"Demonstrate":9783,">---------------------":9784,"ShaderViewer":9785,"orizontal":9786,"7234":9787,"Available":9788,"Cancel":9789,"Dictionary":9790,"HERIT":9791,"Matcher":9792,"MULTI":9793,"NonRecurs":9794,"Performance":9795,"PITCH":9796,"RUNTIME":9797,"TUAL":9798,"Usage":9799,"Uvloop":9800,"VORITE":9801,"VIDER":9802,"VIRTUAL":9803,"Wraps":9804,"broken":9805,"cqire":9806,"fqp":9807,"handlers":9808,"jacent":9809,"lvl":9810,"tabbedpanel":9811,"yRedirects":9812,"ĠEXIF":9813,"Ġaverage":9814,"Ġfinite":9815,"Ġfairly":9816,"Ġcerberus":9817,"anoseconds":9818,"urlencoded":9819,"Ġinternally":9820,"Ġnicely":9821,"ĠTornadoUvloop":9822,"Ġmimic":9823,"Ġannotations":9824,"Ġanonymous":9825,"ĠSoundLoader":9826,"Ġvirtualenv":9827,"ĠIServiceCollection":9828,"ĠIPShellEmbed":9829,"ĠPropagate":9830,"ĠNumPy":9831,"assembly":9832,"ĠLeclanche":9833,"ĠDmitry":9834,"tegration":9835,"Ġexposing":9836,"Ġexhaust":9837,"ĠBastian":9838,"Ġwincerapi":9839,"ĠMSVCCompiler":9840,"ableBodyError":9841,"ĠHeller":9842,"REPLACEMENTS":9843,"ĠWilliam":9844,"ĠRemoteNotFoundError":9845,"Ġsensor":9846,"ĠGÃ¼nter":9847,"ĠRichard":9848,"ĠRawConfigParser":9849,"ĠVideoPlayer":9850,"ĠInformationPopup":9851,"proctitle":9852,"Ġchosen":9853,"Ġweakref":9854,"AppThemed":9855,"ĠEPSILON":9856,"ĠUnrewindableBodyError":9857,"kennethreitz":9858,"ĠDistutilsSetupError":9859,"magneticFieldSens":9860,"GetPolicyHandle":9861,"GetUserName":9862,"ĠKleineidam":9863,"ĠJemerov":9864,"creativecommons":9865,"ĠTooManyRedirects":9866,"PySecBuffer":9867,"ĠURLRequired":9868,"UNICODE":9869,"Ġimmediately":9870,"ĠHTMLInputStream":9871,"exclusive":9872,"ServiceFramework":9873,"TokenImpersonation":9874,"BuildSystemDetails":9875,"ĠPYTHONPATH":9876,"Notification":9877,"COMPRESSION":9878,"QueuedCompletionStatus":9879,"ĠIsThemeActive":9880,"danovski":9881,"ĠClearBuffers":9882,"NonRecursiveTreeWalker":9883,"magneticFieldSensor":9884,"!!":9885,"!--":9886,"!\"<":9887,"\"#":9888,"\">":9889,"\"{":9890,"\"'<":9891,"\")):<":9892,"\"[-":9893,"\"[^":9894,"#>:":9895,"$$":9896,"$'":9897,"$\"\"\"":9898,"$\",":9899,"'}":9900,"'\"\"\"<":9901,"'\"<":9902,"'(\\":9903,"('<":9904,"([\"":9905,"(\"\".":9906,")-":9907,")=":9908,")\\":9909,")]":9910,")//":9911,")``":9912,")\")<":9913,")::<":9914,")):":9915,")'.":9916,"))]<":9917,")[-":9918,")\").":9919,"))?":9920,")``,<":9921,"*$":9922,"*,":9923,"*<":9924,"*\"):<":9925,"*(?":9926,"+.":9927,"+=":9928,"+'<":9929,"++)":9930,"+============":9931,",):<":9932,",]<":9933,"-'":9934,"-(":9935,"-.<":9936,"-(\\":9937,".]":9938,".|":9939,".'''<":9940,".'.":9941,"/{":9942,"/']<":9943,"/'))<":9944,"/?#]*)":9945,"116":9946,"1000000":9947,"100000000":9948,"2048":9949,"332":9950,"43":9951,"54":9952,"61":9953,"600":9954,"77":9955,"80":9956,"81":9957,"83":9958,"87":9959,"89":9960,"811":9961,"817":9962,"808":9963,"8000":9964,"821":9965,"874":9966,"92":9967,":.":9968,":{":9969,":|":9970,";'":9971,";\").":9972,";*.":9973,"=%":9974,"=-":9975,"=~":9976,"=''":9977,"={}":9978,"=(),":9979,"={<":9980,"=\"\",":9981,">]":9982,">}":9983,">'<":9984,">;<":9985,">...":9986,">**":9987,">``.<":9988,">=====<":9989,">\"\"\"\"":9990,"?:":9991,"?\"\"\"<":9992,"?')<":9993,"?$')<":9994,"@\").":9995,"AK":9996,"AIN":9997,"ASE":9998,"AUT":9999,"Ans":10000,"ACT":10001,"Also":10002,"Apache":10003,"AGE":10004,"ARED":10005,"BZ":10006,"Bl":10007,"BRE":10008,"Block":10009,"Box":10010,"BIO":10011,"BOL":10012,"Bottom":10013,"BDF":10014,"Ca":10015,"Ce":10016,"Cor":10017,"Cls":10018,"Cython":10019,"CTT":10020,"CRI":10021,"CPython":10022,"CAC":10023,"CAPS":10024,"CANCE":10025,"CYAN":10026,"CJK":10027,"Des":10028,"Done":10029,"Dec":10030,"Dest":10031,"Direct":10032,"Dom":10033,"DAT":10034,"Deep":10035,"DOWN":10036,"DWR":10037,"DATE":10038,"DTD":10039,"Duplicate":10040,"Destination":10041,"DWORD":10042,"EK":10043,"Each":10044,"Easy":10045,"Eastern":10046,"Fire":10047,"Form":10048,"FRO":10049,"FOL":10050,"Fallback":10051,"FRA":10052,"FocusBehavior":10053,"GD":10054,"GN":10055,"GP":10056,"Got":10057,"GIT":10058,"GMENT":10059,"GHT":10060,"Gtk":10061,"GENERIC":10062,"Handl":10063,"HOR":10064,"HAT":10065,"HOW":10066,"Home":10067,"HAND":10068,"HIS":10069,"Hardware":10070,"Http":10071,"IM":10072,"IV":10073,"ISION":10074,"IMA":10075,"IRED":10076,"IPTC":10077,"IKELY":10078,"JPEG":10079,"KINTER":10080,"Kenneth":10081,"Kerberos":10082,"LER":10083,"LAT":10084,"Long":10085,"Lines":10086,"Leg":10087,"License":10088,"LAP":10089,"Lower":10090,"LONG":10091,"LUC":10092,"Mon":10093,"Mix":10094,"MER":10095,"Main":10096,"MIT":10097,"Max":10098,"MPEG":10099,"Mesh":10100,"Monkey":10101,"Meta":10102,"Mipmap":10103,"MBOL":10104,"NT":10105,"Next":10106,"New":10107,"Normalized":10108,"NONE":10109,"Nico":10110,"Numpy":10111,"NEGATIVE":10112,"OT":10113,"Ow":10114,"Over":10115,"OVER":10116,"Old":10117,"ODES":10118,"OCTYPE":10119,"OFFSET":10120,"OLED":10121,"Pi":10122,"Ps":10123,"Pix":10124,"Please":10125,"PAD":10126,"Pull":10127,"Parent":10128,"PPRE":10129,"Pair":10130,"Power":10131,"PART":10132,"Propag":10133,"PDH":10134,"Primary":10135,"Rot":10136,"Ret":10137,"Rect":10138,"Rout":10139,"RAL":10140,"Right":10141,"RITE":10142,"RenderContext":10143,"RPAREN":10144,"RBRACKET":10145,"RTD":10146,"RDWR":10147,"Sit":10148,"Sid":10149,"Sem":10150,"SOR":10151,"SVE":10152,"Software":10153,"Socks":10154,"Space":10155,"SOF":10156,"Svg":10157,"Shell":10158,"StrictVersion":10159,"Sidebar":10160,"SPACE":10161,"SOURCE":10162,"Strip":10163,"SSED":10164,"TS":10165,"Tz":10166,"Tex":10167,"Tra":10168,"Tip":10169,"TECT":10170,"That":10171,"Total":10172,"Tiff":10173,"TWA":10174,"Tcl":10175,"Twistd":10176,"Uri":10177,"UME":10178,"Upper":10179,"VC":10180,"VIN":10181,"VOL":10182,"Verify":10183,"VISION":10184,"WG":10185,"Writ":10186,"Way":10187,"WINDOWS":10188,"WIST":10189,"Wasting":10190,"WHAT":10191,"XV":10192,"Xml":10193,"XML":10194,"YLEP":10195,"ZC":10196,"Zip":10197,"ZEN":10198,"ZeroOrMore":10199,"[.":10200,"[\\":10201,"\\\"":10202,"]\"":10203,"]\"\"\"<":10204,"]==":10205,"]['":10206,"]\\\\":10207,"]\").":10208,"^(?":10209,"_{":10210,"_.<":10211,"_\":<":10212,"_]\\":10213,"`)":10214,"`;":10215,"`::<":10216,"`-'":10217,"aco":10218,"aif":10219,"affect":10220,"auto":10221,"amental":10222,"aCCEPT":10223,"bg":10224,"bat":10225,"ben":10226,"bge":10227,"bers":10228,"big":10229,"because":10230,"brow":10231,"bice":10232,"babel":10233,"bender":10234,"basic":10235,"bably":10236,"blend":10237,"cc":10238,"cn":10239,"cpp":10240,"cas":10241,"curl":10242,"cpython":10243,"cheme":10244,"cns":10245,"camera":10246,"cPos":10247,"cElementTree":10248,"categories":10249,"caps":10250,"certificates":10251,"dT":10252,"dd":10253,"di":10254,"dp":10255,"dy":10256,"dst":10257,"did":10258,"dkey":10259,"dive":10260,"dition":10261,"dyn":10262,"dial":10263,"digits":10264,"dlg":10265,"dalius":10266,"dangerous":10267,"dusko":10268,"eac":10269,"eign":10270,"eved":10271,"even":10272,"efully":10273,"equivalent":10274,"fA":10275,"fur":10276,"fill":10277,"false":10278,"fmt":10279,"fsencode":10280,"feac":10281,"gal":10282,"ging":10283,"game":10284,"gError":10285,"glish":10286,"grim":10287,"gdanovski":10288,"hi":10289,"hand":10290,"have":10291,"href":10292,"hItem":10293,"house":10294,"hStd":10295,"hyper":10296,"ipp":10297,"iod":10298,"ios":10299,"igger":10300,"icol":10301,"iak":10302,"iuses":10303,"iCodes":10304,"jk":10305,"jn":10306,"jython":10307,"jav":10308,"jci":10309,"juc":10310,"kb":10311,"kt":10312,"kin":10313,"kent":10314,"kas":10315,"kang":10316,"ktop":10317,"kuhlman":10318,"kNico":10319,"lm":10320,"lone":10321,"land":10322,"lation":10323,"lpath":10324,"llic":10325,"lstrip":10326,"lbl":10327,"lbert":10328,"my":10329,"must":10330,"milde":10331,"missing":10332,"mjp":10333,"menu":10334,"mipmap":10335,"nr":10336,"nod":10337,"nadata":10338,"normalized":10339,"nius":10340,"nbr":10341,"needed":10342,"natur":10343,"nced":10344,"nprops":10345,"oz":10346,"oct":10347,"ogs":10348,"oos":10349,"olog":10350,"osed":10351,"oCD":10352,"oogle":10353,"ojci":10354,"pan":10355,"ping":10356,"pla":10357,"pad":10358,"pil":10359,"pformat":10360,"prere":10361,"psf":10362,"plus":10363,"plop":10364,"poch":10365,"pseud":10366,"paste":10367,"plier":10368,"pFormatter":10369,"pickle":10370,"rm":10371,"rw":10372,"ran":10373,"ration":10374,"rnd":10375,"sj":10376,"sample":10377,"sms":10378,"sHel":10379,"shell":10380,"sym":10381,"saturation":10382,"soukka":10383,"symlinks":10384,"tb":10385,"tc":10386,"tod":10387,"tab":10388,"tach":10389,"tected":10390,"treew":10391,"uz":10392,"uer":10393,"ude":10394,"uce":10395,"uation":10396,"uck":10397,"uary":10398,"uenter":10399,"uish":10400,"ujuc":10401,"vp":10402,"van":10403,"vols":10404,"vApp":10405,"volution":10406,"vpi":10407,"want":10408,"walker":10409,"world":10410,"wildcard":10411,"waste":10412,"xor":10413,"xls":10414,"xsize":10415,"xstep":10416,"yr":10417,"ycode":10418,"yong":10419,"yZalogowano":10420,"zb":10421,"zal":10422,"zing":10423,"zma":10424,"zop":10425,"zem":10426,"zmat":10427,"zily":10428,"zones":10429,"zoz":10430,"{'":10431,"|\\.":10432,"}\"":10433,"}',":10434,"}]*)":10435,"}\"'.":10436,"}!\".":10437,"}'\".":10438,"}(.*)\")<":10439,"Âł":10440,"ÃŃ":10441,"Ġ.<":10442,"Ġ99":10443,"Ġ);<":10444,"Ġ?<":10445,"Ġ!<":10446,"Ġurls":10447,"Ġ]+":10448,"Ġqueue":10449,"ĠENXIO":10450,"ĠQueue":10451,"ĠâĢ":10452,"orms":10453,"orations":10454,"orial":10455,"orph":10456,"oroos":10457,"inate":10458,"inel":10459,"inet":10460,"inte":10461,"inFile":10462,"invalid":10463,"inally":10464,"incom":10465,"inName":10466,"inition":10467,"inations":10468,"inString":10469,"instru":10470,"inliner":10471,"inued":10472,"integer":10473,"erly":10474,"ongs":10475,"onpython":10476,"rest":10477,"reme":10478,"resp":10479,"rection":10480,"rebuild":10481,"reload":10482,"retry":10483,"related":10484,"recycleview":10485,"sev":10486,"sequ":10487,"selection":10488,"Ġte":10489,"Ġti":10490,"Ġtab":10491,"Ġtcs":10492,"Ġtreated":10493,"Ġtabbed":10494,"Ġtaj":10495,"Ġtaking":10496,"Ġtunnel":10497,"mpg":10498,"mption":10499,"mplicit":10500,"Ġicns":10501,"atic":10502,"ature":10503,"atly":10504,"atransition":10505,"attach":10506,"standard":10507,"stead":10508,"stChar":10509,"stian":10510,"styled":10511,"leading":10512,"legacy":10513,"legate":10514,"Ġaf":10515,"Ġactions":10516,"Ġamb":10517,"ĠaString":10518,"Ġapi":10519,"rov":10520,"roy":10521,"rove":10522,"roved":10523,"ropped":10524,"rosa":10525,"routes":10526,"rokes":10527,"rosla":10528,"enn":10529,"eno":10530,"hest":10531,"heli":10532,"heuristic":10533,"delay":10534,"decoding":10535,"decre":10536,"detail":10537,"descriptor":10538,"\"\"):<":10539,"tice":10540,"tips":10541,"tify":10542,"tively":10543,"tiptc":10544,")</":10545,")<<":10546,"Ġfar":10547,"Ġfid":10548,"Ġfire":10549,"Ġfour":10550,"Ġfund":10551,"Ġfill":10552,"Ġfbo":10553,"Ġfmode":10554,"Ġfetc":10555,"Ġfeed":10556,"Ġflex":10557,"Ġfriendly":10558,"Ġfsencode":10559,"Ġfrequency":10560,"alag":10561,"allen":10562,"alImageFile":10563,"align":10564,"alabel":10565,"allid":10566,"Ġpd":10567,"Ġpf":10568,"Ġph":10569,"Ġpt":10570,"Ġpal":10571,"Ġprom":10572,"Ġpers":10573,"Ġpul":10574,"Ġpow":10575,"Ġpub":10576,"Ġplist":10577,"Ġpig":10578,"Ġpprint":10579,"Ġplus":10580,"Ġpanel":10581,"Ġphot":10582,"Ġpatched":10583,"Ġplayer":10584,"Ġpaste":10585,"Ġpairs":10586,"Ġphotos":10587,"Ġpriority":10588,"Ġprimary":10589,"Ġplasma":10590,"Ġpxstep":10591,"Ġcc":10592,"Ġcs":10593,"Ġcat":10594,"Ġcame":10595,"Ġcir":10596,"Ġcec":10597,"Ġcrop":10598,"Ġcategory":10599,"ĠcElementTree":10600,"Ġcrime":10601,"selid":10602,"ances":10603,"animated":10604,"roma":10605,"rome":10606,"ingw":10607,"ingSk":10608,"inguish":10609,"meyr":10610,"geValue":10611,"gelbert":10612,"getiptc":10613,"Ġsi":10614,"Ġss":10615,"Ġsan":10616,"Ġsve":10617,"Ġsine":10618,"Ġsay":10619,"Ġsig":10620,"Ġsync":10621,"Ġsaf":10622,"Ġsake":10623,"Ġsatis":10624,"Ġsym":10625,"Ġsynchron":10626,"ĠsAttrs":10627,"Ġsymlinks":10628,"Ġsolve":10629,"Ġsymbols":10630,"Ġrename":10631,"Ġresp":10632,"Ġrever":10633,"Ġrepro":10634,"Ġremo":10635,"Ġreach":10636,"Ġreleases":10637,"Ġresearch":10638,"Ġrewind":10639,"Ġrespect":10640,"Ġrenamed":10641,"Ġrecycleview":10642,"Ġrequisite":10643,"Ġodb":10644,"Ġodd":10645,"urt":10646,"urEffect":10647,"urlopen":10648,"Ġws":10649,"Ġwaste":10650,"Ġwasting":10651,"__=":10652,"__}":10653,"__',":10654,"__\")<":10655,"__),<":10656,"__=\"":10657,"ita":10658,"ito":10659,"itow":10660,"itDialog":10661,"sslo":10662,"ssWarning":10663,"ssibility":10664,"ssymb":10665,"Ġbz":10666,"Ġbad":10667,"Ġbpp":10668,"Ġbab":10669,"Ġbright":10670,"Ġblow":10671,"Ġbast":10672,"Ġbash":10673,"Ġborder":10674,"Ġbunch":10675,"Ġbands":10676,"Ġbigger":10677,"Ġballid":10678,"Ġda":10679,"Ġden":10680,"Ġdig":10681,"Ġdie":10682,"Ġdarker":10683,"ĠdNS":10684,"Ġdigits":10685,"Ġdlg":10686,"Ġdiscu":10687,"Ġdropped":10688,"--<":10689,"-->',":10690,"utBuilder":10691,"utely":10692,"utorial":10693,"Ġinfile":10694,"Ġinformat":10695,"Ġinner":10696,"Ġinvert":10697,"Ġinfinit":10698,"Ġinsensitive":10699,"Ġincremental":10700,"Ġindependent":10701,"Ġinsensitively":10702,"Ġincorrect":10703,"ctx":10704,"ctype":10705,"ctually":10706,"expression":10707,"\"\"\"^(?":10708,"ionerror":10709,"lap":10710,"ladef":10711,"lared":10712,"lacer":10713,"deflate":10714,"lien":10715,"lice":10716,"liant":10717,"likely":10718,"liograph":10719,"Ġnl":10720,"Ġnp":10721,"Ġnone":10722,"Ġnest":10723,"Ġnprops":10724,"Ġnanoseconds":10725,"Ġnorms":10726,"mapt":10727,"makes":10728,"mainder":10729,"edu":10730,"edWriter":10731,"edEncoding":10732,"amefile":10733,"unparse":10734,"unsplit":10735,"unlink":10736,"undefined":10737,"universal":10738,"unsigned":10739,"unsorted":10740,"unauthorized":10741,"unordered":10742,"univgw":10743,"unyong":10744,"unstyled":10745,"Ġ(>":10746,"Ġ(`":10747,"Ġ(''":10748,"Ġtogg":10749,"Ġtold":10750,"adiuses":10751,"cos":10752,"cour":10753,"could":10754,"then":10755,"than":10756,"thresh":10757,"thomas":10758,"threaded":10759,"ription":10760,"riff":10761,"rilater":10762,"rillic":10763,"riheli":10764,"account":10765,"accqire":10766,"ĠTO":10767,"ĠTurn":10768,"ĠTable":10769,"ĠTake":10770,"ĠTitle":10771,"ĠTriangle":10772,"ĠTHIS":10773,"ĠTKINTER":10774,"Ġ''":10775,"Ġ'[":10776,"Ġ')<":10777,"Ġ'']":10778,"Ġ'+'<":10779,"Ġ#:":10780,"iling":10781,"ills":10782,"ilata":10783,"illed":10784,"ilgrim":10785,"Ġdeform":10786,"istogram":10787,"Ġmd":10788,"Ġmile":10789,"Ġmmap":10790,"Ġmatter":10791,"Ġmarkers":10792,"Ġmiscellaneous":10793,"ĠmActivity":10794,"isol":10795,"isation":10796,"isfile":10797,"isap":10798,"ismatch":10799,"isabs":10800,"ypress":10801,"ppol":10802,"pprint":10803,"Ġanim":10804,"Ġanimated":10805,"otch":10806,"Ġ\"+":10807,"Ġ\"...\\":10808,"iding":10809,"idll":10810,"Ġforce":10811,"Ġforeign":10812,"ĠCre":10813,"ĠCra":10814,"ĠClass":10815,"ĠCore":10816,"ĠCalled":10817,"ĠClasses":10818,"ĠCryptography":10819,"ĠCandidates":10820,"ĠCurrent":10821,"ĠCSV":10822,"ĠCyg":10823,"ĠClick":10824,"ĠCJK":10825,"ĠCALS":10826,"ĠCelsius":10827,"ivan":10828,"iversion":10829,"extraction":10830,"mentation":10831,"rab":10832,"rase":10833,"rays":10834,"rake":10835,"ramb":10836,"ravols":10837,"ĠisPath":10838,"Ġisolation":10839,"onego":10840,"Ġoffer":10841,"-----<":10842,"ĠSJ":10843,"ĠSte":10844,"ĠSave":10845,"ĠSty":10846,"ĠSTO":10847,"ĠSEM":10848,"ĠSoukka":10849,"ĠSAX":10850,"ĠSince":10851,"ĠSuz":10852,"ĠSoroos":10853,"forest":10854,"forward":10855,"getformat":10856,"getdefault":10857,"getfilesystem":10858,"getprevious":10859,"getChildNodes":10860,"Ġhad":10861,"Ġhol":10862,"Ġhig":10863,"Ġhim":10864,"Ġhwn":10865,"Ġhardware":10866,"ĠhStd":10867,"Ġhurt":10868,"Ġvx":10869,"Ġvy":10870,"Ġvow":10871,"Ġvenv":10872,"Ġvars":10873,"Ġvisual":10874,"ĠvTex":10875,"namelbl":10876,"ĠIcon":10877,"ĠIPython":10878,"ĠIron":10879,"ĠIgnore":10880,"ĠIRTD":10881,"ĠITS":10882,"ĠIvan":10883,"ĠImplicit":10884,"ĠIppol":10885,"ateReadBuffer":10886,"Ġthous":10887,"Ġthrows":10888,"Ġthreaded":10889,"Ġko":10890,"Ġkw":10891,"ationValueError":10892,"ationalization":10893,"opython":10894,"opener":10895,"upenn":10896,"ĠPC":10897,"ĠPan":10898,"ĠPrint":10899,"ĠPublic":10900,"ĠPalette":10901,"ĠPrep":10902,"ĠPng":10903,"ĠPassword":10904,"ĠPURE":10905,"ĠPhot":10906,"ĠPublisher":10907,"ĠPressing":10908,"ĠPDH":10909,"ĠPlanet":10910,"ĠPieters":10911,"ĠPcdImageFile":10912,"ĠPilgrim":10913,"ĠNB":10914,"ĠNON":10915,"ĠNDK":10916,"ĠNico":10917,"ĠNTLM":10918,"ĠNEGATIVE":10919,"ocused":10920,"ackError":10921,"ĠAT":10922,"ĠAss":10923,"ĠActi":10924,"ĠAuto":10925,"ĠAsk":10926,"ĠALL":10927,"ĠAudit":10928,"ĠAlast":10929,"ĠActually":10930,"ipe":10931,"icz":10932,"ication":10933,"icException":10934,"icient":10935,"ulz":10936,"ulates":10937,"ety":10938,"etype":10939,"etries":10940,"etrov":10941,"ecting":10942,"irit":10943,"ironpython":10944,"asc":10945,"asd":10946,"asm":10947,"ĠLif":10948,"ĠLim":10949,"ĠLock":10950,"ĠLight":10951,"ĠLog":10952,"ĠLINE":10953,"ĠLAB":10954,"ĠLACK":10955,"ĠLots":10956,"ĠLIKELY":10957,"ĠLutBuilder":10958,"320":10959,"3216":10960,"echow":10961,"echin":10962,"Ġujson":10963,"Ġuchardet":10964,"Ġbeach":10965,"Ġbezier":10966,"irections":10967,"Ġ2048":10968,"Ġ__<":10969,"tobool":10970,"chdir":10971,"chodorowski":10972,"Ġ./":10973,"Ġ.-.<":10974,"ĠDon":10975,"ĠDist":10976,"ĠDate":10977,"ĠDet":10978,"ĠDrop":10979,"ĠDave":10980,"ĠDom":10981,"ĠDraw":10982,"ĠDIG":10983,"ĠDET":10984,"ĠDependency":10985,"ĠDob":10986,"ĠDTD":10987,"ĠDraft":10988,"ĠDalius":10989,"ĠDOCTYPE":10990,"Ġlost":10991,"Ġloss":10992,"Ġlock":10993,"Ġlots":10994,"Ġlocated":10995,"Reset":10996,"Reparse":10997,"ReST":10998,"Report":10999,"Reason":11000,"Revision":11001,"Received":11002,"RefactoringTool":11003,"006":11004,"0004":11005,"setPro":11006,"setFilter":11007,"setproctitle":11008,"Ġnotation":11009,"pathset":11010,"urePath":11011,"~~<":11012,"Ġasynchronous":11013,"paration":11014,"parator":11015,"parsing":11016,"serts":11017,"serial":11018,"Ġeo":11019,"Ġev":11020,"Ġemp":11021,"Ġeager":11022,"Ġeven":11023,"Ġequivalent":11024,"teap":11025,"tekNico":11026,"trl":11027,"ĠFed":11028,"ĠFix":11029,"ĠFind":11030,"ĠFree":11031,"ĠFill":11032,"ĠFIL":11033,"ĠFOR":11034,"ĠField":11035,"ĠFull":11036,"ĠFBO":11037,"ĠFeature":11038,"ĠFrame":11039,"ĠFNF":11040,"ĠFocusBehavior":11041,"ĠFOUND":11042,"ĠFeel":11043,"Ġfromlist":11044,"Ġexclu":11045,"Ġexename":11046,"ĠBZ":11047,"ĠBe":11048,"ĠBind":11049,"ĠBlen":11050,"ĠBRI":11051,"ĠBecause":11052,"ĠBob":11053,"ĠBEL":11054,"ĠBeta":11055,"ĠBLP":11056,"ĠBond":11057,"ĠBalag":11058,"liber":11059,"libEncoder":11060,"librus":11061,"libCompatible":11062,"Ġ`-.":11063,"intent":11064,"intopython":11065,"Ġstrm":11066,"Ġstrateg":11067,"Ġstrtobool":11068,"Ġosx":11069,"Ġosname":11070,"Ġ_/":11071,"Ġ_)<":11072,"speed":11073,"quad":11074,"quxx":11075,"quote":11076,"quantization":11077,"quoted":11078,"Ġwincon":11079,"Ġwinapi":11080,"__(_":11081,"Ġdeal":11082,"Ġdesc":11083,"Ġdecomp":11084,"Ġdeta":11085,"Ġdedent":11086,"Ġdeletes":11087,"Ġdevpi":11088,"Ġonline":11089,"ĠtypeFilter":11090,"fileobject":11091,"filetypes":11092,"outgo":11093,"Ġ\"\"\":":11094,"Ġ\"\"\"\\<":11095,"Ġ01":11096,"ĠOb":11097,"ĠObj":11098,"ĠOFFSET":11099,"ĠOffi":11100,"ĠOrigin":11101,"ĠOdtPygments":11102,"Ġoricol":11103,"uber":11104,"Ġstale":11105,"Ġstret":11106,"Ġstores":11107,"Ġstyled":11108,"Ġstrokes":11109,"quees":11110,"Ġ*\"":11111,"('#":11112,"('-":11113,"('/":11114,"('_":11115,"('/',":11116,"(':')<":11117,"('[\\":11118,"('-->',":11119,"ghton":11120,"ghtly":11121,"Ġgit":11122,"Ġgive":11123,"Ġgives":11124,"Ġglsl":11125,"Ġgrab":11126,"Ġru":11127,"Ġrather":11128,"Ġradiuses":11129,"Ġrulz":11130,"keypress":11131,"pyo":11132,"pyw":11133,"pydist":11134,"pywintypes":11135,"pyOpenSSL":11136,"pyCMS":11137,"pyepat":11138,"ternative":11139,"ternationalization":11140,"urlfetch":11141,"urlunsplit":11142,"Ġlb":11143,"Ġlt":11144,"Ġlv":11145,"Ġlinux":11146,"Ġwho":11147,"Ġwhy":11148,"(\"#":11149,"(\"(\"":11150,"(\"[\"":11151,"(\">=":11152,"(\":\",":11153,"(\"+{":11154,"(\")\").":11155,"(\";\").":11156,"(\"@\").":11157,"(\"]\").":11158,"conf":11159,"construct":11160,"consume":11161,"Ġ[[":11162,"ĠMS":11163,"ĠMod":11164,"ĠMath":11165,"ĠMode":11166,"ĠMag":11167,"ĠMore":11168,"ĠMay":11169,"ĠMare":11170,"ĠMuch":11171,"ĠMatch":11172,"ĠMIT":11173,"ĠManager":11174,"ĠMost":11175,"ĠMissing":11176,"ĠMET":11177,"ĠMachine":11178,"ĠMarkup":11179,"ĠMonkey":11180,"ĠMIME":11181,"ĠMODES":11182,"Ġnameprep":11183,"ansi":11184,"ansitow":11185,"umans":11186,"unders":11187,"undant":11188,"ableCandidate":11189,"Ġparam":11190,"ifScatter":11191,"pred":11192,"verImage":11193,"verBehavior":11194,"Ġ:-)<":11195,"\",)<":11196,"emon":11197,"oughton":11198,"ĠHas":11199,"ĠHave":11200,"ĠHook":11201,"ĠHIG":11202,"ĠHof":11203,"ĠHolds":11204,"ĠHttp":11205,"ĠHumans":11206,"ĠHoughton":11207,"Ġcontrols":11208,"Ġconform":11209,"Ġconfi":11210,"Ġconsu":11211,"Ġconsistent":11212,"ntly":11213,"Ġyvalue":11214,"Ġyoffset":11215,"Ġyears":11216,"Include":11217,"Indirect":11218,"Integer":11219,"InconsistentCandidate":11220,"Integration":11221,"InitDialog":11222,"()[":11223,"()`<":11224,"()`.<":11225,"())(\"":11226,"()][":11227,"Ġprojection":11228,"Ġshare":11229,"Ġshipped":11230,"Ġshapes":11231,"Ġgettext":11232,"Ġgetpalette":11233,"ĠgetTreeWalker":11234,"agon":11235,"REF":11236,"REAL":11237,"RELE":11238,"RECUR":11239,"REFIX":11240,"REVISION":11241,"ityCC":11242,"Ġenorm":11243,"ERSON":11244,"ĠWh":11245,"ĠWare":11246,"ĠWarnings":11247,"ĠWalker":11248,"ĠWiemann":11249,"ĠWHITE":11250,"ĠWarc":11251,"ĠWARN":11252,"ĠWHEEL":11253,"ĠWORK":11254,"ĠWRITE":11255,"ĠWojci":11256,"Ġhasn":11257,"Exe":11258,"Export":11259,"Experi":11260,"ĠRegister":11261,"ĠRevision":11262,"putpalette":11263,"Ġsem":11264,"Ġseen":11265,"Ġseveral":11266,"Ġalter":11267,"Ġalgorith":11268,"Ġallot":11269,"Ġalthough":11270,"Ġalongs":11271,"listen":11272,"apk":11273,"aped":11274,"Ġuname":11275,"Ġunable":11276,"Ġunlink":11277,"Ġunknown":11278,"Ġunfin":11279,"Ġunsu":11280,"Ġunparsed":11281,"Ġunused":11282,"Ġuninstalled":11283,"Ġunexpected":11284,"Ġunauthorized":11285,"Ġunique":11286,"Ġunordered":11287,"oreset":11288,"Ġtextbox":11289,"okay":11290,"``-":11291,"``.":11292,"imes":11293,"imeter":11294,"INIT":11295,"INHERIT":11296,"winreg":11297,"scm":11298,"Ġ33":11299,"Ġ301":11300,"Ġ333":11301,"Ġ{...":11302,"ĠGe":11303,"ĠGroup":11304,"ĠGObject":11305,"ĠGdk":11306,"ĠGlibcVersion":11307,"ĠGaif":11308,"ĠGoogle":11309,"ĠGuenter":11310,"ĠRid":11311,"ĠRPM":11312,"ĠRPAREN":11313,"ĠRBRACKET":11314,"ĠRename":11315,"ĠRandom":11316,"ĠRetries":11317,"cessarily":11318,"ĠVer":11319,"ĠView":11320,"ĠVasko":11321,"ĠVFT":11322,"ĠVariable":11323,"ĠVilata":11324,"derived":11325,"://<":11326,"://``":11327,"reads":11328,"readonly":11329,"mainLoop":11330,"ĠInc":11331,"ĠInstance":11332,"ĠIniti":11333,"ĠInclu":11334,"ĠInvert":11335,"ĠInitialize":11336,"ĠInconsistentCandidate":11337,"ĠInternationalization":11338,"formatted":11339,"component":11340,"computer":11341,"composite":11342,"sources":11343,"Ġ``\"":11344,"Ġ``'":11345,"Ġ``(":11346,"Ġ``<":11347,"Ġ``--":11348,"ibliograph":11349,"Ġtransaction":11350,"ĠĠĠĠĠĠĠĠĠĠĠĠĠĠĠĠĠĠĠĠĠĠĠĠĠĠĠĠĠĠĠĠ":11351,"ĠĠĠĠĠĠĠĠĠĠĠĠĠĠĠĠĠĠĠĠĠĠĠĠĠĠĠĠĠĠĠĠĠĠĠĠĠĠĠĠĠĠĠ":11352,"ĠĠĠĠĠĠĠĠĠĠĠĠĠĠĠĠĠĠĠĠĠĠĠĠĠĠĠĠĠĠĠĠĠĠĠĠĠ":11353,"igation":11354,"igier":11355,"iguous":11356,"img":11357,"Ġattri":11358,"Ġatexit":11359,"prod":11360,"profile":11361,"provides":11362,"program":11363,"proble":11364,"protected":11365,"FileVersion":11366,"FileWrapper":11367,"FileSize":11368,"Ġpathname":11369,"Ġchallen":11370,"trio":11371,"Ġheart":11372,"eek":11373,"curious":11374,"Ġsoft":11375,"Ġsolid":11376,"Ġversioning":11377,"contain":11378,"controlling":11379,"continued":11380,"Ġ41":11381,"Ġ43":11382,"Ġ46":11383,"Ġ49":11384,"Ġ418":11385,"Ġ427":11386,"Ensure":11387,"shaders":11388,"shake":11389,"bound":11390,"book":11391,"bounce":11392,"bogdanovski":11393,"METR":11394,"Ġcollide":11395,"Ġcolumns":11396,"Ġlistcomp":11397,"docit":11398,"ardised":11399,"Ġcodebase":11400,"Ġcodepoint":11401,"SEEK":11402,"Ġadvanced":11403,"Ġadmonition":11404,"Ġadvantage":11405,"Ġadjacent":11406,"Ġreadme":11407,"Ġreadonly":11408,"Ġpreparation":11409,"Ġscore":11410,"ILS":11411,"ILITY":11412,"Ġdatastore":11413,"Ġdataexplorer":11414,"ĠdataReceived":11415,"Ġcompass":11416,"Ġcomputer":11417,"Ġcomposite":11418,"Ġarbit":11419,"Ġarrays":11420,"PED":11421,"Ġabort":11422,"Ġabis":11423,"Ġfunctional":11424,"Ġfunctioning":11425,"ĠImageFont":11426,"Ġprinting":11427,"ystick":11428,"SITE":11429,"SIGN":11430,"ĠpackageName":11431,"ORANGE":11432,"fficient":11433,"ledge":11434,"solutely":11435,"Ġappear":11436,"parseString":11437,"Count":11438,"Coords":11439,"Cookies":11440,"Stop":11441,"Standard":11442,"Stuff":11443,"Stderr":11444,"Storage":11445,"StandingHeader":11446,"HEIGHT":11447,"HELP":11448,"SSPI":11449,"backed":11450,"Ġformatdate":11451,"Ġbases":11452,"Ġbasetype":11453,"Ġbasemode":11454,"Ġintention":11455,"Ġnotice":11456,"Lost":11457,"LossWarning":11458,"comments":11459,"Ġdomains":11460,"Ġtimestamp":11461,"Ġnewlist":11462,"ĠnewParent":11463,"STAT":11464,"STRO":11465,"STYLEP":11466,"installation":11467,"ĠAnything":11468,"possibly":11469,"ĠpublicId":11470,"specs":11471,"specify":11472,"Ġxm":11473,"Ġxv":11474,"Ġxoffset":11475,"redraw":11476,"redenti":11477,"reduce":11478,"packaged":11479,"VersionPredicate":11480,"basestring":11481,"msdn":11482,"enced":11483,"ATAL":11484,"ATFORM":11485,"ATORS":11486,"codingError":11487,"Ġextended":11488,"Ġextreme":11489,"DEV":11490,"DESCRIPT":11491,"uteString":11492,"Ġtested":11493,"Ġtestmain":11494,"ĠtestName":11495,"ĠtestWaitable":11496,"ĠtestSimple":11497,"ĠtestImpersonate":11498,"ĠtestCookies":11499,"Ġsubtle":11500,"Ġsubtitle":11501,"Ġsubmit":11502,"Ġsubsection":11503,"Ġsubstitute":11504,"Ġsubsequ":11505,"Ġwhenever":11506,"Ġ55":11507,"Ġ511":11508,"temporary":11509,"templates":11510,"0225":11511,"ĠEd":11512,"ĠESC":11513,"ĠEqual":11514,"ĠEffect":11515,"ĠEastern":11516,"ĠEmbedded":11517,"ĠEpoch":11518,"aved":11519,"Ġbackward":11520,"Ġbackwards":11521,"Ġbacksla":11522,"ĠUnparsedVersion":11523,"ĠUniversalDetector":11524,"Ġresume":11525,"='+":11526,"Ġneatly":11527,"=\"(\\":11528,"=\"([^":11529,"addHandler":11530,"additional":11531,"Ġ2010":11532,"Settings":11533,"SetPro":11534,"SettingsWith":11535,"SetSecurityDescriptor":11536,"ICS":11537,"graphic":11538,"Ġ8467":11539,"Ġlex":11540,"Constants":11541,"Consumed":11542,"Constructs":11543,"columns":11544,"Ġidnadata":11545,"160":11546,"Ġiterate":11547,"Ġiteritems":11548,"openpty":11549,"Ġinstalld":11550,"Ġinstallations":11551,"ALI":11552,"arga":11553,"ĠNotInteger":11554,"ĠDistutilsModule":11555,"ĠDistutilsAr":11556,"csInfo":11557,"Ġupstream":11558,"lasse":11559,"Ġresulting":11560,"Unfilter":11561,"Unexpected":11562,"UniversalDetector":11563,"runas":11564,"Ġja":11565,"Ġjjk":11566,"Ġjnius":11567,"racts":11568,"rststyle":11569,"ĠCommon":11570,"Ġaddres":11571,"Ġaddressing":11572,"['\\":11573,"logic":11574,"ĠHTTPException":11575,"ĠHTTPConnection":11576,"ĠHTTPAdapter":11577,"ĠHTTPConnectionPool":11578,"spacewalk":11579,"hemes":11580,"Ġpositive":11581,"Parsing":11582,"ParsedVersion":11583,"ROOT":11584,"sonErrors":11585,"Ġ|(":11586,"Ġ|.|":11587,"issue":11588,"kivyapp":11589,"linear":11590,"lineview":11591,"prefixes":11592,"akta":11593,"Ġ/<":11594,"Ġ/__)":11595,"Ġzum":11596,"Ġzipp":11597,"Ġroutes":11598,"Ġpolicies":11599,"Ġpossibility":11600,"DictEncoder":11601,"1200":11602,"ryption":11603,"rypted":11604,"Ġserial":11605,"ĠSetting":11606,"Delete":11607,"Defin":11608,"Determine":11609,"Debugging":11610,"Development":11611,"Delegate":11612,"DecodingError":11613,"GetWindow":11614,"GetConsole":11615,"GetCurrent":11616,"GetCookie":11617,"GetFileAttributes":11618,"GetStd":11619,"GetSave":11620,"guid":11621,"ĠrequestCode":11622,"scribe":11623,"Ġusages":11624,"UTE":11625,"UTDOWN":11626,"UTRAL":11627,"UTILS":11628,"Ġinstallable":11629,"ĠLibrus":11630,"')\"":11631,"'))":11632,"design":11633,"Ġoptionally":11634,"hazmat":11635,"Ġ720":11636,"Ġ767":11637,"Ġ7320":11638,"ĠKV":11639,"ĠKang":11640,"ĠKuhlman":11641,"ĠKriheli":11642,"ĠKlasse":11643,"Ġnumbering":11644,"Ġnumbered":11645,"TypeError":11646,"\\\\.":11647,"\\\\\\":11648,"\\\\#>:":11649,"Ġcurdir":11650,"Ġcurved":11651,"2006":11652,"2009":11653,"2000000":11654,"FAVORITE":11655,"Ġinterrup":11656,"110":11657,"ĠDictMetadata":11658,"CODES":11659,"Ġ\\'%":11660,"Ġ\\$$":11661,"ĠColored":11662,"RequestError":11663,"RequestWarning":11664,"RequestField":11665,"RequestTopic":11666,"ĠLibraryLoader":11667,"Ġaccomp":11668,"Ġaccid":11669,"Ġopening":11670,"SDK":11671,"also":11672,"isclosed":11673,"ischemes":11674,"Ġscripting":11675,"Ġoperating":11676,"Choose":11677,"ĠRESET":11678,"comes":11679,"ĠNewConnectionError":11680,"ĠDebug":11681,"ĠDelete":11682,"ĠDeprecated":11683,"ĠDetermines":11684,"ĠDevelopment":11685,"ĠForward":11686,"ĠLabelWith":11687,"ĠLabelOnBackground":11688,"ĠLabelMipmap":11689,"perform":11690,"ĠeventType":11691,"ĠeventID":11692,"Ġeventually":11693,"ĠeventCategory":11694,"splitComparison":11695,"104":11696,"ĠConstants":11697,"Ġdetected":11698,"Ġdetector":11699,"CTrie":11700,"RIX":11701,"Ġ655":11702,"ĠStatic":11703,"ĠStackError":11704,"CELER":11705,"ToWaitFor":11706,"ĠJe":11707,"ĠJust":11708,"ĠJann":11709,"ĠJones":11710,"ĠJsonErrors":11711,"Ġurljoin":11712,"Ġurlunparse":11713,"Ġdividing":11714,"BaseSpecifier":11715,"BaseCandidate":11716,"BaseReporter":11717,"Proc":11718,"Protocol":11719,"Product":11720,"Provide":11721,"SCM":11722,"SCS":11723,"SCREEN":11724,"filenames":11725,"TestData":11726,"TestReclineView":11727,"eventLog":11728,"Ġcasedkey":11729,"ĠstateFilter":11730,"ForResult":11731,"IOLoop":11732,"white":11733,"without":11734,"inputfile":11735,"inputstream":11736,"ĠsystemId":11737,"Ġexplor":11738,"Ġexpanduser":11739,"Ġexplains":11740,"lowercase":11741,"']:<":11742,"']``":11743,"subclass":11744,"subtract":11745,"systemId":11746,"Ġtraining":11747,"CommandInfo":11748,"PythonKey":11749,"platforms":11750,"userid":11751,"rector":11752,"Ġdifferences":11753,"050":11754,">===========<":11755,"TreeInput":11756,"minate":11757,"minutes":11758,"Ġtokenize":11759,"Ġtokenizer":11760,"ĠtokenTypes":11761,"Ġspirit":11762,"InfoDistribution":11763,"ĠInvalidURL":11764,"ĠInvalidMarker":11765,"ĠInvalidProxy":11766,"ĠInvalidSchema":11767,"ĠInvalidChunkLength":11768,"ĠInvalidCodepoint":11769,"PILED":11770,"Ġdismiss":11771,"Ġdispla":11772,"RequirementInformation":11773,"ification":11774,"CreateKey":11775,"CreateTopic":11776,"LSL":11777,"LScheme":11778,"entities":11779,"Ġspecialized":11780,"ĠBaseSpecifier":11781,"ĠCommandAr":11782,"IDPy":11783,"IDOK":11784,"[:]<":11785,"detector":11786,"ĠToDate":11787,"'.')<":11788,"Android":11789,"LEVE":11790,"depth":11791,"dependency":11792,"Ġrepresented":11793,"Ġrepresentative":11794,"Ġoverhead":11795,"Ġoverwrit":11796,"Ġoverrides":11797,"iterdir":11798,"lipses":11799,"ĠExec":11800,"ĠExtra":11801,"ĠEnable":11802,"ĠEntry":11803,"ĠEncaps":11804,"ĠEngelbert":11805,"defaults":11806,"Component":11807,"ComputeString":11808,"([])<":11809,"NAIVE":11810,"cmdoptions":11811,"dobe":11812,"grab":11813,"grade":11814,"Ġquite":11815,"Ġquoted":11816,"Ġquotes":11817,"Ġhashable":11818,"ARD":11819,"ARRA":11820,"treeType":11821,"hesized":11822,"ĠPygments":11823,"ĠPyAccess":11824,"ĠPyPi":11825,"ĠPySocks":11826,"Ġ['-":11827,"Ġcolors":11828,"Ġcolored":11829,"Ġcolormapt":11830,"HTTPConnection":11831,"HTTPMessage":11832,"HTTPResponse":11833,"Ġ--><":11834,"atingDefault":11835,"Ġ'.'":11836,"Ġ'.'.":11837,"033":11838,"Ġfieldname":11839,"copying":11840,"PyPI":11841,"PyINPUT":11842,"headerbar":11843,"ariant":11844,"Ġmanually":11845,"Ġmanaged":11846,"Ġitsdangerous":11847,"ĠURLs":11848,"ĠURLFetch":11849,"443":11850,"stats":11851,"Ġdistances":11852,"Ġdistinguish":11853,"ĠTestReclineView":11854,"Ġminutes":11855,"Ġminidom":11856,"KeyState":11857,"KeyCode":11858,"KeyDown":11859,"StringProperty":11860,"StringIO":11861,"StringList":11862,"monotonic":11863,"archy":11864,"ĠProject":11865,"ĠProbing":11866,"ĠProvide":11867,"Ġstartnode":11868,"Ġshowing":11869,"3333":11870,"NotChunk":11871,"NotHttp":11872,"beat":11873,"being":11874,"dtd":11875,"unctuation":11876,"ACCELER":11877,"DIVIDER":11878,"OLSIZE":11879,"days":11880,"dapt":11881,"ĠXZ":11882,"Ġindexes":11883,"...@":11884,"Ġoperators":11885,"Attemp":11886,"Attempt":11887,"ĠAdvancedEffectBase":11888,"ĠMyScatter":11889,"ĠMyLib":11890,"ĠRequestsWarning":11891,"LIKELY":11892,"NOCTT":11893,"NOFOL":11894,"Ġending":11895,"Ġendian":11896,"regular":11897,"Ġimply":11898,"Ġimplies":11899,"starting":11900,"startActivity":11901,"ĠThus":11902,"ĠThink":11903,"Ġvariety":11904,"Contexts":11905,"BUFF":11906,"BUILTIN":11907,"CURSOR":11908,"ĠjoinString":11909,"ĠOpenGL":11910,"Ġstreamreader":11911,"Ġstreamwriter":11912,"OpenPort":11913,"].*)":11914,"ĠSearch":11915,"Installer":11916,"Ġchanged":11917,"Ġchardetect":11918,"Quake":11919,"authorize":11920,"authorization":11921,"oseVersion":11922,"removeChild":11923,"Ġautomatic":11924,"Ġresolves":11925,"Ġresolving":11926,"Ġlocalrev":11927,"Ġunpacking":11928,"ControlKeyState":11929,"150":11930,"1555":11931,"157234":11932,"CacheControl":11933,"PROC":11934,"PROPER":11935,"PROGRESS":11936,"multitexture":11937,"multiply":11938,"Ġerrmsg":11939,"Ġ...,":11940,"Ġ...])":11941,"ĠattributeMap":11942,"ETIME":11943,"Ġperiod":11944,"Ġsuitable":11945,"Ġredistribut":11946,"Ġredundant":11947,"Ġ251":11948,"Ġ252":11949,"Ġ253":11950,"Ġ254":11951,"Ġexcl":11952,"Logon":11953,"ĠCompute":11954,"ĠCompiler":11955,"FILL":11956,"FILTER":11957,"PoolManager":11958,"cases":11959,"download":11960,"downloads":11961,"sdl":11962,"sdcard":11963,"Ġobjloader":11964,"ĠFileList":11965,"ĠFileCache":11966,"ĠBuildozer":11967,"ĠBuildDefault":11968,"ĠRequestMethods":11969,">===================<":11970,"\")(\"":11971,"\")],<":11972,"\"]:<":11973,"ECTING":11974,"RACE":11975,"RASCS":11976,"saveopts":11977,"Ġentrypo":11978,"Ġentrypoints":11979,"ĠtagToken":11980,"statemachine":11981,">###":11982,"expand":11983,"Ġ160":11984,"Ġ16384":11985,"Ġexecuting":11986,"()`:":11987,"Ġlasty":11988,"PolicyNo":11989,"PolicyAuditEventsInformation":11990,"(((":11991,"lank":11992,"Ġfloating":11993,"Ġtopic":11994,"ĠtopicName":11995,"Ġstride":11996,"ĠRoger":11997,"ĠRobert":11998,"ĠaccessSCM":11999,"229":12000,"Search":12001,"Sequence":12002,"Selection":12003,"Separator":12004,"bindtextdomain":12005,"streams":12006,"Ġindices":12007,"Ġindicates":12008,"Ġdestinations":12009,"Ġdescriptions":12010,"Ġdemonstrate":12011,"InvalidURL":12012,"InvalidMarker":12013,"InvalidChunkLength":12014,"Applications":12015,"ĠDefinition":12016,"ĠTransformer":12017,"ĠTransformSpec":12018,"HEADERSIZE":12019,"cyrillic":12020,"iki":12021,"Ġpypi":12022,"locals":12023,"Ġ{}\\":12024,"Ġ{}'.":12025,"Ġxmlns":12026,"Ġroles":12027,"TomlPath":12028,"TomlAr":12029,"TomlDecodeError":12030,"TomlNumpy":12031,"PathDistribution":12032,"RetryMeta":12033,"alencoder":12034,"fdopen":12035,"filterwarnings":12036,"topic":12037,"topicName":12038,"Ġ'-'":12039,"Ġ'-'<":12040,"ĠParticular":12041,"ĠParameters":12042,"Reads":12043,"ReadTimeout":12044,"ReadTimeoutError":12045,"ĠNoteApp":12046,"ĠNoteView":12047,"Ġpointing":12048,"Ġservices":12049,"Ġservicemanager":12050,"Double":12051,"DoSome":12052,"FindFiles":12053,"TokenType":12054,"Tokenizer":12055,"TokenSession":12056,"Ġacts":12057,"raySeparator":12058,"ĠLinks":12059,"Ġcomma":12060,"ĠDESCRIPTION":12061,"Ġprober":12062,"ĠĠĠĠĠĠĠĠĠĠĠĠĠĠĠĠĠĠĠĠĠĠĠĠĠĠĠĠĠĠĠĠĠĠĠĠĠĠĠ":12063,"ĠapplyHandl":12064,"backends":12065,"Ġframed":12066,"NAMED":12067,"Ġlookups":12068,"SUPPORT":12069,"SUBJECT":12070,"TRY":12071,"handles":12072,"Ġtargetname":12073,"Ġrepl":12074,"ishment":12075,"Ġverb":12076,"namespaceURI":12077,"Ġ100000":12078,"Ġeggs":12079,"Ġlongopt":12080,"ĠSequenceLike":12081,"ButtonBehavior":12082,"ISAPI":12083,"LinkSource":12084,"MissingDict":12085,"MissingWarning":12086,"PRESSED":12087,"PRERELE":12088,"Recycle":12089,"finally":12090,"xmlrp":12091,"Ġpurge":12092,"Ġregutil":12093,"execute":12094,"ĠCreateEvent":12095,"ĠDDS":12096,"Ġconnections":12097,">===============<":12098,"flicting":12099,"OSX":12100,"Subsampling":12101,"Subscribe":12102,"vcvars":12103,"Ġlive":12104,"Ġlikely":12105,"Ġlighter":12106,"Ġpatching":12107,"Ġsamples":12108,"Ġoldy":12109,"Ġdrawn":12110,"Ġ((-(?":12111,"ĠSUPPRE":12112,"ĠShort":12113,"ĠShading":12114,"Ġvendorable":12115,"RegOpenKeyEx":12116,"RegEnumKey":12117,"RegEnumValue":12118,"RegCreateKey":12119,"readyInstalled":12120,"ORTS":12121,"HTTPErrors":12122,"2014":12123,"=[(":12124,"=[<":12125,"SecureTransport":12126,"TIES":12127,"cfe":12128,"trailing":12129,"uffled":12130,"writable":12131,"Ġfonts":12132,"ĠclientConnection":12133,"Ġrects":12134,"locations":12135,"uniforms":12136,"ĠTextIO":12137,"Ġmoved":12138,"ĠLoop":12139,"ĠLooseVersion":12140,"ĠBackup":12141,"Ġshorter":12142,"Ġattempts":12143,"EnumWindows":12144,"Ġidentical":12145,"Ġinterpreting":12146,"Ġinterpreters":12147,"URLENCO":12148,"replacement":12149,"ĠExamples":12150,"Ġlowercased":12151,"ImportPopup":12152,"everything":12153,"observer":12154,"})\"<":12155,"})\".":12156,"})-(\\":12157,"oraryFile":12158,"Ġreasonable":12159,"coordinate":12160,"ĠChodorowski":12161,"Ġkeeping":12162,"ĠAbstractResolver":12163,"ĠLIGHTRED":12164,"ĠLIGHTWHITE":12165,"ĠLIGHTBL":12166,"ĠLIGHTMAG":12167,"ĠLIGHTBLACK":12168,"ĠLIGHTYELLOW":12169,"ĠLIGHTGREEN":12170,"ĠLIGHTCYAN":12171,"Ġglork":12172,"ushing":12173,"Defect":12174,"COMPILED":12175,">~~~~~~~~~~~~<":12176,">~~~~~~~~~~~~~<":12177,"({!":12178,"({\"":12179,"Buffered":12180,"HookMissing":12181,"IFT":12182,"IFEST":12183,"WithColor":12184,"poolmanager":12185,"peps":12186,"uxili":12187,"Ġtzname":12188,"rotation":12189,"Ġfullname":12190,"ĠTempDirectoryTypeRegistry":12191,"Ġformal":12192,"ĠCustomPopup":12193,"ĠCustomJSONEncoder":12194,"operations":12195,"abstractproperty":12196,"('.'):<":12197,"ĠMAKE":12198,"Ġmaps":12199,"ĠGetClipboardData":12200,"ĠGetQueuedCompletionStatus":12201,"ĠGeneric":12202,"ĠGenerated":12203,"ĠGenerator":12204,"ĠRaised":12205,"projectName":12206,"ServerApp":12207,"ĠTimeouts":12208,"ĠTimeoutError":12209,"ĠTimeoutStateError":12210,"Ġrectangles":12211,"MemoryBIO":12212,"Ġconsiderations":12213,"LsaStore":12214,"OFN":12215,"ierarchy":12216,"Ġfreeform":12217,"Ġfreeze":12218,"Ġparenthesized":12219,"Ġpickling":12220,"ĠrefNode":12221,"commonprefix":12222,"Ġ'_')<":12223,"ochrome":12224,"Ġbegins":12225,"ĠDataLossWarning":12226,"Ġseparated":12227,"ĠValid":12228,"Ġscales":12229,"EXPORTS":12230,"Ġ8595":12231,"Ġ8541":12232,"Ġ8565":12233,"Ġ8592":12234,"Ġpythoncomxx":12235,"([^?#]*)":12236,"([^}]*)":12237,"Ġcalculated":12238,"ĠDemoApp":12239,">```<":12240,"POSITIVE":12241,"POOLED":12242,"POOLSIZE":12243,"ValueEx":12244,"_.\")<":12245,"_.]+":12246,"ializeError":12247,"overlay":12248,"override":12249,"overlapped":12250,"realfile":12251,"Ġslightly":12252,"Ġsidebar":12253,"examples":12254,"ĠTagInfo":12255,"Ġ\".\".":12256,"ĠPROGRESS":12257,"ĠAlways":12258,"ĠAlpha":12259,"ĠLocal":12260,"ĠLocate":12261,"ĠDoes":12262,"Ġlocate":12263,"Ġgraphical":12264,"Ġlatin":12265,"Ġlargest":12266,"Ġmodelview":12267,"ĠFormatError":12268,"ĠFormatMessage":12269,"Ġcallbacks":12270,"ĠExtracts":12271,"Ġresolutions":12272,">========================<":12273,">=========================<":12274,"Extensions":12275,"ExtensionProc":12276,"ĠShaderWidget":12277,"ĠShaderTree":12278,"CDATA":12279,"Checks":12280,"DocInfo":12281,"DocTitle":12282,"DocTreeInput":12283,"EvtQuery":12284,"EvtNext":12285,"EvtSubscribe":12286,"Generally":12287,"MyState":12288,"MyCallback":12289,"mkpath":12290,"mktemp":12291,"mkdtemp":12292,"tmpl":12293,"tmpdir":12294,"Ġ};<":12295,"Ġutili":12296,"antic":12297,"Ġreferencing":12298,"Ġknowledge":12299,"ocusWithColor":12300,"Ġ`-.<":12301,"Ġ`-'<":12302,"Ġ`-`.":12303,"Ġdeclar":12304,"Ġdecimal":12305,"Ġdeclared":12306,"ĠHello":12307,"REQUEST":12308,"REQUIRED":12309,"Ġencrypt":12310,"Ġencryption":12311,"bytecode":12312,"Ġacceptable":12313,"ĠStreamReader":12314,"ĠStreamWriter":12315,"ĠStreamSize":12316,"ĠStreamBytesTransferred":12317,"ĠStreamNumber":12318,"ĠStreamConsumed":12319,"Additional":12320,"CodecInfo":12321,"Ġappropriately":12322,")?$":12323,"3986":12324,">'(":12325,"Canvas":12326,"GROUP":12327,"IMPERSON":12328,"Libs":12329,"NSPs":12330,"OKS":12331,"Only":12332,"SHARED":12333,"SHUTDOWN":12334,"SHIFT":12335,"dbRaw":12336,"wrapped":12337,"intosh":12338,"insertBefore":12339,"Ġcatching":12340,"Ġsigned":12341,"Ġrecords":12342,"Ġreclineview":12343,"Ġ\"\\\"":12344,"ĠSubject":12345,"ĠSubclasses":12346,"ĠSubstituteIn":12347,"ĠSNIMissingWarning":12348,"ĠNoReturn":12349,"ĠasciiUpper":12350,"transaction":12351,"Ġexiting":12352,"Ġgoogle":12353,"Ġsentinel":12354,"Ġprevents":12355,"ĠAndroidApplicationRunner":12356,"ĠAnsiBack":12357,"ĠAnsiFore":12358,"pipeTestService":12359,"{}.{}":12360,"ĠTomlOrdered":12361,"ĠTomlTz":12362,"Ġcanonicalise":12363,"gestures":12364,"ĠResponseError":12365,"ĠResponseNotChunk":12366,"SecurityContext":12367,"ĠRecycleBoxLayout":12368,"#!.*":12369,"296":12370,"3578":12371,"CALE":12372,"CONTROL":12373,"ELFORMAT":12374,"PlatformWarning":12375,"Thumb":12376,"TemporaryFile":12377,"TabbedPanelHeader":12378,"tarfile":12379,"ordering":12380,"development":12381,"timer":12382,"Ġreceive":12383,"Ġreceives":12384,"Ġreceiving":12385,"Ġntlm":12386,"uncher":12387,"ĠSpinnerOption":12388,"Ġhalt":12389,"Ġ2400":12390,"Requirements":12391,"RequirementsConflicted":12392,"RegistryIDPy":12393,"ĠMeir":12394,"ĠRegError":12395,"ĠRegOpenKeyEx":12396,"ĠRegEnumKey":12397,"ĠRegEnumValue":12398,"FileNameW":12399,"EndTag":12400,"EndDialog":12401,"LookupDict":12402,"LookupPrivile":12403,"Ġassumed":12404,"Ġassumes":12405,"Ġquerying":12406,"Ġterminate":12407,"Ġterminates":12408,"BUILDER":12409,"ValidationError":12410,">~~~~~~~~~~~~~~~~<":12411,">~~~~~~~~~~~~~~~~~<":12412,">~~~~~~~~~~~~~~~~~~~~~<":12413,"Ġdownloading":12414,"Ġreplaced":12415,"Ġauthentic":12416,"Creating":12417,"Currently":12418,"OUTPUT":12419,"WRONLY":12420,"hasis":12421,"hashed":12422,"offs":12423,"phases":12424,"sdists":12425,"ĠErrorString":12426,"lexers":12427,"Ġaxisid":12428,"Ġfragments":12429,"Ġportion":12430,"Ġcapable":12431,"Ġcapability":12432,"Ġsimplify":12433,"Ġtoolkit":12434,"ĠCandidateLookup":12435,"extractors":12436,"ĠScale":12437,"Ġhomepage":12438,"ĠArgs":12439,"ĠArgumentParser":12440,"ĠArchive":12441,"ĠLarosa":12442,"ĠLauncher":12443,"ĠLanguageFilter":12444,"ĠLanguageImporter":12445,"Ġdeprecations":12446,"Ġstdout":12447,"(\"-\",":12448,"(\"-_.\")<":12449,"indentation":12450,"Ġdoctree":12451,"Ġdoctrees":12452,"ĠWinColor":12453,"ĠWinTerm":12454,"ĠWinStyle":12455,"ĠURIs":12456,"aredRequest":12457,"Ġkeywords":12458,"ĠUnsupportedVersionError":12459,"Contents":12460,"ConnectTo":12461,"ConnectTimeout":12462,"requestedPrivileges":12463,"Ġmanagement":12464,"ABLESTYLEP":12465,"USERS":12466,"('','":12467,"370":12468,">-----------<":12469,"Description":12470,"Iteration":12471,"OrderedSet":12472,"PipSession":12473,"pdatingDefault":12474,"publicId":12475,"privs":12476,"private":12477,"tables":12478,"reporters":12479,"Ġtaskbar":12480,"Ġdidn":12481,"utcnow":12482,"utctimetuple":12483,"lished":12484,"Ġnetwork":12485,"Ġ'\"{":12486,"Ġ'\"\\\\\\":12487,"ĠSupported":12488,"ĠSpecial":12489,"ĠSpecify":12490,"ĠSimpleFilter":12491,"ĠSimpleExtension":12492,"ĠINFO":12493,"ĠINFIN":12494,"ĠIsAppThemed":12495,"ĠPerform":12496,"ĠPerformance":12497,"asyncio":12498,"Ġcookielib":12499,"Ġeffects":12500,"Ġexercises":12501,"ĠMeshData":12502,"Ġentities":12503,"Ġattach":12504,"ContainerIO":12505,">.+?)<":12506,"ĠeventLogType":12507,"ĠeventLogRecord":12508,"ĠEnsureDispatch":12509,"ResolverException":12510,"displayName":12511,"InstallationResult":12512,"ĠParseResults":12513,">`_<":12514,"ĠLoadDialog":12515,"PreserveElements":12516,"Ġseparately":12517,"1997":12518,"1998":12519,"223344":12520,"3002":12521,"EditTestApp":12522,"HOME":12523,"HOST":12524,"HOOKS":12525,"RootKey":12526,"SERVICE":12527,"Special":12528,"SocketError":12529,"Targets":12530,"customfilter":12531,"drops":12532,"freetype":12533,"ĠQuake":12534,"ĠQuoted":12535,"Ġamssymb":12536,"hexversion":12537,"hexdigest":12538,"Ġfnamein":12539,"Ġrecursion":12540,"Ġowed":12541,"Ġblazing":12542,"Ġbounding":12543,"ĠnumRecords":12544,"ĠhueIndex":12545,"Ġhosting":12546,"ĠNAMED":12547,"ecnosci":12548,"Ġuppercase":12549,"tooltips":12550,"ĠDecorated":12551,"transitions":12552,"Ġguard":12553,"ĠHeimes":12554,"Ġconflicts":12555,"Ġmembers":12556,"ĠUNC":12557,"ĠUNDEFIN":12558,"ĠUNLIKELY":12559,"ĠRequires":12560,"ĠRequirementsConflicted":12561,"Ġsense":12562,"Ġsending":12563,"Ġselecting":12564,"Ġselected":12565,"ĠRetryError":12566,"Ġschemas":12567,"TooDeep":12568,"Ġbounced":12569,"TransitionError":12570,"ĠResolutionError":12571,"Ġretrieve":12572,"Ġretrieved":12573,"DomainBasicAuth":12574,"NAMESPACE":12575,"Ġidentifiers":12576,"ĠExtensionError":12577,"Ġbitmaps":12578,"ThreadPool":12579,"Ġcrasher":12580,"ĠTracebackType":12581,")+$\",":12582,"={'":12583,"AbstractDistribution":12584,"CloseableHeader":12585,"However":12586,"NetValidatePasswordPolicy":12587,"OtherTopic":12588,"Packer":12589,"TableParser":12590,"TableMarkupError":12591,"UpdateResource":12592,"UrlValidationError":12593,"bazfile":12594,"clone":12595,"gatePair":12596,"rupole":12597,"slider":12598,"texcoords":12599,"ĠQt":12600,"ĠQName":12601,"Ġ~/":12602,"Ġellipses":12603,"Ġtkinter":12604,"Ġactivity":12605,"Ġactively":12606,"Ġactivate":12607,"enums":12608,"Ġpopular":12609,"Ġsamplers":12610,"Ġdiscriminator":12611,"Ġinherits":12612,"isoformat":12613,"Ġforkpty":12614,"ĠCAMER":12615,"ĠCallbackReason":12616,"ĠCallbackFileWrapper":12617,"ĠSvgWidget":12618,"ĠPOSITIVE":12619,"ĠPtyProcess":12620,"ĠANSI":12621,"echti":12622,"Ġuvloop":12623,"particle":12624,"Ġearly":12625,"Ġexperimentation":12626,"ĠOverride":12627,"Ġgradient":12628,"Ġgrubert":12629,"ĠlittleCMS":12630,"ĠMacVersion":12631,"ĠMartÃŃ":12632,"Ġmaintainer":12633,"InstalledDistribution":12634,"ĠWorking":12635,"Ġsecret":12636,"schemas":12637,"ĠInternetCanonicalize":12638,"ĠInternetGetCookie":12639,"Ġsounds":12640,"ĠEventLoop":12641,"Ġ8603":12642,"UnpackException":12643,"UnpackValueError":12644,"Ġcollector":12645,"Ġcollecting":12646,"casedkey":12647,">====================<":12648,">======================<":12649,">=======================<":12650,"refreshing":12651,"TomlPreserveInline":12652,"usersitepackages":12653,"('.')[:":12654,"STRINGBUILDER":12655,"ĠAccordionApp":12656,"ĠAccordionItem":12657,"Ġentirely":12658,"imatedButton":12659,"Ġinstantiates":12660,"\"^\\":12661,"\"^(?:":12662,"'^#!.*":12663,"=\",\",":12664,"AFTER":12665,"AGPL":12666,"BYTE":12667,"Local":12668,"LocationValueError":12669,"PLATFORM":12670,"TCP":12671,"Trying":12672,"VALID":12673,"differ":12674,"different":12675,"dnsname":12676,"discriminator":12677,"large":12678,"peace":12679,"Ġedges":12680,"Ġessen":12681,"retrieved":12682,"Ġprivs":12683,"Ġcareful":12684,"Ġsuppressing":12685,"Ġbrowsers":12686,"Ġmarquees":12687,"Ġ\"{}\"'.":12688,"ĠCameraApp":12689,"ĠSourceFile":12690,"ĠIntent":12691,"ĠIntel":12692,"ĠPostScript":12693,"ĠAudioButton":12694,"ĠAudioBackground":12695,"ĠAliasProperty":12696,"Ġ1111":12697,"ĠBufferFull":12698,"Ġdebt":12699,"Ġdebundled":12700,"Ġrststyle":12701,"Ġlongest":12702,"ĠMainWindow":12703,"Ġbytearray":12704,"Ġsessions":12705,"Ġsearched":12706,"ĠGatewayErrors":12707,"ĠInitialise":12708,"SECBUFF":12709,"STDIN":12710,"ownerDocument":12711,"ĠEmptyTag":12712,"ĠEmptyClipboard":12713,"SetConsoleTextAttribute":12714,"Ġroutine":12715,"ĠStartTag":12716,"Compatibility":12717,"Ġquadrilater":12718,"iltinFilter":12719,"ĠPyOpenSSLContext":12720,"ĠContainerIO":12721,"ĠCompares":12722,"ĠDemonstration":12723,"ĠTextured":12724,"ĠLoggerWrapper":12725,"RunAnyCommand":12726,"medium":12727,"ĠMultitextureLayout":12728,"ĠMultitextureWidget":12729,"ĠSettingsWithSidebar":12730,"Ġ~~~~~~~~~~~~~~~~~~~<":12731,"\"/><":12732,"({},":12733,"({})<":12734,");//":12735,"@@@":12736,"FONTS":12737,"Headers":12738,"Intent":12739,"LegacySpecifier":12740,"NFD":12741,"OPTIONS":12742,"TempDirectoryTypeRegistry":12743,"VirtualKeyCode":12744,"WorkingSet":12745,"\\'>'":12746,"_*``":12747,"blais":12748,"black":12749,"dkuhlman":12750,"iously":12751,"jaraco":12752,"ographs":12753,"pcbuild":12754,"pmImageFile":12755,"purge":12756,"punycode":12757,"punishment":12758,"twine":12759,"Ġqtables":12760,"increment":12761,"increasing":12762,"Ġsilenced":12763,"Ġsilently":12764,"Ġscope":12765,"Ġremaining":12766,"Ġrestrictions":12767,"ĠdbiRaw":12768,"ĠTwistedServerApp":12769,"Ġmonth":12770,"Ġmonotonic":12771,"ĠSECURITY":12772,"ĠScreenManager":12773,"Ġkernel":12774,"Ġkernels":12775,"ĠPATH":12776,"ĠPATCH":12777,"ĠNetValidatePasswordPolicy":12778,"ĠNormally":12779,"ĠNormalize":12780,"ĠLOCALE":12781,"ĠLele":12782,"ĠLegacySpecifier":12783,"ĠpipeTestService":12784,"ĠBlais":12785,"ĠBlaha":12786,"ĠBodyNotHttp":12787,"Ġdegree":12788,"Ġdegrees":12789,"ĠOutOfData":12790,"ĠOutOfRange":12791,"Ġstarts":12792,"(\",\").":12793,"(\"{([^}]*)":12794,"ĠMirror":12795,"ĠMirosla":12796,"ĠMorsel":12797,"Ġyielded":12798,"Ġyielding":12799,"Invoke":12800,"RECORDType":12801,"ĠUSING":12802,"Expected":12803,"Explorer":12804,"ĠGraphicException":12805,"ĠInputState":12806,"ĠInsecureRequestWarning":12807,"ĠInsecurePlatformWarning":12808,"SEMICOLON":12809,"Ġadapted":12810,"ĠpyCMSdll":12811,"ĠEditor":12812,"ĠUndefinedComparison":12813,"ĠUndefinedEnvironmentName":12814,"UndefinedComparison":12815,"UndefinedEnvironmentName":12816,"ĠInstallationCandidate":12817,"ĠEnums":12818,"HTTPSHandler":12819,"interpret":12820,"interpreted":12821,"Ġcoroutine":12822,"Ġcoroutines":12823,"ĠContentDecodingError":12824,"ĠFileExistsError":12825,"suffixes":12826,"ĠSTDERR":12827,"COMMAND":12828,"ĠServerOptions":12829,"Ġseparators":12830,"Ġagainst":12831,"GestureDatabaseItem":12832,"ĠEchoServerFactory":12833,"ĠEchoClientFactory":12834,"BLOCKSIZE":12835,"ĠSupportsInt":12836,"MultitextureLayout":12837,"Ġincrementalencoder":12838,"TomlPreserveCommentEncoder":12839,"TomlPreserveCommentDecoder":12840,"EvtRenderEvent":12841,"MIPMAPCOUN":12842,"Ġinvestigation":12843,"SingleByteCharsetPro":12844,"SingleByteCharSetPro":12845,"\"(\\.":12846,"'+'":12847,"*=\\":12848,">)(\"_":12849,"?([^#]*)":12850,"AsyncIOLoop":12851,"Board":12852,"BlehItem":12853,"BINARY":12854,"CodingNomads":12855,"GoF":12856,"IconImagePlugin":12857,"MATRIX":12858,"MutableTextInput":12859,"NEUTRAL":12860,"NumeralMap":12861,"Obecnosci":12862,"PALETTEINDEXED":12863,"SectionSubTitle":12864,"UsedContainer":12865,"Violation":12866,"[]\")<":12867,"adebender":12868,"autoreset":12869,"bandFilter":12870,"flowError":12871,"gmx":12872,"hAppLog":12873,"jhsh":12874,"soon":12875,"yanked":12876,"Ġ;-)<":12877,"Ġecho":12878,"recursionerror":12879,"Ġtwine":12880,"Ġamsmath":12881,"enabled":12882,"declare":12883,"Ġfootnote":12884,"Ġclipping":12885,"Ġcwords":12886,"Ġcircuit":12887,"Ġcleanup":12888,"analyzer":12889,"Ġslowdown":12890,"Ġdriver":12891,"Ġdrivers":12892,"entlyUsedContainer":12893,"limited":12894,"Ġnaturally":12895,"unichar":12896,"Ġtouchtracer":12897,"ĠTerminate":12898,"ĠTouchEffect":12899,"Ġ'*'":12900,"identity":12901,"ĠColon":12902,"ĠSYMBOL":12903,"ĠSIGN":12904,"ĠSlideTransition":12905,"Ġhatid":12906,"Ġ282":12907,"Ġcostly":12908,"channels":12909,"ĠDestinationFile":12910,"RepeatCount":12911,"trustInfo":12912,"ĠFSCTL":12913,"ĠFontFile":12914,"ĠFeedParser":12915,"ĠexeName":12916,"ĠBorland":12917,"ĠBleach":12918,"ĠBitStream":12919,"ĠBinaryIO":12920,"ĠOperator":12921,"Ġ*_:":12922,"ĠMerge":12923,"ĠMockRequest":12924,"Ġconcepts":12925,"Ġconsists":12926,"ĠGruber":12927,"ĠRstLanguageImporter":12928,"ĠRotate":12929,"Ġscenes":12930,"ffective":12931,"ĠappendChild":12932,"notmpkey":12933,"Ġ('**.":12934,"Ġ8412":12935,"UnrecognizedFormat":12936,"PIXELFORMAT":12937,"DeviceType":12938,"Ġmappedvalue":12939,"Ġ7975":12940,"Ġcursors":12941,"ĠStateMachine":12942,"ĠEndTag":12943,"KELVIN":12944,"PYPIRC":12945,"ĠTimeZoneInfo":12946,"ĠContributors":12947,"PointElements":12948,"LASTNAME":12949,"Ġsugar":12950,"ĠCompoundSelection":12951,"PolicyChangeNotification":12952,"Ġoccurrence":12953,"+)_(\\":12954,"ĠNamedTemporaryFile":12955,"RegSetValueEx":12956,"ĠChristian":12957,"ĠChunkedEncoding":12958,"ĠHelpers":12959,"ĠSystemMessagePropag":12960,"LookupAccountName":12961,"ĠScrollView":12962,"ĠMartijn":12963,"Ġresponsible":12964,"Ġguarded":12965,"ĠMaximumSize":12966,"Ġpopulating":12967,"IndividualSpecifier":12968,"ĠJohnson":12969,"AllocateReadBuffer":12970,"Ġmarshal":12971,"Normalise":12972,"Ġintroduced":12973,"ĠCharacterCategory":12974,"Cancelled":12975,"PerformanceAttributes":12976,"VIRTUALENV":12977,"ĠPropagateTargets":12978,"Ġexhausted":12979,"PySecBufferType":12980,"TokenImpersonationLevel":12981,"magneticFieldSensorEnable":12982,"\"[-_.]+":12983,"$\"\"\",<":12984,"'}.<":12985,")->":12986,"))?-(?":12987,".]*([":12988,"=~/.":12989,">\"\"\"\"\"\"":12990,"AINER":12991,"AnsiCodes":12992,"ACTION":12993,"BlurEffect":12994,"BREAK":12995,"Correction":12996,"CRIME":12997,"CACERT":12998,"CANCEL":12999,"Decorations":13000,"Destroy":13001,"DATETIME":13002,"Formerly":13003,"FROZEN":13004,"FRAGMENT":13005,"HANDLE":13006,"IMAGE":13007,"Legal":13008,"LAPPED":13009,"LUCR":13010,"Owner":13011,"Retrie":13012,"Sitting":13013,"Semantic":13014,"SVEM":13015,"SpaceCharacters":13016,"SOFTWA":13017,"SvgWidget":13018,"SPACES":13019,"TotalFileSize":13020,"TiffImageFile":13021,"VOLUME":13022,"WayToWaitFor":13023,"WISTD":13024,"WHATWG":13025,"]==\"":13026,"bgeld":13027,"casadebender":13028,"didSubst":13029,"diveintopython":13030,"dyndns":13031,"dialogs":13032,"furius":13033,"kinect":13034,"kentype":13035,"kangsj":13036,"mjpieters":13037,"nodot":13038,"natural":13039,"ology":13040,"panjy":13041,"prerelease":13042,"pseudoxml":13043,"smsnet":13044,"sHelpFormatter":13045,"today":13046,"treewalkers":13047,"wildcards":13048,"zopechin":13049,"zemiak":13050,"zoznam":13051,"Ġ]+\")(\"":13052,"ĠâĢĶ":13053,"integers":13054,"incoming":13055,"instructions":13056,"Ġtajne":13057,"Ġambiguous":13058,"decreasing":13059,"tifyAuditEventsInformation":13060,"Ġfundamental":13061,"Ġfetched":13062,"Ġflexible":13063,"Ġpromote":13064,"Ġpersist":13065,"Ġpowers":13066,"Ġplistlib":13067,"Ġphotographs":13068,"Ġcircular":13069,"selidor":13070,"ingSkips":13071,"getiptcinfo":13072,"Ġsvem":13073,"Ġsafely":13074,"Ġodbc":13075,"sslobj":13076,"Ġbaby":13077,"Ġbastardised":13078,"Ġdigit":13079,"ĠdNSName":13080,"Ġinformative":13081,"ĠinnerHTML":13082,"Ġinfinite":13083,"Ġincrementaldecoder":13084,"ladefile":13085,"universaldetector":13086,"Ġ('',":13087,"threshold":13088,"isolate":13089,"isapidll":13090,"ĠCalledProcessError":13091,"ĠCandidatesFromPage":13092,"ĠCygwin":13093,"ĠClicking":13094,"ravolskas":13095,"Ġoffered":13096,"ĠSaveDialog":13097,"ĠStyle":13098,"ĠSTOP":13099,"ĠSEMICOLON":13100,"ĠSuzi":13101,"getfilesystemencoding":13102,"Ġhighest":13103,"Ġhwnds":13104,"ĠvTexCoords":13105,"ĠIronPython":13106,"ĠIRTDServer":13107,"ĠIppolito":13108,"ĠPreparedRequest":13109,"ĠPngImagePlugin":13110,"ĠPhotoCD":13111,"ĠNicola":13112,"ĠAsko":13113,"ĠAlastair":13114,"ĠLimit":13115,"ĠLABELS":13116,"echowicz":13117,"ĠDIGIT":13118,"ĠDETECTING":13119,"ĠDependencyWarnings":13120,"ĠDobravolskas":13121,"ReparseException":13122,"Ġasynchronously":13123,"Ġeagerly":13124,"teapot":13125,"ĠFixes":13126,"ĠFreeze":13127,"ĠFeatures":13128,"ĠFramebuffer":13129,"ĠFNFError":13130,"Ġexcluded":13131,"ĠBindTexture":13132,"ĠBlender":13133,"ĠBRIGHT":13134,"ĠBalaguer":13135,"Ġstrategy":13136,"Ġdetailed":13137,"outgoing":13138,"ĠObjFile":13139,"ĠOffice":13140,"(\"(\").":13141,"(\"[\").":13142,"constructors":13143,"consumes":13144,"ĠMagic":13145,"ĠMarek":13146,"ĠMissingSchema":13147,"ĠMETADATA":13148,"ĠMachineState":13149,"ansitowin":13150,"ĠHookMissing":13151,"ĠHIGH":13152,"ĠHofmeyr":13153,"ĠHttpExtensionProc":13154,"Ġconsumption":13155,"IntegrationPointElements":13156,"REALM":13157,"Ġenormous":13158,"ĠWarehouse":13159,"ĠWarcraft":13160,"ĠWojciechowicz":13161,"ExportPopup":13162,"Experimental":13163,"Ġalgorithms":13164,"Ġallotted":13165,"Ġalongside":13166,"Ġunfinished":13167,"Ġunsuitable":13168,"Ġ{...}}<":13169,"ĠGaifax":13170,"ĠRenamed":13171,"ĠInstances":13172,"ĠIncludes":13173,"components":13174,"ibliographic":13175,"Ġattrib":13176,"problematic":13177,"Ġheartbeat":13178,"METRICS":13179,"Ġarbitrary":13180,"fficiently":13181,"STATUS":13182,"redentials":13183,"Ġextremely":13184,"DESCRIPTOR":13185,"ĠtestWaitableFire":13186,"Ġsubsequent":13187,"022501":13188,"ĠEquality":13189,"ĠEffectWidget":13190,"Ġbackslash":13191,"ĠNotIntegerError":13192,"ĠDistutilsModuleError":13193,"ĠDistutilsArgError":13194,"UnfilteredWriter":13195,"Ġaddresses":13196,"ParsingError":13197,"Definition":13198,"GetWindowRect":13199,"GetStdHandle":13200,"GetSaveFileNameW":13201,"Ġ7678":13202,"Ġaccident":13203,"ĠLabelWithMarkup":13204,"ĠLabelMipmapTest":13205,"ĠJannie":13206,"TestReclineViewBase":13207,"eventLogType":13208,"ĠInvalidProxyURL":13209,"Ġdisplays":13210,"LSchemeUnknown":13211,"ĠCommandArgs":13212,"LEVEL":13213,"Ġoverwrites":13214,"ĠExtraData":13215,"ĠEncapsulates":13216,"ComputeStringLength":13217,"ARRAY":13218,"Ġcolormaptype":13219,"ĠProbingState":13220,"ACCELERATORS":13221,"ĠMyLibrus":13222,"NOCTTY":13223,"NOFOLLOW":13224,"startActivityForResult":13225,"].*)?$')<":13226,"PROPERTIES":13227,"Ġperiodically":13228,"ĠBuildDefaultPythonKey":13229,"Ġentrypoint":13230,"ĠtagTokenTypes":13231,"PolicyNotifyAuditEventsInformation":13232,"TomlPathlibEncoder":13233,"TomlArraySeparator":13234,"TomlNumpyEncoder":13235,"ĠParticularly":13236,"DoSomething":13237,"TokenSessionId":13238,"ĠapplyHandlingSkips":13239,"ĠSequenceLikelihood":13240,"PRERELEASE":13241,"xmlrpclib":13242,"vcvarsall":13243,"ĠSUPPRESS":13244,"readyInstalledCandidate":13245,"URLENCODED":13246,"ĠLIGHTBLUE":13247,"ĠLIGHTMAGENTA":13248,"uxiliary":13249,"LsaStorePrivateData":13250,"Ġ`-`.`-'":13251,"Ġdeclarations":13252,"ĠStreamConsumedError":13253,"IMPERSONATION":13254,"ĠResponseNotChunked":13255,"LookupPrivilegeValue":13256,"ABLESTYLEPREFIX":13257,"pdatingDefaultsHelpFormatter":13258,"ĠINFINITE":13259,"ĠQuotedString":13260,"ĠUNDEFINED":13261,"ĠCAMERA":13262,"ĠMartÃŃn":13263,"ĠInternetCanonicalizeUrl":13264,"TomlPreserveInlineDictEncoder":13265,"SECBUFFER":13266,"Ġquadrilateral":13267,"ĠBodyNotHttplibCompatible":13268,"ĠOutOfRangeError":13269,"(\"{([^}]*)}(.*)\")<":13270,"ĠMiroslav":13271,"MIPMAPCOUNT":13272,"SingleByteCharsetProber":13273,"SingleByteCharSetProbers":13274,"ĠCompoundSelectionBehavior":13275,"ĠChunkedEncodingError":13276,"ĠSystemMessagePropagation":13277,"\"[-_.]+\")<":13278,"SOFTWARE":13279,"WayToWaitForSocketError":13280,"zopechina":13281,"isapidllhandle":13282,"TomlArraySeparatorEncoder":13283}